{"version": "1.0", "truncation": null, "padding": null, "added_tokens": [{"id": 31, "special": true, "content": "[PAD]", "single_word": false, "lstrip": false, "rstrip": false, "normalized": false}, {"id": 32, "special": true, "content": "[UNK]", "single_word": false, "lstrip": false, "rstrip": false, "normalized": false}, {"id": 33, "special": true, "content": "[CLS]", "single_word": false, "lstrip": false, "rstrip": false, "normalized": false}, {"id": 34, "special": true, "content": "[SEP]", "single_word": false, "lstrip": false, "rstrip": false, "normalized": false}, {"id": 35, "special": true, "content": "[MASK]", "single_word": false, "lstrip": false, "rstrip": false, "normalized": false}, {"id": 21, "special": true, "content": "[\u0631\u0627\u0628\u0637]", "single_word": true, "lstrip": false, "rstrip": false, "normalized": true}, {"id": 6, "special": true, "content": "\u0644+", "single_word": true, "lstrip": false, "rstrip": false, "normalized": true}, {"id": 7, "special": true, "content": "+\u0647\u0645\u0627", "single_word": true, "lstrip": false, "rstrip": false, "normalized": true}, {"id": 0, "special": true, "content": "+\u0627", "single_word": true, "lstrip": false, "rstrip": false, "normalized": true}, {"id": 22, "special": true, "content": "\u0633+", "single_word": true, "lstrip": false, "rstrip": false, "normalized": true}, {"id": 11, "special": true, "content": "+\u0643\u0645\u0627", "single_word": true, "lstrip": false, "rstrip": false, "normalized": true}, {"id": 9, "special": true, "content": "+\u0646", "single_word": true, "lstrip": false, "rstrip": false, "normalized": true}, {"id": 30, "special": true, "content": "\u0643+", "single_word": true, "lstrip": false, "rstrip": false, "normalized": true}, {"id": 5, "special": true, "content": "+\u064a", "single_word": true, "lstrip": false, "rstrip": false, "normalized": true}, {"id": 10, "special": true, "content": "+\u0647\u0627", "single_word": true, "lstrip": false, "rstrip": false, "normalized": true}, {"id": 14, "special": true, "content": "+\u0643\u0645", "single_word": true, "lstrip": false, "rstrip": false, "normalized": true}, {"id": 8, "special": true, "content": "+\u0646\u0627", "single_word": true, "lstrip": false, "rstrip": false, "normalized": true}, {"id": 16, "special": true, "content": "+\u062a", "single_word": true, "lstrip": false, "rstrip": false, "normalized": true}, {"id": 1, "special": true, "content": "+\u0643", "single_word": true, "lstrip": false, "rstrip": false, "normalized": true}, {"id": 23, "special": true, "content": "+\u0627\u0646", "single_word": true, "lstrip": false, "rstrip": false, "normalized": true}, {"id": 25, "special": true, "content": "+\u0647", "single_word": true, "lstrip": false, "rstrip": false, "normalized": true}, {"id": 12, "special": true, "content": "+\u0629", "single_word": true, "lstrip": false, "rstrip": false, "normalized": true}, {"id": 20, "special": true, "content": "\u0627\u0644+", "single_word": true, "lstrip": false, "rstrip": false, "normalized": true}, {"id": 13, "special": true, "content": "\u0641+", "single_word": true, "lstrip": false, "rstrip": false, "normalized": true}, {"id": 29, "special": true, "content": "\u0648+", "single_word": true, "lstrip": false, "rstrip": false, "normalized": true}, {"id": 18, "special": true, "content": "[\u0645\u0633\u062a\u062e\u062f\u0645]", "single_word": true, "lstrip": false, "rstrip": false, "normalized": true}, {"id": 3, "special": true, "content": "+\u0647\u0645", "single_word": true, "lstrip": false, "rstrip": false, "normalized": true}, {"id": 24, "special": true, "content": "+\u0648\u0627", "single_word": true, "lstrip": false, "rstrip": false, "normalized": true}, {"id": 4, "special": true, "content": "+\u0627\u062a", "single_word": true, "lstrip": false, "rstrip": false, "normalized": true}, {"id": 17, "special": true, "content": "[\u0628\u0631\u064a\u062f]", "single_word": true, "lstrip": false, "rstrip": false, "normalized": true}, {"id": 28, "special": true, "content": "+\u064a\u0646", "single_word": true, "lstrip": false, "rstrip": false, "normalized": true}, {"id": 19, "special": true, "content": "\u0644\u0644+", "single_word": true, "lstrip": false, "rstrip": false, "normalized": true}, {"id": 2, "special": true, "content": "\u0628+", "single_word": true, "lstrip": false, "rstrip": false, "normalized": true}, {"id": 27, "special": true, "content": "+\u0647\u0646", "single_word": true, "lstrip": false, "rstrip": false, "normalized": true}, {"id": 26, "special": true, "content": "+\u0648\u0646", "single_word": true, "lstrip": false, "rstrip": false, "normalized": true}, {"id": 15, "special": true, "content": "+\u0643\u0646", "single_word": true, "lstrip": false, "rstrip": false, "normalized": true}], "normalizer": {"type": "BertNormalizer", "clean_text": true, "handle_chinese_chars": true, "strip_accents": null, "lowercase": true}, "pre_tokenizer": {"type": "BertPreTokenizer"}, "post_processor": {"type": "TemplateProcessing", "single": [{"SpecialToken": {"id": "[CLS]", "type_id": 0}}, {"Sequence": {"id": "A", "type_id": 0}}, {"SpecialToken": {"id": "[SEP]", "type_id": 0}}], "pair": [{"SpecialToken": {"id": "[CLS]", "type_id": 0}}, {"Sequence": {"id": "A", "type_id": 0}}, {"SpecialToken": {"id": "[SEP]", "type_id": 0}}, {"Sequence": {"id": "B", "type_id": 1}}, {"SpecialToken": {"id": "[SEP]", "type_id": 1}}], "special_tokens": {"[CLS]": {"id": "[CLS]", "ids": [33], "tokens": ["[CLS]"]}, "[SEP]": {"id": "[SEP]", "ids": [34], "tokens": ["[SEP]"]}}}, "decoder": {"type": "WordPiece", "prefix": "##", "cleanup": true}, "model": {"unk_token": "[UNK]", "continuing_subword_prefix": "##", "max_input_chars_per_word": 100, "vocab": {"+\u0627": 0, "+\u0643": 1, "\u0628+": 2, "+\u0647\u0645": 3, "+\u0627\u062a": 4, "+\u064a": 5, "\u0644+": 6, "+\u0647\u0645\u0627": 7, "+\u0646\u0627": 8, "+\u0646": 9, "+\u0647\u0627": 10, "+\u0643\u0645\u0627": 11, "+\u0629": 12, "\u0641+": 13, "+\u0643\u0645": 14, "+\u0643\u0646": 15, "+\u062a": 16, "[\u0628\u0631\u064a\u062f]": 17, "[\u0645\u0633\u062a\u062e\u062f\u0645]": 18, "\u0644\u0644+": 19, "\u0627\u0644+": 20, "[\u0631\u0627\u0628\u0637]": 21, "\u0633+": 22, "+\u0627\u0646": 23, "+\u0648\u0627": 24, "+\u0647": 25, "+\u0648\u0646": 26, "+\u0647\u0646": 27, "+\u064a\u0646": 28, "\u0648+": 29, "\u0643+": 30, "[PAD]": 31, "[UNK]": 32, "[CLS]": 33, "[SEP]": 34, "[MASK]": 35, "!": 36, "\"": 37, "#": 38, "$": 39, "%": 40, "'": 41, "(": 42, ")": 43, "*": 44, "+": 45, ",": 46, "-": 47, ".": 48, "0": 49, "1": 50, "2": 51, "3": 52, "4": 53, "5": 54, "6": 55, "7": 56, "8": 57, "9": 58, ":": 59, "<": 60, "=": 61, ">": 62, "?": 63, "@": 64, "A": 65, "B": 66, "C": 67, "D": 68, "E": 69, "F": 70, "G": 71, "H": 72, "I": 73, "J": 74, "K": 75, "L": 76, "M": 77, "N": 78, "O": 79, "P": 80, "Q": 81, "R": 82, "S": 83, "T": 84, "U": 85, "V": 86, "W": 87, "X": 88, "Y": 89, "Z": 90, "[": 91, "\\": 92, "]": 93, "^": 94, "_": 95, "`": 96, "a": 97, "b": 98, "c": 99, "d": 100, "e": 101, "f": 102, "g": 103, "h": 104, "i": 105, "j": 106, "k": 107, "l": 108, "m": 109, "n": 110, "o": 111, "p": 112, "q": 113, "r": 114, "s": 115, "t": 116, "u": 117, "v": 118, "w": 119, "x": 120, "y": 121, "z": 122, "{": 123, "|": 124, "}": 125, "~": 126, "\u00ab": 127, "\u00b7": 128, "\u00bb": 129, "\u060c": 130, "\u061b": 131, "\u061f": 132, "\u0621": 133, "\u0622": 134, "\u0623": 135, "\u0624": 136, "\u0625": 137, "\u0626": 138, "\u0627": 139, "\u0628": 140, "\u0629": 141, "\u062a": 142, "\u062b": 143, "\u062c": 144, "\u062d": 145, "\u062e": 146, "\u062f": 147, "\u0630": 148, "\u0631": 149, "\u0632": 150, "\u0633": 151, "\u0634": 152, "\u0635": 153, "\u0636": 154, "\u0637": 155, "\u0638": 156, "\u0639": 157, "\u063a": 158, "\u0641": 159, "\u0642": 160, "\u0643": 161, "\u0644": 162, "\u0645": 163, "\u0646": 164, "\u0647": 165, "\u0648": 166, "\u0649": 167, "\u064a": 168, "\u0653": 169, "\u0654": 170, "\u0655": 171, "\u0656": 172, "\u0657": 173, "\u0659": 174, "\u065a": 175, "\u065c": 176, "\u065d": 177, "\u065e": 178, "\u066a": 179, "\u066b": 180, "\u066c": 181, "\u06da": 182, "\u2013": 183, "\u2014": 184, "\u2018": 185, "\u2019": 186, "\u201c": 187, "\u201d": 188, "\u2026": 189, "##e": 190, "##s": 191, "##u": 192, "##r": 193, "##\u062c": 194, "##\u0627": 195, "##\u0644": 196, "##\u062e": 197, "##\u0642": 198, "##\u0645": 199, "##\u0634": 200, "##9": 201, "##4": 202, "##2": 203, "##3": 204, "##7": 205, "##0": 206, "##6": 207, "##1": 208, "##\u064a": 209, "##\u062a": 210, "##\u0631": 211, "##t": 212, "##a": 213, "##m": 214, "##5": 215, "##8": 216, "##\u0643": 217, "##\u0648": 218, "##\u0646": 219, "##\u0633": 220, "##\u0628": 221, "##\u0626": 222, "##\u0647": 223, "##\u0632": 224, "##\u0623": 225, "##\u0630": 226, "##\u062d": 227, "##\u062f": 228, "##b": 229, "##i": 230, "##l": 231, "##d": 232, "##n": 233, "##U": 234, "##R": 235, "##I": 236, "##E": 237, "##X": 238, "##o": 239, "##k": 240, "##\u0635": 241, "##\u0639": 242, "##A": 243, "##S": 244, "##\u0637": 245, "##\u0641": 246, "##\u0649": 247, "##M": 248, "##F": 249, "##\u0625": 250, "##\u0629": 251, "##\u0624": 252, "##\u063a": 253, "##p": 254, "##N": 255, "##V": 256, "##O": 257, "##\u062b": 258, "##y": 259, "##\u0622": 260, "##c": 261, "##\u0638": 262, "##T": 263, "##C": 264, "##L": 265, "##v": 266, "##h": 267, "##G": 268, "##\u0636": 269, "##g": 270, "##H": 271, "##W": 272, "##f": 273, "##B": 274, "##w": 275, "##\u0621": 276, "##K": 277, "##x": 278, "##D": 279, "##j": 280, "##Z": 281, "##z": 282, "##q": 283, "##P": 284, "##Q": 285, "##Y": 286, "##J": 287, "\u0627\u0644": 288, "\u0641\u064a": 289, "\u0645\u0646": 290, "\u0627\u062a": 291, "##\u0627\u0644": 292, "##\u0627\u0631": 293, "##\u0627\u0646": 294, "##\u0644\u0649": 295, "##\u0627\u0645": 296, "##\u064a\u0631": 297, "\u0647\u0627": 298, "##\u0631\u064a": 299, "##\u0644\u064a": 300, "##\u0627\u062f": 301, "\u0623\u0646": 302, "##\u064a\u0646": 303, "##\u0648\u0644": 304, "##\u0627\u0628": 305, "\u0639\u0644\u0649": 306, "##\u0627\u0621": 307, "\u064a\u0646": 308, "##\u0633\u062a": 309, "##\u0627\u0626": 310, "##\u0648\u0631": 311, "\u0627\u0646": 312, "##\u0648\u0646": 313, "##\u0627\u0639": 314, "\u0645\u0639": 315, "##\u062a\u064a": 316, "##\u0627\u0641": 317, "##\u062f\u064a": 318, "\u0623\u0645": 319, "##\u0628\u064a": 320, "##\u0648\u0645": 321, "\u0639\u0646": 322, "##\u0645\u0627": 323, "##\u0627\u0633": 324, "##\u0627\u0642": 325, "\u0645\u062d": 326, "\u0647\u0630": 327, "##\u0645\u064a": 328, "##\u0648\u064a": 329, "\u0645\u0648": 330, "\u0645\u0627": 331, "\u0647\u0645": 332, "\u0645\u0631": 333, "##\u0627\u062d": 334, "\u0627\u0644\u062a\u064a": 335, "\u0625\u0644\u0649": 336, "\u0645\u062a": 337, "##\u0646\u064a": 338, "##\u0644\u0643": 339, "##\u0627\u0646\u064a": 340, "\u062a\u0639": 341, "\u0627\u0633\u062a": 342, "##\u064a\u0633": 343, "\u0645\u0633": 344, "##\u062a\u0645": 345, "##\u064a\u062f": 346, "\u0623\u0648": 347, "\u0625\u0646": 348, "\u0645\u062c": 349, "\u062a\u062d": 350, "##\u0639\u062f": 351, "##\u0627\u062c": 352, "##\u0648\u062f": 353, "\u0645\u062f": 354, "##\u0628\u0631": 355, "##\u0642\u064a": 356, "\u0645\u0634": 357, "\u0646\u0627": 358, "\u0639\u0627\u0645": 359, "\u0639\u0645": 360, "\u0627\u0644\u0630": 361, "##\u064a\u0644": 362, "\u0644\u0627": 363, "##\u0631\u0628": 364, "\u0623\u0633": 365, "##\u0631\u0643": 366, "##\u062f\u0645": 367, "##\u0627\u0644\u064a": 368, "\u0643\u0627\u0646": 369, "##\u0627\u064a": 370, "\u0645\u0635": 371, "##\u0643\u0646": 372, "##\u0648\u0639": 373, "##\u0628\u0644": 374, "##\u0627\u0647": 375, "\u0645\u0642": 376, "\u0627\u0644\u0630\u064a": 377, "##\u062a\u0631": 378, "##\u0627\u0635": 379, "##\u0627\u0637": 380, "\u062a\u0648": 381, "\u0631\u0626": 382, "##\u062d\u062f": 383, "\u0648\u0646": 384, "\u062a\u0642": 385, "##\u0644\u0645": 386, "\u0647\u0630\u0627": 387, "\u0627\u0644\u0649": 388, "##\u0627\u0643": 389, "##\u0644\u0633": 390, "\u062a\u0646": 391, "\u0633\u064a": 392, "##\u0628\u062f": 393, "\u0639\u0631": 394, "##\u0627\u0631\u064a": 395, "\u0645\u0633\u062a": 396, "##\u0641\u064a": 397, "##\u0639\u0644": 398, "\u0623\u0643": 399, "##\u064a\u0645": 400, "\u0631\u0626\u064a\u0633": 401, "\u0643\u0644": 402, "##\u062e\u0631": 403, "##\u0644\u0627\u0644": 404, "\u0647\u0630\u0647": 405, "\u0628\u0644": 406, "\u0628\u064a\u0646": 407, "\u062a\u0645": 408, "##\u0633\u064a": 409, "\u0648\u0627": 410, "##\u0636\u064a": 411, "##\u0645\u062f": 412, "\u0628\u0646": 413, "\u0628\u0639\u062f": 414, "\u0648\u0632": 415, "\u0642\u062f": 416, "##\u062f\u064a\u062f": 417, "\u062d\u064a": 418, "\u0647\u0648": 419, "##\u0643\u0631": 420, "\u0639\u0644\u064a": 421, "##\u0627\u0632": 422, "\u0625\u0633": 423, "\u0630\u0644\u0643": 424, "##\u0648\u0631\u064a": 425, "##\u0634\u0631": 426, "\u062f\u0648\u0644": 427, "\u0645\u0628": 428, "##\u0644\u0641": 429, "##\u062f\u062f": 430, "\u0645\u0624": 431, "\u0623\u0639": 432, "\u0642\u0627\u0644": 433, "##\u0648\u0628": 434, "\u0641\u0631": 435, "##\u0648\u0642": 436, "\u064a\u0648\u0645": 437, "##\u0627\u0626\u064a": 438, "\u064a\u062a": 439, "##\u0627\u062a": 440, "\u062a\u062c": 441, "\u0627\u0646\u062a": 442, "\u0647\u064a": 443, "\u062a\u0631": 444, "##\u0647\u062f": 445, "\u0623\u064a": 446, "##\u0645\u0644": 447, "\u0628\u0631": 448, "\u0634\u0631": 449, "##\u0647\u0631": 450, "##\u0635\u0644": 451, "##\u0627\u062f\u064a": 452, "##\u0637\u0644": 453, "##\u0644\u0627": 454, "\u062e\u0644\u0627\u0644": 455, "##\u0631\u064a\u0642": 456, "\u062c\u0645": 457, "##\u0628\u0646": 458, "\u0639\u0628\u062f": 459, "\u064a\u0639": 460, "\u062d\u0643": 461, "\u0644\u0645": 462, "##\u0642\u062f": 463, "##\u062c\u064a": 464, "\u0633\u0644": 465, "20": 466, "##\u0642\u062a": 467, "##\u0632\u064a": 468, "##\u0647\u0645": 469, "\u0645\u062e": 470, "\u0642\u0631": 471, "##\u0633\u0628": 472, "##\u0643\u064a": 473, "##\u0648\u0641": 474, "\u0623\u062d": 475, "\u062a\u0634": 476, "##\u0631\u0641": 477, "##\u0645\u0646": 478, "\u0635\u062d": 479, "##\u0639\u064a": 480, "##\u062b\u0631": 481, "##\u0627\u0633\u064a": 482, "##\u0642\u0644": 483, "\u0628\u064a": 484, "##\u0643\u0648\u0646": 485, "\u0639\u0645\u0644": 486, "##\u0644\u0647": 487, "##\u062a\u0628": 488, "\u0628\u0639": 489, "\u0646\u0641": 490, "\u0623\u0648\u0644": 491, "##\u0633\u0645": 492, "\u0623\u0631": 493, "##\u0627\u0636": 494, "\u062a\u0623": 495, "\u0633\u0628": 496, "\u0647\u0646": 497, "##\u064a\u0641": 498, "##\u0643\u0644": 499, "\u0623\u062c": 500, "\u0633\u0646": 501, "##\u0627\u0631\u0643": 502, "##\u0648\u0644\u064a": 503, "##\u062b\u0644": 504, "##\u0645\u0631": 505, "\u0643\u0645\u0627": 506, "##\u062f\u0631": 507, "\u0645\u0643": 508, "\u062a\u0633": 509, "\u062a\u0635": 510, "\u0633\u0639": 511, "\u0627\u0639": 512, "\u0645\u062c\u0644\u0633": 513, "\u062e\u0637": 514, "##\u0641\u0631": 515, "##\u0639\u0628": 516, "\u0646\u0638": 517, "\u0639\u0644": 518, "##\u0648\u0649": 519, "##\u062a\u0649": 520, "\u0634\u0631\u0643": 521, "##\u0636\u0627\u0641": 522, "\u0644\u0643\u0646": 523, "\u0639\u0627\u0644": 524, "##\u062e\u0644": 525, "##\u0631\u0627\u0621": 526, "\u062d\u064a\u062b": 527, "\u062a\u062a": 528, "\u0631\u064a": 529, "\u062a\u062f": 530, "\u0627\u062d": 531, "\u0623\u0634": 532, "\u064a\u0642": 533, "\u0645\u062d\u0645\u062f": 534, "\u0625\u062f": 535, "##\u0628\u064a\u0631": 536, "\u0623\u0635": 537, "\u0628\u062f": 538, "\u063a\u064a\u0631": 539, "##\u0648\u0633": 540, "\u062f\u0631": 541, "##\u0627\u0645\u064a": 542, "##\u0645\u0627\u0644": 543, "##\u0637\u0642": 544, "\u0628\u0639\u0636": 545, "\u062c\u0646": 546, "\u0639\u0631\u0628\u064a": 547, "\u064a\u0645": 548, "##\u064a\u0646\u064a": 549, "##\u0642\u064a\u0642": 550, "\u0642\u0637": 551, "##\u062e\u0635": 552, "\u0644\u0628\u0646": 553, "\u0642\u0628\u0644": 554, "##\u0627\u0639\u064a": 555, "\u062d\u0643\u0648\u0645": 556, "\u064a\u062d": 557, "\u062c\u0647": 558, "\u062a\u0641": 559, "\u062e\u0627\u0635": 560, "\u0623\u062e": 561, "\u0645\u0646\u0637\u0642": 562, "\u062a\u0637": 563, "\u0645\u0644": 564, "\u0642\u0648": 565, "\u062d\u0631": 566, "\u062c\u062f\u064a\u062f": 567, "\u0648\u0637": 568, "\u0645\u0645": 569, "##\u0644\u0628": 570, "\u062f\u0639": 571, "\u0648\u062c": 572, "\u062f\u0648\u0631": 573, "##\u0627\u0628\u0639": 574, "##\u0648\u0632": 575, "\u0623\u0628": 576, "\u0646\u0642": 577, "\u0623\u062d\u062f": 578, "\u0639\u0628\u062f\u0627\u0644": 579, "\u0627\u062c": 580, "\u0639\u062f\u062f": 581, "\u0623\u0641": 582, "\u062d\u062a\u0649": 583, "\u062d\u0642": 584, "##\u0627\u062f\u0631": 585, "\u0634\u064a": 586, "##\u0643\u062a": 587, "##\u0627\u0645\u0644": 588, "\u0645\u0647": 589, "\u062c\u0645\u064a": 590, "\u0623\u062f": 591, "##\u0627\u0639\u062f": 592, "\u0645\u0646\u062a": 593, "\u0643\u0628\u064a\u0631": 594, "##\u0641\u0639": 595, "\u0627\u0644\u0644\u0647": 596, "##\u0627\u0648\u0644": 597, "\u0623\u0645\u064a\u0631": 598, "\u062d\u062f": 599, "##\u062c\u0646": 600, "\u062d\u0633": 601, "##\u0644\u0642": 602, "##\u0627\u0626\u0644": 603, "##\u0636\u0639": 604, "##\u062b\u064a\u0631": 605, "\u0639\u0646\u062f": 606, "##\u0627\u0644\u0628": 607, "##\u0648\u062c": 608, "##\u0635\u0631": 609, "\u0641\u0631\u064a\u0642": 610, "\u0623\u0643\u062b\u0631": 611, "\u0646\u0647": 612, "\u0645\u0635\u0631": 613, "##\u0648\u062a": 614, "\u0645\u0631\u0643": 615, "\u0646\u062d": 616, "\u0643\u0631": 617, "\u0625\u062f\u0627\u0631": 618, "##\u0648\u0627\u0646": 619, "\u0634\u0628": 620, "##\u0648\u0646\u064a": 621, "##\u062a\u0644": 622, "##\u0627\u0628\u0642": 623, "##\u0638\u0645": 624, "##\u0637\u0631": 625, "\u0628\u062d": 626, "\u0645\u0644\u064a": 627, "##\u0648\u062f\u064a": 628, "19": 629, "\u062c\u0645\u064a\u0639": 630, "\u0645\u0641": 631, "\u062b\u0627\u0646\u064a": 632, "##\u0645\u0627\u0631": 633, "##\u0627\u0628\u064a": 634, "\u062f\u0627": 635, "##\u0644\u064a\u0645": 636, "\u062d\u0627\u0644": 637, "##\u0648\u062d": 638, "\u0642\u064a": 639, "##\u0630\u0627": 640, "\u0622\u062e\u0631": 641, "\u0627\u062c\u062a\u0645": 642, "\u064a\u062c": 643, "##\u0636\u062d": 644, "\u0648\u0632\u064a\u0631": 645, "\u0623\u062e\u0631": 646, "##\u0646\u062f": 647, "\u0625\u0633\u0631": 648, "\u0623\u0647": 649, "\u0639\u062f": 650, "\u0646\u062c": 651, "\u0639\u0645\u0644\u064a": 652, "\u0623\u0645\u0633": 653, "\u0627\u0642\u062a": 654, "\u0639\u0642": 655, "\u0648\u0641": 656, "\u0648\u0632\u0627\u0631": 657, "\u064a\u0643\u0648\u0646": 658, "##\u0646\u0649": 659, "\u0623\u062e\u0631\u0649": 660, "##\u0644\u0627\u062b": 661, "\u062b\u0644\u0627\u062b": 662, "\u0627\u062e": 663, "\u0632\u064a": 664, "\u0646\u0633\u0628": 665, "\u062f\u0648\u0644\u064a": 666, "##\u0637\u064a": 667, "##\u0632\u0645": 668, "##\u062c\u0644": 669, "\u0623\u0643\u062f": 670, "\u062e\u0627\u0631": 671, "\u0633\u0648\u0631\u064a": 672, "##\u0627\u0641\u064a": 673, "\u0647\u0646\u0627\u0643": 674, "\u0645\u064a": 675, "\u0633\u0645": 676, "\u0627\u062a\u062d": 677, "\u0627\u0631": 678, "##\u0648\u0627\u0631": 679, "##\u0642\u0631": 680, "\u0623\u0645\u0631": 681, "\u0644\u064a\u0633": 682, "##\u0627\u0639\u0628": 683, "\u0625\u062c": 684, "\u0633\u064a\u0627\u0633\u064a": 685, "\u0646\u0641\u0633": 686, "\u0639\u0627\u0644\u0645": 687, "##\u0648\u0636": 688, "\u0645\u062f\u064a\u0646": 689, "\u0634\u0639": 690, "##\u064a\u0628": 691, "##\u0627\u0626\u0631": 692, "\u0645\u0637": 693, "\u0645\u0634\u0631": 694, "\u0625\u064a": 695, "\u062d\u0632": 696, "\u064a\u062a\u0645": 697, "##\u0642\u0639": 698, "\u0645\u062f\u064a\u0631": 699, "##\u0627\u0641\u0638": 700, "##\u0627\u0626\u0645": 701, "\u0645\u062a\u062d\u062f": 702, "\u062c\u0627\u0645": 703, "##\u0642\u0641": 704, "200": 705, "\u0625\u0639\u0644": 706, "\u0627\u062a\u062d\u0627\u062f": 707, "\u0631\u0633": 708, "##\u062a\u0641": 709, "\u0645\u062c\u0645": 710, "##\u0627\u0647\u0631": 711, "\u0648\u0637\u0646\u064a": 712, "\u0645\u062b\u0644": 713, "\u062b\u0645": 714, "##\u0636\u0627\u0621": 715, "##\u0631\u064a\u0628": 716, "##\u0628\u062d": 717, "\u0637\u0631\u064a\u0642": 718, "\u064a\u0634": 719, "\u0642\u0631\u0627\u0631": 720, "\u0647\u0645\u0627": 721, "\u0644\u062c\u0646": 722, "##\u0627\u0631\u0633": 723, "\u062d\u0648\u0644": 724, "\u0634\u0643\u0644": 725, "\u0641\u0644\u0633": 726, "\u0645\u0631\u0643\u0632": 727, "##\u0631\u062d": 728, "##\u062e\u0628": 729, "\u0643\u062b\u064a\u0631": 730, "\u0645\u0646\u0630": 731, "\u062a\u0643": 732, "\u0633\u0639\u0648\u062f\u064a": 733, "\u0627\u0642\u062a\u0635": 734, "##\u0631\u0636": 735, "\u0634\u062e\u0635": 736, "##\u0648\u0637": 737, "##\u064a\u0634": 738, "\u0648\u0642\u062a": 739, "\u0625\u0633\u0644": 740, "\u0648\u0633": 741, "\u0644\u0627\u0639\u0628": 742, "\u062f\u0648\u0646": 743, "\u0645\u0634\u0631\u0648\u0639": 744, "\u064a\u062f": 745, "\u064a\u0633\u062a": 746, "\u0645\u0627\u0636\u064a": 747, "\u0627\u0639\u062a": 748, "\u0627\u0646\u062a\u062e": 749, "##\u0644\u062d": 750, "\u0648\u0644": 751, "##\u0627\u0646\u0628": 752, "\u062b\u0642": 753, "##\u0635\u0641": 754, "##\u0633\u0633": 755, "\u0645\u062e\u062a": 756, "\u0631\u0648": 757, "##\u0642\u0627\u0621": 758, "\u0627\u0645": 759, "\u0645\u062d\u0627\u0641\u0638": 760, "\u0639\u0634\u0631": 761, "\u062c\u062f": 762, "##\u0634\u0641": 763, "\u062c\u0632": 764, "##\u0627\u0645\u062c": 765, "\u0647\u062f": 766, "\u0631\u0623": 767, "\u0623\u0636\u0627\u0641": 768, "\u0642\u0627\u0646": 769, "\u0639\u062f\u0645": 770, "\u0641\u0644\u0633\u0637": 771, "\u0623\u0648\u0631": 772, "\u0639\u0631\u0627\u0642": 773, "##\u0627\u0626\u0628": 774, "##\u0627\u062b": 775, "\u0628\u0637": 776, "201": 777, "\u0633\u0627\u0628\u0642": 778, "##\u0642\u0637": 779, "\u062a\u0631\u0643": 780, "##\u0648\u0643": 781, "\u0648\u0636\u0639": 782, "\u0645\u0634\u0627\u0631\u0643": 783, "##\u0636\u0644": 784, "\u062c\u0627\u0645\u0639": 785, "\u0623\u0645\u0646": 786, "\u062a\u062d\u0642\u064a\u0642": 787, "##\u0631\u064a\u062f": 788, "\u0631\u063a": 789, "\u064a\u0645\u0643\u0646": 790, "\u062a\u0628": 791, "\u0642\u0637\u0627\u0639": 792, "\u0645\u0633\u0624": 793, "\u062a\u062e": 794, "\u0623\u062d\u0645\u062f": 795, "\u062a\u063a": 796, "\u062e\u062f\u0645": 797, "##\u0627\u0634": 798, "\u0623\u0642": 799, "\u0645\u062c\u0645\u0648\u0639": 800, "\u0627\u0644\u0630\u064a\u0646": 801, "\u064a\u0631": 802, "##\u0633\u0643": 803, "\u0633\u0628\u0628": 804, "##\u064a\u0631\u064a": 805, "\u0635\u0646": 806, "\u0633\u0644\u0637": 807, "##\u0643\u062a\u0648\u0631": 808, "##\u062b\u0646": 809, "\u0644\u0628\u0646\u0627\u0646": 810, "\u0623\u0639\u0645\u0627\u0644": 811, "\u0648\u0627\u062d": 812, "\u062d\u0632\u0628": 813, "##\u0648\u0628\u064a": 814, "\u062d\u0636": 815, "##\u0641\u0627\u0642": 816, "##\u0632\u064a\u0632": 817, "\u064a\u0633": 818, "\u0645\u0624\u0633\u0633": 819, "\u062f\u0643\u062a\u0648\u0631": 820, "##\u062f\u0649": 821, "\u0642\u062f\u0645": 822, "##\u0627\u0637\u0646": 823, "##\u0627\u0636\u064a": 824, "\u0623\u0633\u0628": 825, "\u0648\u0627\u062d\u062f": 826, "##\u062d\u0644": 827, "##\u0641\u0644": 828, "##\u0627\u0631\u064a\u062e": 829, "\u0643\u0648\u064a": 830, "\u062c\u0627\u0646\u0628": 831, "##\u0631\u0642": 832, "\u0637\u0628\u064a": 833, "##\u062a\u062d": 834, "##\u0627\u0631\u0627": 835, "##\u0635\u0648\u0644": 836, "\u0625\u0636\u0627\u0641": 837, "\u0623\u0631\u0628": 838, "\u0634\u0639\u0628": 839, "\u0625\u0644\u064a": 840, "\u0625\u0631": 841, "\u0646\u0648": 842, "##\u0636\u0627": 843, "\u0623\u0645\u064a\u0631\u0643\u064a": 844, "##\u0643\u062f": 845, "\u062a\u0643\u0648\u0646": 846, "\u062a\u0644\u0643": 847, "\u0644\u064a": 848, "##\u062a\u0627\u062c": 849, "\u0628\u0644\u062f": 850, "\u0641\u062a\u0631": 851, "\u0635\u0641": 852, "##\u0648\u064a\u0644": 853, "##\u0631\u064a\u0631": 854, "\u0645\u0632": 855, "\u0646\u0638\u0627\u0645": 856, "\u0646\u064a": 857, "\u0641\u0644\u0633\u0637\u064a\u0646\u064a": 858, "\u0627\u0646\u062a\u062e\u0627\u0628": 859, "\u0625\u0642": 860, "\u0645\u0627\u0644\u064a": 861, "\u062d\u0644": 862, "\u0625\u0639": 863, "##\u0627\u0626\u062f": 864, "\u0644\u0628\u0646\u0627\u0646\u064a": 865, "##\u0627\u0644\u062d": 866, "\u0645\u0635\u0631\u064a": 867, "\u0645\u0648\u0627\u0637\u0646": 868, "\u0647\u064a\u0626": 869, "\u0623\u0645\u0627\u0645": 870, "##\u062f\u064a\u0645": 871, "\u0625\u0633\u0631\u0627\u0626\u064a": 872, "\u0623\u062e\u064a\u0631": 873, "\u0645\u062c\u0627\u0644": 874, "\u0623\u0645\u0631\u064a": 875, "##\u0627\u0630": 876, "\u0639\u0644\u0627\u0642": 877, "\u062c\u0631": 878, "##\u0627\u062a\u064a": 879, "\u0645\u0644\u0643": 880, "##\u0641\u064a\u0630": 881, "\u062e\u0644\u064a": 882, "\u0623\u0628\u0648": 883, "\u0646\u062a": 884, "\u0645\u0628\u0627\u0631\u0627": 885, "##\u062a\u0645\u0639": 886, "##\u0634\u0627\u0631": 887, "##\u0627\u0633\u0628": 888, "##\u0639\u0644\u0646": 889, "##\u0627\u062c\u0647": 890, "\u0637\u0644\u0628": 891, "##00": 892, "\u0639\u0627\u0644\u0645\u064a": 893, "\u062d\u062c": 894, "\u0646\u0627\u0626\u0628": 895, "\u062a\u0646\u0641\u064a\u0630": 896, "##\u0623\u0646": 897, "\u0645\u0644\u064a\u0648\u0646": 898, "\u062a\u0627\u0631\u064a\u062e": 899, "##\u0648\u064a\u0631": 900, "\u062d\u0627\u0644\u064a": 901, "\u0631\u064a\u0627\u0636": 902, "##\u0627\u0648\u0646": 903, "##\u0627\u0635\u0644": 904, "##\u0627\u0641\u0642": 905, "\u0646\u0642\u0644": 906, "##\u0637\u0641": 907, "##\u0627\u064a\u0627": 908, "\u0627\u064a": 909, "##\u0647\u064a": 910, "\u0647\u062f\u0641": 911, "\u062a\u0633\u062a": 912, "\u062d\u064a\u0627": 913, "##\u0627\u0642\u0639": 914, "\u0625\u0644\u0627": 915, "\u0645\u062e\u062a\u0644\u0641": 916, "##\u0648\u0627\u0621": 917, "\u0628\u0644\u0627\u062f": 918, "\u0631\u0628": 919, "\u0625\u064a\u0631": 920, "##\u0627\u0644\u062f": 921, "\u0645\u062c\u062a\u0645\u0639": 922, "##\u0627\u062d\u064a": 923, "\u0625\u0633\u0631\u0627\u0626\u064a\u0644\u064a": 924, "\u0648\u0644\u0627\u064a": 925, "\u062f\u0639\u0645": 926, "\u0625\u0633\u0644\u0627\u0645\u064a": 927, "##\u0627\u0628\u0644": 928, "\u0641\u0631\u0646": 929, "\u0634\u0647\u0631": 930, "\u0645\u0642\u0628\u0644": 931, "\u0645\u063a": 932, "##\u0641\u0636": 933, "\u0646\u0633": 934, "\u0630\u0643\u0631": 935, "\u0623\u0644\u0641": 936, "\u0625\u0646\u0633": 937, "\u0642\u0627\u0646\u0648\u0646": 938, "\u0642\u0635": 939, "##\u0648\u0627\u0644": 940, "\u062e\u0635": 941, "\u062d\u0631\u0643": 942, "\u062e\u0644": 943, "##\u0641\u062a": 944, "\u062a\u0644": 945, "\u0631\u063a\u0645": 946, "\u0635\u0648\u0631": 947, "##\u0645\u0633": 948, "\u0628\u0631\u0646": 949, "\u0627\u0642\u062a\u0635\u0627\u062f\u064a": 950, "\u0642\u0627\u062f": 951, "\u0623\u0631\u0628\u0639": 952, "\u0633\u0643": 953, "\u0643\u062a": 954, "##\u0627\u062f\u0644": 955, "\u0641\u064a\u0645\u0627": 956, "\u0639\u0644\u0645": 957, "\u062f\u0645": 958, "\u0633\u064a\u0627\u0631": 959, "\u0634\u0628\u0627\u0628": 960, "\u0637\u0627\u0644\u0628": 961, "\u0646\u0627\u062f\u064a": 962, "\u0634\u0647": 963, "\u0633\u0631": 964, "\u0648\u062c\u0648\u062f": 965, "\u062f\u0648\u0644\u0627\u0631": 966, "\u0645\u0633\u062a\u0648\u0649": 967, "\u0642\u0627\u0645": 968, "\u0641\u0646": 969, "\u062d\u0643\u0645": 970, "\u0642\u062f\u0631": 971, "\u0639\u0645\u0631": 972, "##\u0622\u0646": 973, "\u0646\u062d\u0648": 974, "##\u0634\u064a": 975, "##\u0636\u0631": 976, "\u062e\u0627\u0631\u062c\u064a": 977, "\u0639\u0646\u062f\u0645\u0627": 978, "\u0645\u0646\u062a\u062e\u0628": 979, "\u0627\u062a\u0641\u0627\u0642": 980, "\u062f\u0631\u0627\u0633": 981, "\u0639\u0628\u0631": 982, "\u0648\u0632\u0631\u0627\u0621": 983, "##\u0631\u064a\u0645": 984, "\u0625\u0630\u0627": 985, "\u062f\u064a\u0646": 986, "\u0639\u0628": 987, "\u0645\u0645\u0627": 988, "\u0634\u064a\u062e": 989, "\u0643\u0645": 990, "\u0623\u063a": 991, "\u0628\u0631\u0646\u0627\u0645\u062c": 992, "\u0627\u062d\u062a": 993, "\u0628\u064a\u0627\u0646": 994, "##\u0642\u0649": 995, "##\u0648\u0635": 996, "\u062d\u064a\u0646": 997, "\u0633\u0644\u0627\u0645": 998, "\u062a\u062d\u062a": 999, "\u0622\u0644": 1000, "\u0643\u064a": 1001, "\u062d\u062f\u064a": 1002, "\u0623\u062c\u0644": 1003, "\u062f\u0627\u062e\u0644": 1004, "\u0645\u0633\u0624\u0648\u0644": 1005, "##\u0643\u0645": 1006, "\u062c\u0645\u0639\u064a": 1007, "\u0646\u0638\u0631": 1008, "\u0628\u0631\u064a": 1009, "\u0623\u0634\u0627\u0631": 1010, "\u0633\u0641": 1011, "\u0623\u0648\u0644\u0649": 1012, "##\u0642\u0628": 1013, "\u0636\u0631": 1014, "\u0639\u0628\u062f\u0627\u0644\u0644\u0647": 1015, "\u0642\u0646": 1016, "\u0631\u062c": 1017, "##\u0644\u064a\u0644": 1018, "\u0644\u0642\u0627\u0621": 1019, "##\u0627\u0633\u0645": 1020, "##\u062f\u0627\u0645": 1021, "##\u0627\u0626\u064a\u0644": 1022, "\u0644\u0646": 1023, "\u062a\u0639\u0627\u0648\u0646": 1024, "##\u0633\u0631": 1025, "\u0628\u0637\u0648\u0644": 1026, "##\u0637\u0644\u0642": 1027, "\u0627\u062c\u062a\u0645\u0627\u0639\u064a": 1028, "\u0648\u062d\u062f": 1029, "\u062c\u0645\u0647": 1030, "\u062a\u0631\u0643\u064a": 1031, "##\u062a\u0645\u0631": 1032, "\u0623\u0645\u0627": 1033, "\u0636\u062f": 1034, "\u0623\u064a\u0636\u0627": 1035, "\u0645\u0646\u0638\u0645": 1036, "\u0634\u0631\u0637": 1037, "\u0627\u062c\u062a\u0645\u0627\u0639": 1038, "\u0623\u0639\u0644\u0646": 1039, "\u0642\u064a\u0645": 1040, "\u062f\u064a": 1041, "##\u0647\u0644": 1042, "\u062a\u0639\u0644\u064a\u0645": 1043, "\u0639\u0642\u062f": 1044, "\u0645\u0633\u0627\u0639\u062f": 1045, "\u0639\u0631\u0636": 1046, "\u0623\u0633\u0631": 1047, "\u062a\u0646\u0638": 1048, "\u0647\u062c": 1049, "\u0633\u0645\u0648": 1050, "\u0639\u062f\u064a\u062f": 1051, "##\u0628\u062a": 1052, "\u0633\u0627\u0639": 1053, "\u0635\u062d\u064a": 1054, "\u0646\u0634": 1055, "\u0625\u0635": 1056, "\u0623\u0645\u0631\u064a\u0643\u064a": 1057, "\u0643\u062a\u0627\u0628": 1058, "\u062f\u0641": 1059, "##\u0632\u0644": 1060, "\u0625\u062c\u0631\u0627\u0621": 1061, "\u0633\u0646\u0648": 1062, "\u0645\u0624\u062a\u0645\u0631": 1063, "\u0627\u0633\u062a\u062b": 1064, "\u0642\u0628": 1065, "##\u0632\u0627\u0644": 1066, "\u0645\u0645\u0644\u0643": 1067, "\u062d\u0633\u0628": 1068, "\u0630\u0627\u062a": 1069, "\u0631\u0642": 1070, "\u0633\u0648\u0642": 1071, "##\u0642\u0628\u0644": 1072, "\u063a\u0631": 1073, "\u062a\u0642\u062f\u0645": 1074, "\u062c\u0627\u0621": 1075, "\u0642\u0636": 1076, "\u062e\u0631": 1077, "##\u062a\u0628\u0631": 1078, "\u062d\u0645\u0644": 1079, "\u0642\u064a\u0627\u062f": 1080, "\u0647\u0644": 1081, "##\u0645\u0627\u0646": 1082, "##\u0637\u0627\u0631": 1083, "\u0628\u0646\u0627\u0621": 1084, "##\u0639\u062f\u0627\u062f": 1085, "##\u0631\u064a\u062d": 1086, "\u062b\u0627\u0644": 1087, "\u062d\u0631\u0628": 1088, "\u0645\u0639\u0644": 1089, "\u0648\u0643": 1090, "\u062b\u0627\u0644\u062b": 1091, "##\u0633\u0643\u0631\u064a": 1092, "\u0641\u0642\u062f": 1093, "\u0639\u0633\u0643\u0631\u064a": 1094, "##\u0633\u062a\u0631": 1095, "\u0633\u064a\u062f": 1096, "##\u0628\u0644\u063a": 1097, "##\u0627\u063a": 1098, "\u0645\u0648\u0642\u0639": 1099, "\u0627\u0644\u0622\u0646": 1100, "\u062d\u0645\u0627": 1101, "\u062c\u064a\u0634": 1102, "##\u0635\u0627\u0644": 1103, "\u0634\u0623\u0646": 1104, "\u0645\u0642\u0631": 1105, "\u0623\u0648\u0636\u062d": 1106, "\u062f\u0627\u062e": 1107, "##\u0627\u0631\u0636": 1108, "\u062a\u0647": 1109, "\u0623\u0644\u0645": 1110, "\u0625\u0630": 1111, "\u0648\u062c\u0647": 1112, "\u0645\u0648\u062c": 1113, "\u0623\u064a\u0627\u0645": 1114, "##\u0637\u0644\u0627\u0642": 1115, "\u0641\u0642\u0637": 1116, "\u062f\u0627\u062e\u0644\u064a": 1117, "\u062a\u0636": 1118, "\u064a\u0624": 1119, "\u062c\u0648": 1120, "\u0623\u0639\u0636\u0627\u0621": 1121, "\u0628\u062f\u0623": 1122, "##\u062d\u064a": 1123, "##\u0628\u0639": 1124, "\u0633\u064a\u0627\u0633": 1125, "\u062d\u062f\u064a\u062b": 1126, "\u062c\u0645\u0639": 1127, "\u0627\u0633\u062a\u062e": 1128, "##\u0627\u0647\u0645": 1129, "\u0628\u0644\u063a": 1130, "10": 1131, "##\u062c\u0627\u0646": 1132, "##\u0639\u0649": 1133, "\u0645\u062f\u0631": 1134, "\u0645\u0631\u062d\u0644": 1135, "\u0627\u0634": 1136, "##\u0639\u0645": 1137, "##\u0627\u0637\u064a": 1138, "\u0628\u062d\u062b": 1139, "\u0639\u0636": 1140, "##\u0627\u0631\u0628": 1141, "\u0643\u0630": 1142, "\u0634\u062e\u0635\u064a": 1143, "\u064a\u062e": 1144, "\u0641\u0648\u0632": 1145, "##\u0623\u0633": 1146, "\u062a\u0642\u062f\u064a\u0645": 1147, "\u0633\u062a": 1148, "\u0634\u0631\u064a": 1149, "\u0641\u0646\u064a": 1150, "\u0623\u0645\u0646\u064a": 1151, "\u0627\u0644\u062a": 1152, "##\u0645\u0639": 1153, "\u0632\u064a\u0627\u062f": 1154, "\u0623\u0631\u0636": 1155, "\u0623\u0633\u0628\u0648\u0639": 1156, "\u0623\u0643\u0628\u0631": 1157, "##\u0627\u0634\u0631": 1158, "##\u0637\u0627\u0646\u064a": 1159, "\u0623\u0632\u0645": 1160, "##\u0627\u0647\u062f": 1161, "##\u0627\u0626\u0632": 1162, "\u0645\u0642\u0627\u0628\u0644": 1163, "\u0645\u0634\u064a\u0631": 1164, "\u0625\u0645": 1165, "\u064a\u062c\u0628": 1166, "\u064a\u0641": 1167, "##\u0627\u062c\u0639": 1168, "\u0648\u0627\u0642\u0639": 1169, "\u0646\u0635": 1170, "\u0645\u0648\u0636": 1171, "##\u063a\u0644": 1172, "##\u0627\u062d\u0628": 1173, "\u0645\u0646\u0627\u0637": 1174, "\u0642\u0636\u064a": 1175, "\u0643\u0648\u064a\u062a": 1176, "\u0643\u0646": 1177, "\u0643\u0644\u064a": 1178, "\u0643\u0644\u0645": 1179, "##\u0627\u0626\u0642": 1180, "\u0646\u0647\u0627\u064a": 1181, "##\u0630\u0643\u0631": 1182, "##\u0638\u0631": 1183, "\u064a\u0635": 1184, "\u0645\u0647\u0645": 1185, "\u0645\u0643\u062a\u0628": 1186, "\u062a\u0627\u0628\u0639": 1187, "\u0625\u0645\u0627\u0631": 1188, "\u0645\u062d\u0644\u064a": 1189, "\u0645\u0639\u0644\u0648\u0645": 1190, "\u0635\u0627\u0644\u062d": 1191, "\u0641\u0631\u0635": 1192, "\u062d\u0642\u0648\u0642": 1193, "\u0645\u0646\u0627\u0637\u0642": 1194, "\u062d\u0633\u0646": 1195, "##\u0634\u062d": 1196, "\u0646\u0634\u0631": 1197, "\u0643\u0630\u0644\u0643": 1198, "\u0632\u064a\u0627\u0631": 1199, "\u062f\u0648\u0631\u064a": 1200, "14": 1201, "15": 1202, "##\u062f\u0627\u062f": 1203, "\u0645\u0643\u0627\u0646": 1204, "\u0644\u062f\u064a": 1205, "##\u0643\u0633": 1206, "\u062a\u0637\u0648\u064a\u0631": 1207, "\u0645\u0646\u0627\u0633\u0628": 1208, "\u0646\u0645": 1209, "\u062e\u0628\u0631": 1210, "##\u0631\u0648\u0641": 1211, "\u0645\u0648\u0636\u0648\u0639": 1212, "\u0631\u0633\u0645\u064a": 1213, "##\u0645\u064a\u0632": 1214, "\u062a\u0646\u0638\u064a\u0645": 1215, "\u0623\u0635\u0628\u062d": 1216, "##\u0627\u0648\u064a": 1217, "\u0631\u062d": 1218, "##\u0627\u062f\u062b": 1219, "\u062e\u0627\u0631\u062c": 1220, "\u0644\u062f\u0649": 1221, "\u0631\u0626\u0627\u0633": 1222, "\u0639\u0631\u0628": 1223, "\u0627\u0646\u062a\u0647": 1224, "\u062d\u0648": 1225, "##\u0628\u0627\u0631": 1226, "##\u064a\u0627\u0646": 1227, "12": 1228, "##\u062a\u0628\u0627\u0631": 1229, "\u0639\u0627\u0645\u0644": 1230, "\u062f\u0641\u0627\u0639": 1231, "\u0625\u0631\u0647": 1232, "##\u0631\u062f": 1233, "\u0636\u0645\u0646": 1234, "\u062d\u0636\u0648\u0631": 1235, "##\u0639\u0627\u0631": 1236, "\u062e\u0635\u0648\u0635": 1237, "##\u0639\u0644\u0642": 1238, "\u0637\u0644": 1239, "\u062e\u0645\u0633": 1240, "\u0634\u0631\u0642": 1241, "\u0635\u0627\u062d\u0628": 1242, "\u0623\u0641\u0636\u0644": 1243, "\u062a\u0632": 1244, "##\u0633\u0637": 1245, "\u062a\u0646\u0645\u064a": 1246, "\u0627\u0633\u062a\u062b\u0645\u0627\u0631": 1247, "\u0645\u0644\u064a\u0627\u0631": 1248, "\u064a\u0644": 1249, "\u0625\u0639\u0627\u062f": 1250, "\u0627\u0633\u062a\u0645\u0631": 1251, "\u0644\u0648": 1252, "##\u0627\u0644\u0641": 1253, "\u0635\u0628": 1254, "\u0646\u0627\u0633": 1255, "\u0631\u0648\u0633\u064a": 1256, "\u0628\u0627\u0631": 1257, "\u062c\u0646\u0648\u0628": 1258, "\u0631\u062c\u0627\u0644": 1259, "\u064a\u0642\u0648\u0644": 1260, "##\u0628\u064a\u0644": 1261, "##\u062c\u0631": 1262, "\u0627\u062a\u0635\u0627\u0644": 1263, "\u0627\u0633\u062a\u062e\u062f\u0627\u0645": 1264, "\u062d\u0627\u062c": 1265, "\u0639\u0648\u062f": 1266, "\u0646\u062d\u0646": 1267, "\u0642\u0627\u0626\u0645": 1268, "\u0648\u0633\u0637": 1269, "\u0643\u0627\u0645\u0644": 1270, "\u0625\u0646\u062c": 1271, "\u0645\u062b": 1272, "##\u0643\u0627": 1273, "\u0648\u0642": 1274, "##\u0648\u0644\u0649": 1275, "\u062f\u064a\u0645": 1276, "\u0623\u0644": 1277, "\u0645\u0639\u0627\u0631\u0636": 1278, "##\u0627\u0641\u0633": 1279, "##\u062c\u062f": 1280, "\u0645\u0627\u0644": 1281, "\u0630\u0647": 1282, "##\u0627\u064a\u0631": 1283, "##\u0648\u0645\u064a": 1284, "\u0623\u0648\u0631\u0648\u0628\u064a": 1285, "##\u064a\u0627\u0631": 1286, "\u0625\u0646\u062a\u0627\u062c": 1287, "##\u0627\u0643\u0645": 1288, "\u0646\u062a\u064a": 1289, "\u0645\u062d\u0643\u0645": 1290, "##\u062b\u0646\u0627\u0621": 1291, "##\u0642\u0642": 1292, "\u0646\u0648\u0639": 1293, "\u0633\u0648\u0631\u064a\u0627": 1294, "\u0645\u0648\u0627\u062c\u0647": 1295, "##\u0627\u0631\u0639": 1296, "\u0645\u0639\u062f": 1297, "\u0625\u0633\u0631\u0627\u0626\u064a\u0644": 1298, "\u0631\u0641\u0639": 1299, "\u0646\u0642\u0637": 1300, "\u0646\u062a\u064a\u062c": 1301, "##\u0648\u0647": 1302, "\u0623\u0645\u064a\u0646": 1303, "##\u063a\u064a\u0631": 1304, "\u0645\u0633\u0644\u0645": 1305, "\u062f\u0633\u062a": 1306, "\u062d\u0635": 1307, "##\u0637\u0641\u0627\u0644": 1308, "\u0642\u062a\u0644": 1309, "\u0625\u0646\u0633\u0627\u0646": 1310, "\u0628\u062f\u0627\u064a": 1311, "\u0631\u0645": 1312, "\u0627\u0631\u062a": 1313, "\u0645\u0646\u0635": 1314, "\u0643\u0627\u0641": 1315, "\u0641\u0631\u0646\u0633\u064a": 1316, "\u0639\u0631\u0627\u0642\u064a": 1317, "##\u0648\u0621": 1318, "\u0632\u0631": 1319, "\u0625\u064a\u062c": 1320, "\u0646\u0647\u0627\u0626\u064a": 1321, "\u0623\u0637\u0641\u0627\u0644": 1322, "##\u0627\u0635\u0631": 1323, "##\u062f\u064a\u0644": 1324, "\u062c\u0645\u0647\u0648\u0631\u064a": 1325, "\u062f\u0631\u062c": 1326, "\u0625\u0628\u0631": 1327, "\u0645\u0636": 1328, "\u0625\u062d": 1329, "\u0641\u0639\u0644": 1330, "\u0634\u0647\u062f": 1331, "\u0639\u0628\u062f\u0627\u0644\u0639": 1332, "\u0645\u0634\u062a": 1333, "\u0631\u0624": 1334, "\u0625\u0635\u0627\u0628": 1335, "\u0641\u0639": 1336, "\u0628\u0644\u062f\u064a": 1337, "\u0623\u0644\u0645\u0627\u0646\u064a": 1338, "\u062b\u0642\u0627\u0641": 1339, "\u0631\u062f": 1340, "\u0645\u0634\u0643\u0644": 1341, "\u0648\u0641\u0642": 1342, "##\u0627\u062a\u0628": 1343, "##\u0627\u0628\u0637": 1344, "\u062d\u0645": 1345, "\u0635\u0639": 1346, "##\u0642\u0627\u0644": 1347, "\u0643\u0648\u0646": 1348, "\u0648\u0637\u0646": 1349, "\u062b\u0648\u0631": 1350, "\u062a\u0642\u0631\u064a\u0631": 1351, "##\u0636\u064a\u0641": 1352, "\u0635\u062d\u064a\u0641": 1353, "\u0639\u0628\u062f\u0627\u0644\u0639\u0632\u064a\u0632": 1354, "##\u062d\u0627\u0628": 1355, "\u0631\u0641\u0636": 1356, "\u0639\u064a\u0646": 1357, "##\u062a\u0646": 1358, "##\u0627\u0647\u064a\u0645": 1359, "\u0639\u0627\u0635": 1360, "\u0648\u0635\u0648\u0644": 1361, "\u062d\u0631\u064a": 1362, "\u0641\u062a\u062d": 1363, "##\u062e\u0630": 1364, "\u0645\u0626": 1365, "\u0628\u0631\u064a\u0637\u0627\u0646\u064a": 1366, "##\u0628\u0627\u0621": 1367, "\u0636\u0631\u0648\u0631": 1368, "\u0645\u064a\u0627\u0647": 1369, "\u0637\u0627\u0642": 1370, "\u0645\u0635\u0627\u062f\u0631": 1371, "\u0623\u0647\u0645\u064a": 1372, "\u062d\u0641": 1373, "\u0623\u0633\u0639\u0627\u0631": 1374, "\u0627\u0647": 1375, "##\u0646\u062a": 1376, "##\u0627\u0626\u062c": 1377, "\u0642\u0627\u062f\u0645": 1378, "\u064a\u0623": 1379, "\u0648\u0627\u0646": 1380, "\u0639\u0636\u0648": 1381, "\u062f\u0641\u0639": 1382, "##\u0627\u0645\u0646": 1383, "\u0645\u062f\u0646\u064a": 1384, "\u0648\u0643\u0627\u0644": 1385, "\u0643\u0634\u0641": 1386, "\u0627\u0642": 1387, "\u0637\u0628": 1388, "\u0645\u0637\u0644": 1389, "\u062d\u0648\u0627\u0631": 1390, "\u0646\u062a\u0627\u0626\u062c": 1391, "\u0627\u0633\u0645": 1392, "\u0645\u0633\u062a\u0642\u0628\u0644": 1393, "##\u0633\u0649": 1394, "11": 1395, "\u0631\u0639": 1396, "\u062f\u062e": 1397, "##\u0645\u0627\u0644\u064a": 1398, "##\u0642\u064a\u0645": 1399, "\u064a\u0648": 1400, "##\u0638\u0627\u0647\u0631": 1401, "\u0645\u0637\u0627\u0644\u0628": 1402, "##\u0647\u062f\u0627\u0641": 1403, "\u0644\u062d": 1404, "\u0635\u062f": 1405, "\u0642\u0648\u0644": 1406, "##\u0645\u064a\u0644": 1407, "\u0628\u0646\u0643": 1408, "\u0635\u0646\u0627\u0639": 1409, "\u0631\u064a\u0627\u0636\u064a": 1410, "##\u063a\u0631": 1411, "\u0623\u0646\u0627": 1412, "##\u062a\u0641\u0627\u0639": 1413, "##\u0627\u0626\u0639": 1414, "##\u062c\u0647": 1415, "\u062e\u0627\u0644\u062f": 1416, "##\u0627\u0646\u0649": 1417, "\u0625\u062e": 1418, "\u0625\u0639\u0644\u0627\u0645": 1419, "\u0642\u064a\u0627\u0645": 1420, "\u0645\u0648\u0633\u0645": 1421, "\u0642\u0627\u0647\u0631": 1422, "\u062a\u062f\u0631\u064a\u0628": 1423, "\u062d\u0635\u0648\u0644": 1424, "\u0627\u0631\u062a\u0641\u0627\u0639": 1425, "\u062a\u0637\u0628\u064a": 1426, "##\u062a\u064a\u0646": 1427, "\u0628\u064a\u0631": 1428, "##\u0624\u0644": 1429, "\u0644\u063a": 1430, "\u0645\u0633\u0627\u0621": 1431, "##\u0647\u062f\u0641": 1432, "##\u0631\u064a\u0642\u064a": 1433, "##\u0627\u0642\u0628": 1434, "\u0645\u0648\u0642\u0641": 1435, "\u0631\u064a\u0627\u0644": 1436, "##\u0627\u0631\u062f": 1437, "##\u0627\u0631\u0642": 1438, "##\u0628\u062f\u0623": 1439, "\u0623\u0645\u0645": 1440, "\u0645\u0635\u062f\u0631": 1441, "\u0638\u0644": 1442, "\u0645\u0645\u062b\u0644": 1443, "##\u0633\u0646": 1444, "\u062a\u062c\u0627\u0631\u064a": 1445, "\u0625\u0637\u0627\u0631": 1446, "\u0623\u0633\u0627\u0633\u064a": 1447, "##\u0647\u0632": 1448, "##\u062b\u0627\u0631": 1449, "\u0646\u0639": 1450, "\u0645\u0634\u0627\u0631\u064a": 1451, "\u0646\u0645\u0648": 1452, "\u0645\u0624\u0643\u062f": 1453, "\u062a\u0635\u0631\u064a\u062d": 1454, "\u0623\u0642\u0644": 1455, "##\u0648\u0642\u0639": 1456, "\u0642\u0644": 1457, "##\u0624\u0648\u0646": 1458, "\u0635\u0628\u0627\u062d": 1459, "\u0627\u0633\u062a\u0639": 1460, "\u0625\u0639\u0644\u0627\u0646": 1461, "\u0642\u0645": 1462, "\u0648\u0635\u0644": 1463, "\u062c\u0644\u0633": 1464, "\u0645\u0634\u0627\u0631\u064a\u0639": 1465, "\u0628\u0648": 1466, "25": 1467, "\u0633\u064a\u0646": 1468, "\u0631\u0623\u0633": 1469, "##\u062a\u0645\u0627\u0645": 1470, "\u062d\u062f\u0648\u062f": 1471, "\u0645\u0631\u0634\u062d": 1472, "\u0623\u0628\u0646": 1473, "\u0645\u062f\u0631\u0628": 1474, "\u0634\u0624\u0648\u0646": 1475, "\u0645\u0628\u0627\u0634\u0631": 1476, "\u0628\u062d\u0631\u064a": 1477, "18": 1478, "\u0645\u062d\u0627\u0648\u0644": 1479, "##\u062d\u062f\u062b": 1480, "\u0627\u062e\u062a": 1481, "\u0645\u0628\u0627\u0631\u0643": 1482, "\u0639\u0627\u062f": 1483, "##\u0648\u062b": 1484, "\u062c\u0647\u0648\u062f": 1485, "\u0631\u062c\u0644": 1486, "\u0627\u0628\u0646": 1487, "##\u0644\u064a\u0645\u064a": 1488, "\u0634\u0645\u0627\u0644": 1489, "\u062d\u0628": 1490, "\u0633\u062c\u0644": 1491, "##\u0628\u0637": 1492, "\u062a\u0624": 1493, "\u062d\u0643\u0648\u0645\u064a": 1494, "\u0639\u0627\u0635\u0645": 1495, "\u0635\u0631": 1496, "\u0631\u0635": 1497, "\u0645\u062f\u0631\u0633": 1498, "\u0627\u062b\u0646": 1499, "##\u0643\u064a\u0644": 1500, "\u0633\u0648\u064a": 1501, "\u0644\u0639\u0628": 1502, "##\u0641\u0642": 1503, "##\u0638\u0641": 1504, "##\u062c\u064a\u0644": 1505, "##\u062f\u064a\u0631": 1506, "\u0634\u0631\u0642\u064a": 1507, "##\u062e\u0631\u062c": 1508, "\u0645\u0634\u062a\u0631\u0643": 1509, "\u0623\u0631\u062f": 1510, "##\u0630\u0631": 1511, "\u062c\u0647\u0627\u0632": 1512, "\u062c\u0646\u064a": 1513, "\u0632\u0648\u062c": 1514, "\u064a\u0643": 1515, "##\u0634\u0627\u0621": 1516, "\u0623\u062b\u0646\u0627\u0621": 1517, "\u0637\u0627\u0626\u0631": 1518, "\u0628\u064a\u0646\u0645\u0627": 1519, "\u0646\u0635\u0641": 1520, "##\u0623\u0644": 1521, "\u062a\u063a\u064a": 1522, "##\u0638\u0647\u0631": 1523, "\u0633\u0627\u062d": 1524, "##\u0627\u0644\u0645": 1525, "##\u0648\u0627": 1526, "\u0633\u0644\u064a\u0645": 1527, "\u0643\u062a\u0628": 1528, "\u0641\u0631\u0642": 1529, "\u062a\u062d\u062f\u064a\u062f": 1530, "##\u0627\u0644\u0649": 1531, "\u0628\u064a\u0626": 1532, "##\u064a\u0631\u0627\u0646": 1533, "\u062d\u0633\u064a\u0646": 1534, "##\u0627\u0642\u0634": 1535, "\u0625\u0628\u0631\u0627\u0647\u064a\u0645": 1536, "\u062a\u062c\u0627\u0631": 1537, "\u0641\u0643\u0631": 1538, "\u0646\u062c\u0627\u062d": 1539, "##\u062f\u0627\u0621": 1540, "\u062f\u0627\u0626\u0645": 1541, "##\u0627\u0632\u064a": 1542, "\u063a\u0632": 1543, "\u062b\u0642\u0627\u0641\u064a": 1544, "##\u062e\u062f\u0645": 1545, "\u0627\u0639\u062a\u0628\u0627\u0631": 1546, "\u062a\u063a\u064a\u064a\u0631": 1547, "\u0631\u0623\u064a": 1548, "\u064a\u0647": 1549, "##\u0633\u0644": 1550, "##\u0642\u0631\u0627\u0631": 1551, "##\u0637\u0644\u0628": 1552, "\u0623\u0647\u062f\u0627\u0641": 1553, "\u0625\u064a\u0631\u0627\u0646": 1554, "\u0628\u064a\u062a": 1555, "\u0645\u062d\u0645": 1556, "\u0634\u064a\u0621": 1557, "\u0637\u0648\u064a\u0644": 1558, "\u0643\u0623\u0633": 1559, "30": 1560, "\u0625\u062d\u062f": 1561, "\u0643\u064a\u0641": 1562, "##\u0627\u0648\u0632": 1563, "##\u0641\u064a\u0631": 1564, "\u0623\u0647\u0645": 1565, "##\u062b\u064a": 1566, "\u0625\u0642\u0627\u0645": 1567, "\u062a\u0639\u0631\u0636": 1568, "\u0645\u0627\u0626": 1569, "\u0645\u0631\u0636": 1570, "\u062f\u062e\u0648\u0644": 1571, "\u0645\u0646\u0627\u0641\u0633": 1572, "\u062c\u064a\u062f": 1573, "\u0623\u0641\u0631": 1574, "\u0643\u0648\u064a\u062a\u064a": 1575, "\u062d\u0645\u0627\u064a": 1576, "\u0628\u0627\u0633\u0645": 1577, "\u0642\u0636\u0627\u064a\u0627": 1578, "##\u0627\u0633\u0639": 1579, "\u063a\u0631\u0628\u064a": 1580, "\u062c\u0645\u0627\u0639": 1581, "##\u0637\u0646": 1582, "##\u0627\u064a\u062f": 1583, "\u062a\u0627\u0644\u064a": 1584, "\u064a\u0642\u0648\u0645": 1585, "13": 1586, "\u062c\u0648\u0644": 1587, "##\u062a\u0627": 1588, "\u0627\u0647\u062a\u0645\u0627\u0645": 1589, "##\u0636\u0645": 1590, "\u0623\u0633\u062a": 1591, "\u0639\u0635": 1592, "\u0634\u0639\u0628\u064a": 1593, "\u064a\u0646\u062a": 1594, "\u0639\u0644\u0645\u064a": 1595, "\u062a\u0634\u0643\u064a\u0644": 1596, "\u0627\u0642\u062a\u0635\u0627\u062f": 1597, "##\u0644\u0633\u0644": 1598, "\u0645\u0648\u0638\u0641": 1599, "\u0647\u0646\u0627": 1600, "\u0642\u0648\u0649": 1601, "\u0625\u0645\u0643": 1602, "\u0623\u0633\u0648": 1603, "\u0631\u0627\u0628\u0639": 1604, "\u0631\u0642\u0645": 1605, "##\u0634\u0641\u0649": 1606, "\u0633\u0631\u064a": 1607, "\u062a\u0637\u0628\u064a\u0642": 1608, "##\u0627\u0626\u062d": 1609, "\u0631\u0639\u0627\u064a": 1610, "\u0645\u0633\u062a\u0634\u0641\u0649": 1611, "##\u062e\u0635\u0635": 1612, "\u062a\u0637\u0648\u0631": 1613, "##\u062a\u0648": 1614, "\u0627\u0628\u062a": 1615, "##\u0627\u0626\u0641": 1616, "\u062f\u0639\u0648": 1617, "\u0635\u0644": 1618, "\u0645\u062a\u0646": 1619, "\u0639\u0644\u0627\u062c": 1620, "\u0641\u0636\u0644": 1621, "\u0628\u0631\u0627\u0645\u062c": 1622, "\u0623\u0639\u0644\u0649": 1623, "\u0638\u0647\u0631": 1624, "\u0645\u0647\u0631": 1625, "\u0648\u0642\u0641": 1626, "\u062c\u0628": 1627, "##\u0627\u062e": 1628, "\u062e\u0627\u0645": 1629, "\u0623\u062c\u0647\u0632": 1630, "\u064a\u0628": 1631, "\u0645\u0646\u062a\u062c": 1632, "\u0628\u0631\u0644\u0645": 1633, "\u0645\u062a\u0631": 1634, "\u0641\u064a\u0644\u0645": 1635, "\u0642\u0633\u0645": 1636, "\u0645\u0631\u0623": 1637, "##\u0627\u0648\u0631": 1638, "\u0627\u0643\u062a": 1639, "\u062f\u0642\u064a\u0642": 1640, "\u0645\u0646\u0639": 1641, "##\u0637\u0627\u0621": 1642, "\u0637\u0644\u0627\u0628": 1643, "\u0645\u0627\u062f": 1644, "\u0645\u0633\u0644\u062d": 1645, "\u0642\u0636\u0627\u0621": 1646, "##\u0633\u0627\u0621": 1647, "\u0645\u064a\u062f": 1648, "##\u0648\u0627\u062c": 1649, "##\u0647\u0627\u0645": 1650, "\u0625\u0639\u0644\u0627\u0645\u064a": 1651, "\u0627\u0630": 1652, "##\u0627\u062d\u062b": 1653, "##\u0627\u0642\u064a": 1654, "\u062a\u062d\u062f": 1655, "\u0633\u0644\u0645": 1656, "\u062a\u062d\u0631\u064a\u0631": 1657, "\u0639\u0627\u0626\u0644": 1658, "##\u062d\u0642": 1659, "##\u0648\u062c\u064a": 1660, "\u062a\u0648\u0646": 1661, "\u062d\u062f\u062b": 1662, "\u062a\u0642\u0648\u0645": 1663, "\u0633\u0643\u0627\u0646": 1664, "##\u0631\u0649": 1665, "\u0648\u0633\u0627\u0626\u0644": 1666, "##\u0643\u0627\u0631": 1667, "\u0639\u0645\u0627\u0644": 1668, "##\u0627\u0641\u0639": 1669, "\u0627\u0641\u062a": 1670, "##\u0627\u0644\u063a": 1671, "\u0645\u062a\u0627\u0628\u0639": 1672, "\u0623\u062f\u0627\u0621": 1673, "\u0644\u0642\u062f": 1674, "\u0628\u0627\u0628": 1675, "\u0645\u062f\u0649": 1676, "\u062d\u0635\u0644": 1677, "\u0646\u0632": 1678, "##\u0634\u0637": 1679, "##\u0645\u064a\u0633": 1680, "\u0641\u0626": 1681, "\u0639\u0627\u0644\u064a": 1682, "##\u0637\u064a\u0639": 1683, "16": 1684, "##\u062d\u064a\u062f": 1685, "##\u062a\u0645\u062f": 1686, "\u0623\u0645\u0648\u0631": 1687, "\u0645\u0639\u0631\u0636": 1688, "\u0633\u0639\u062f": 1689, "\u0633\u0648\u062f": 1690, "\u0642\u0648\u064a": 1691, "\u0633\u0641\u064a\u0631": 1692, "\u0635\u063a\u064a\u0631": 1693, "\u0625\u0646\u0634\u0627\u0621": 1694, "\u0643\u0647": 1695, "\u0631\u0626\u064a\u0633\u064a": 1696, "##\u062a\u0627\u062d": 1697, "\u064a\u0632": 1698, "\u064a\u0645\u0646": 1699, "##\u0645\u064a\u062f": 1700, "\u062d\u0641\u0644": 1701, "199": 1702, "\u062d\u0642\u064a": 1703, "\u062a\u0631\u0628\u064a": 1704, "\u0623\u0647\u0644\u064a": 1705, "##\u062a\u062f": 1706, "\u062a\u0639\u0627\u0645\u0644": 1707, "\u0648\u0641\u062f": 1708, "\u062e\u0637\u0648": 1709, "##\u0645\u064a\u0646": 1710, "\u0646\u0634\u0627\u0637": 1711, "\u062c\u0632\u0621": 1712, "\u0645\u0647\u0631\u062c\u0627\u0646": 1713, "\u0633\u0648\u0641": 1714, "\u0623\u0637": 1715, "\u063a\u0631\u0641": 1716, "\u0623\u0634\u0647\u0631": 1717, "\u0627\u0642\u062a\u0631": 1718, "\u062d\u0645\u062f": 1719, "\u0648\u0644\u064a": 1720, "##\u0634\u0644": 1721, "\u0625\u0633\u062a\u0631": 1722, "\u0643\u0641": 1723, "\u062a\u0648\u0642\u064a": 1724, "\u0633\u0639\u064a\u062f": 1725, "\u0648\u0627\u0636\u062d": 1726, "##\u064a\u0637": 1727, "\u0625\u0637\u0644\u0627\u0642": 1728, "##\u0635\u0627\u0631": 1729, "\u0627\u0633\u062a\u0645\u0631\u0627\u0631": 1730, "\u0634\u0631\u064a\u0641": 1731, "\u0645\u0646\u062d": 1732, "\u062e\u0645\u064a\u0633": 1733, "\u062a\u0642\u0646\u064a": 1734, "\u0639\u0632": 1735, "##\u0633\u062a\u0627\u0646": 1736, "##\u062f\u0627\u0631": 1737, "\u0639\u0648": 1738, "\u0637\u0641\u0644": 1739, "\u0625\u062f\u0627\u0631\u064a": 1740, "\u0625\u0633\u0644\u0627\u0645": 1741, "##\u0634\u0646": 1742, "\u0627\u062d\u062a\u0641": 1743, "##\u0627\u0628\u0631": 1744, "\u0641\u0647\u062f": 1745, "\u0635\u062d\u0641\u064a": 1746, "\u062a\u0634\u0631\u064a": 1747, "\u0637\u0631\u0642": 1748, "\u0645\u0633\u0624\u0648\u0644\u064a": 1749, "17": 1750, "\u0641\u0646\u0627\u0646": 1751, "##\u062f\u0648": 1752, "\u0627\u062b\u0646\u064a\u0646": 1753, "\u0645\u0642\u062f\u0645": 1754, "##\u0627\u0648\u0636": 1755, "\u0625\u064a\u0631\u0627\u0646\u064a": 1756, "\u0636\u063a": 1757, "\u0628\u0639\u064a\u062f": 1758, "\u0645\u062d\u0644": 1759, "##\u0627\u062a\u064a\u062c\u064a": 1760, "\u0646\u0635\u0631": 1761, "\u0645\u0633\u0631\u062d": 1762, "\u0648\u0631": 1763, "##\u0634\u0642": 1764, "\u0627\u0633": 1765, "##\u0627\u0648\u0645": 1766, "##\u062c\u0632": 1767, "\u062a\u0643\u0646": 1768, "\u0625\u0646\u0633\u0627\u0646\u064a": 1769, "\u0645\u0646\u0632\u0644": 1770, "\u0645\u0644\u0643\u064a": 1771, "\u0645\u062d\u0637": 1772, "\u062a\u0648\u0641\u064a\u0631": 1773, "\u062a\u062d\u062f\u062b": 1774, "\u0625\u0635\u0644": 1775, "\u0634\u0628\u0643": 1776, "\u0623\u062d\u062f\u0627\u062b": 1777, "##\u062a\u0642\u062f": 1778, "\u0625\u0646\u062c\u0627\u0632": 1779, "\u062c\u0646\u064a\u0647": 1780, "\u0628\u0634": 1781, "\u0635\u064a": 1782, "\u0628\u0648\u0631": 1783, "\u0645\u062a\u0648\u0633": 1784, "\u064a\u0639\u062f": 1785, "\u062a\u062f\u062e\u0644": 1786, "\u0645\u0635\u0644\u062d": 1787, "\u0643\u0647\u0631\u0628": 1788, "\u062d\u062c\u0645": 1789, "\u0648\u0635\u0641": 1790, "\u062f\u0633\u062a\u0648\u0631": 1791, "\u0627\u062e\u062a\u064a": 1792, "\u0627\u0644\u0627": 1793, "\u0625\u062d\u062f\u0649": 1794, "\u0639\u0646\u0648\u0627\u0646": 1795, "\u0645\u062a\u0647\u0645": 1796, "##\u0636\u0627\u0639": 1797, "\u0627\u0645\u0627\u0645": 1798, "\u062f\u0628\u064a": 1799, "\u0639\u0647\u062f": 1800, "\u0623\u0633\u0628\u0627\u0628": 1801, "\u062a\u062a\u0645": 1802, "\u063a\u062f": 1803, "##\u0628\u0631\u0632": 1804, "\u0628\u064a\u0639": 1805, "##\u0624\u0644\u0627\u0621": 1806, "\u0647\u0624\u0644\u0627\u0621": 1807, "\u0647\u062c\u0648\u0645": 1808, "\u0645\u0632\u064a\u062f": 1809, "##\u062e\u0627\u0635": 1810, "##\u0632\u0627\u0645": 1811, "\u062c\u0627\u0626\u0632": 1812, "##\u062c\u0639": 1813, "\u0648\u0642\u0639": 1814, "\u0633\u064a\u0631": 1815, "\u0645\u0647\u0646\u062f": 1816, "\u0645\u0635\u0631\u0649": 1817, "\u064a\u0648\u0646": 1818, "\u063a\u0631\u0628": 1819, "\u0645\u0648\u0627\u062f": 1820, "##\u0648\u0628\u0627": 1821, "##\u0633\u0627": 1822, "\u0627\u062d\u062a\u064a": 1823, "\u0644\u064a\u0644": 1824, "\u0645\u062a\u0648\u0633\u0637": 1825, "##\u062a\u0639": 1826, "\u064a\u0627": 1827, "\u0646\u0641\u0637": 1828, "\u0623\u0634\u062e\u0627\u0635": 1829, "\u0646\u0648\u0627\u0628": 1830, "\u0645\u062f\u0627\u0631\u0633": 1831, "##\u062a\u0631\u0641": 1832, "##\u0627\u0639\u0631": 1833, "\u0645\u062d\u0645\u0648\u062f": 1834, "\u0645\u0630": 1835, "\u0645\u0628\u0627\u0631\u064a": 1836, "\u0645\u0644\u0641": 1837, "\u062d\u0642\u064a\u0642": 1838, "\u0623\u0641\u0631\u0627\u062f": 1839, "\u0645\u0631\u0627\u0643": 1840, "\u0627\u0639\u062a\u0628\u0631": 1841, "\u0639\u0642\u0628": 1842, "\u062a\u0631\u0627\u062c\u0639": 1843, "##\u062c\u0627\u0647": 1844, "##\u062c\u0645": 1845, "\u0633\u0648\u0627\u0621": 1846, "\u062a\u0639\u0632\u064a\u0632": 1847, "\u0623\u0633\u0647\u0645": 1848, "##\u0647\u064a\u0631": 1849, "##\u0627\u0636\u0631": 1850, "\u0642\u0631\u0631": 1851, "\u0642\u0646\u0627": 1852, "\u062d\u0627\u062f\u062b": 1853, "\u062f\u0648": 1854, "\u0627\u062e\u062a\u064a\u0627\u0631": 1855, "\u0642\u0627\u0626\u0644": 1856, "\u0625\u0633\u062a\u0631\u0627\u062a\u064a\u062c\u064a": 1857, "\u062f\u062e\u0644": 1858, "\u0623\u0635\u062d\u0627\u0628": 1859, "\u0645\u0627\u064a": 1860, "\u062d\u0633\u0627\u0628": 1861, "##\u0627\u0646\u062f": 1862, "##\u0644\u064a\u0641": 1863, "##\u0647\u0648\u0631": 1864, "##\u0633\u0639": 1865, "\u062e\u064a\u0631": 1866, "##\u0645\u0628\u0631": 1867, "\u0645\u0647\u0646\u062f\u0633": 1868, "\u0645\u0648\u062c\u0648\u062f": 1869, "##\u063a\u064a": 1870, "##\u0644\u0642\u0649": 1871, "\u062d\u0642\u064a\u0642\u064a": 1872, "\u062d\u0642\u0642": 1873, "##\u062c\u0627\u062c": 1874, "\u0628\u064a\u0631\u0648\u062a": 1875, "\u0623\u0645\u0644": 1876, "\u062a\u0644\u0641": 1877, "##\u0627\u062f\u0649": 1878, "\u0622\u0644\u0627\u0641": 1879, "\u063a\u064a": 1880, "\u062f\u0627\u0631": 1881, "##\u0643\u0648": 1882, "\u0633\u0627\u062f": 1883, "\u0645\u0633\u062a\u0634\u0627\u0631": 1884, "\u062e\u0633": 1885, "\u0646\u0628": 1886, "\u0637\u0631": 1887, "\u0645\u0635\u0627\u0644\u062d": 1888, "\u0642\u0627\u0639\u062f": 1889, "\u0642\u0644\u064a\u0644": 1890, "\u0642\u0637\u0639": 1891, "\u062e\u0644\u064a\u062c": 1892, "\u062d\u0631\u0645": 1893, "\u062a\u0623\u0645\u064a\u0646": 1894, "##\u064a\u0635": 1895, "\u0648\u0638": 1896, "\u0633\u0628\u062a": 1897, "\u0631\u0633\u0627\u0644": 1898, "\u062a\u0648\u0627\u0635\u0644": 1899, "\u0637\u0631\u0641": 1900, "\u062e\u0644\u0627\u0641": 1901, "\u0645\u0639\u062f\u0644": 1902, "##\u0628\u062f\u0648": 1903, "\u0623\u0633\u0648\u0627\u0642": 1904, "##\u0628\u0631\u0649": 1905, "##\u0648\u0633\u0641": 1906, "##\u0644\u0643\u062a\u0631": 1907, "\u0642\u0631\u064a\u0628": 1908, "\u062c\u0644": 1909, "\u0634\u0643": 1910, "\u0646\u0633\u0627\u0621": 1911, "\u064a\u0639\u0645\u0644": 1912, "\u0643\u0631\u064a\u0645": 1913, "\u0641\u0639\u0627\u0644\u064a": 1914, "\u0623\u0628\u0646\u0627\u0621": 1915, "\u0645\u0643\u0627\u0641": 1916, "\u062a\u0648\u062c\u0647": 1917, "##\u0641\u064a\u0642": 1918, "\u064a\u0639\u062a\u0628\u0631": 1919, "\u0635\u0646\u062f": 1920, "\u062a\u0646\u062a": 1921, "##\u0645\u064a\u0645": 1922, "\u0635\u0627\u062f\u0631": 1923, "##\u0646\u0639": 1924, "\u062f\u0627\u0626\u0631": 1925, "\u0633\u0631\u0639": 1926, "\u062f\u0639\u0627": 1927, "\u0646\u064a\u0627\u0628": 1928, "##\u0627\u0638": 1929, "##\u0628\u0627\u0646\u064a": 1930, "\u062e\u0627\u0645\u0633": 1931, "\u0645\u0628\u0627\u062f\u0631": 1932, "\u0627\u0641": 1933, "\u0636\u0631\u0628": 1934, "\u0645\u0639\u0638\u0645": 1935, "##\u0627\u0643\u0644": 1936, "\u0648\u0627\u0644\u062f": 1937, "\u0622\u0644\u064a": 1938, "\u0628\u062f\u0621": 1939, "\u0645\u0648\u0627\u0641\u0642": 1940, "\u0645\u0631\u0627\u0643\u0632": 1941, "\u0642\u0627\u0646\u0648\u0646\u064a": 1942, "##\u0627\u0641\u0631": 1943, "\u062a\u062c\u0631\u0628": 1944, "\u064a\u062a\u0639": 1945, "##\u0627\u0644\u062c": 1946, "\u0637\u0628\u064a\u0639\u064a": 1947, "##\u0627\u0631\u0646": 1948, "\u0623\u0649": 1949, "\u0642\u0644\u0628": 1950, "\u0633\u0639\u0631": 1951, "##\u0627\u062d\u0644": 1952, "\u0633\u0627\u0628\u0639": 1953, "##\u0648\u0644\u0648\u062c\u064a": 1954, "##\u0637\u0627\u0644\u064a": 1955, "\u0645\u0642\u0627\u0648\u0645": 1956, "\u0645\u0633\u0627\u0628\u0642": 1957, "\u0635\u0646\u062f\u0648\u0642": 1958, "\u0625\u0635\u0644\u0627\u062d": 1959, "\u0627\u0633\u062a\u0641": 1960, "##\u0627\u062f\u0645": 1961, "\u064a\u0648\u0645\u064a": 1962, "\u0631\u0628\u0645\u0627": 1963, "\u0645\u0631\u0627\u0642\u0628": 1964, "\u0635\u0648\u062a": 1965, "##\u0636\u0645\u0646": 1966, "\u0623\u0633\u062a\u0627\u0630": 1967, "\u062c\u0639\u0644": 1968, "\u0644\u0627\u0641": 1969, "\u0644\u064a\u0628\u064a": 1970, "\u062c\u064a": 1971, "\u064a\u0643\u0646": 1972, "\u0638\u0631\u0648\u0641": 1973, "##\u0627\u062c\u0645": 1974, "\u0631\u062d\u0644": 1975, "##\u062c\u0627\u0631": 1976, "\u0642\u0631\u064a": 1977, "\u0639\u0646\u0627\u0635\u0631": 1978, "\u0627\u063a": 1979, "##\u0647\u064a\u0644": 1980, "##\u0648\u064a\u0646": 1981, "\u064a\u0648\u0633\u0641": 1982, "\u0623\u0628\u064a": 1983, "\u0646\u0642\u0627\u0628": 1984, "##\u0627\u064a\u064a\u0646": 1985, "\u0645\u0624\u0634\u0631": 1986, "##\u0639\u0627\u0621": 1987, "\u0639\u064a\u062f": 1988, "\u0646\u0627\u0635\u0631": 1989, "\u0623\u0648\u0633\u0637": 1990, "\u0641\u0644": 1991, "\u062a\u0639\u062f": 1992, "\u0627\u062a\u062c\u0627\u0647": 1993, "\u0633\u0624": 1994, "\u0646\u0642\u0627\u0637": 1995, "\u0645\u0639\u0631\u0641": 1996, "\u0633\u0639\u0648\u062f": 1997, "##\u062a\u0634": 1998, "\u0642\u0627\u0626\u062f": 1999, "\u0625\u0644\u0643\u062a\u0631": 2000, "\u0634\u0627\u0628": 2001, "\u0645\u0631\u0648\u0631": 2002, "\u0642\u062f\u064a\u0645": 2003, "##\u0644\u0627\u0645": 2004, "\u0647\u0646\u062f": 2005, "\u0633\u0624\u0627\u0644": 2006, "\u0627\u062d\u062a\u0631": 2007, "\u062a\u0639\u062f\u064a\u0644": 2008, "\u0622\u0633\u064a": 2009, "\u0633\u064a\u0637\u0631": 2010, "\u0627\u0633\u062a\u0642\u0631\u0627\u0631": 2011, "\u062b\u0644\u0627\u062b\u0627\u0621": 2012, "\u0635\u0646\u0627\u0639\u064a": 2013, "\u0623\u0645\u0627\u0646": 2014, "\u0637\u0631\u062d": 2015, "\u0645\u0633\u0626": 2016, "\u0648\u062d\u064a\u062f": 2017, "\u0633\u062c\u0646": 2018, "##\u0633\u0628\u0628": 2019, "##\u0633\u064a\u0633": 2020, "50": 2021, "\u0623\u062c\u0646": 2022, "##\u062d\u0628": 2023, "\u0634\u0639\u0631": 2024, "##\u0642\u062f\u0645": 2025, "\u0644\u0645\u0627": 2026, "\u0645\u0633\u064a\u0631": 2027, "\u062a\u0633\u062c\u064a\u0644": 2028, "\u0625\u0631\u0647\u0627\u0628\u064a": 2029, "\u062c\u0645\u0627": 2030, "\u0645\u0644\u0639\u0628": 2031, "\u0645\u0648\u0627\u0642\u0639": 2032, "##\u0639\u0631": 2033, "\u0627\u062d\u062a\u0644\u0627\u0644": 2034, "\u0627\u0633\u062a\u0639\u062f\u0627\u062f": 2035, "\u062a\u0646\u0641\u064a\u0630\u064a": 2036, "\u062e\u0631\u0648\u062c": 2037, "\u0634\u0627\u0631\u0639": 2038, "\u0625\u0644\u0643\u062a\u0631\u0648\u0646\u064a": 2039, "\u062f\u064a\u0645\u0642\u0631": 2040, "##\u0631\u064a\u0636": 2041, "\u0628\u0646\u064a": 2042, "##\u064a\u0627\u0621": 2043, "\u0645\u0642\u0631\u0631": 2044, "##\u0628\u064a\u0639": 2045, "\u0625\u0631\u0647\u0627\u0628": 2046, "\u0633\u064a\u0627\u062d": 2047, "\u062c\u0648\u064a": 2048, "##\u0632\u064a\u0639": 2049, "##\u062c\u064a\u0647": 2050, "\u0645\u0645\u0627\u0631\u0633": 2051, "\u0644\u0642\u0628": 2052, "\u062a\u0645\u0643\u0646": 2053, "\u0645\u062e\u0627\u0644\u0641": 2054, "\u062a\u062f\u0631\u064a": 2055, "\u0633\u0646\u0648\u064a": 2056, "\u0623\u0647\u0644": 2057, "##\u0643\u064a\u062f": 2058, "\u064a\u0648\u062c": 2059, "\u0623\u0648\u0631\u0648\u0628\u0627": 2060, "##\u0647\u0649": 2061, "\u064a\u0642\u062f\u0645": 2062, "##\u0627\u0632\u0644": 2063, "##\u0627\u0645\u0627": 2064, "\u0635\u062f\u0631": 2065, "\u0646\u0648\u0631": 2066, "\u0645\u0633\u064a": 2067, "##\u0644\u064a\u0642": 2068, "\u0645\u0627\u0631": 2069, "24": 2070, "\u0631\u0627\u0628\u0637": 2071, "\u0634\u0627\u0631\u0643": 2072, "\u0643\u0628\u0631\u0649": 2073, "##\u0647\u0628": 2074, "\u0623\u0631\u0627\u0636\u064a": 2075, "\u0641\u0636": 2076, "\u0625\u0644": 2077, "\u062a\u062d\u0648\u0644": 2078, "\u062a\u0648\u0632\u064a\u0639": 2079, "\u0627\u064a\u0636": 2080, "\u0645\u0646\u0634": 2081, "\u0645\u0639\u0631\u0648\u0641": 2082, "\u0631\u0634": 2083, "\u0628\u0642\u064a": 2084, "\u0647\u0627\u0645": 2085, "\u064a\u0630\u0643\u0631": 2086, "\u0639\u0644\u064a\u0627": 2087, "\u0623\u062b": 2088, "\u0627\u0644\u062a\u0632\u0627\u0645": 2089, "\u062a\u0631\u0628": 2090, "\u0633\u0648": 2091, "\u0639\u0646\u0641": 2092, "\u0645\u0639\u0644\u0645": 2093, "\u0646\u0648\u0648\u064a": 2094, "\u062a\u0635\u0644": 2095, "\u0625\u062e\u0648\u0627\u0646": 2096, "\u0631\u0643": 2097, "\u0628\u062f\u0644": 2098, "\u064a\u0627\u0628": 2099, "\u062c\u0627\u0631\u064a": 2100, "\u0646\u062c\u0645": 2101, "\u064a\u0639\u0631\u0641": 2102, "\u062a\u062d\u062f\u064a": 2103, "\u0623\u062e\u0630": 2104, "\u062a\u0623\u062b\u064a\u0631": 2105, "\u0627\u062a\u0641\u0627\u0642\u064a": 2106, "\u062a\u0623\u0643\u064a\u062f": 2107, "\u0631\u0648\u062d": 2108, "\u0645\u064a\u0644": 2109, "\u0631\u063a\u0628": 2110, "\u0645\u062a\u0639": 2111, "\u0636\u0645\u0627\u0646": 2112, "##\u0645\u0627\u0621": 2113, "##\u0633\u0627\u0645": 2114, "\u0628\u062d\u0631": 2115, "\u0645\u0634\u0627\u0643\u0644": 2116, "\u0627\u0646\u0641": 2117, "\u0623\u0633\u0627\u0633": 2118, "\u0632\u0639": 2119, "\u062a\u0642\u062f\u064a\u0631": 2120, "\u0645\u0633\u062a\u0645\u0631": 2121, "\u0645\u0637\u0644\u0648\u0628": 2122, "\u062e\u0644\u0641": 2123, "\u0645\u062f\u0646": 2124, "##\u0633\u0643\u0631": 2125, "\u062a\u0633\u0648\u064a": 2126, "\u0623\u0633\u0644\u062d": 2127, "\u0623\u0645\u0648\u0627\u0644": 2128, "##\u0636\u0627\u0646": 2129, "\u062e\u0637\u0631": 2130, "\u0633\u0628\u0639": 2131, "\u0644\u0627\u0641\u062a": 2132, "\u0625\u0633\u0628\u0627\u0646\u064a": 2133, "\u0623\u0628\u0631\u0632": 2134, "\u062a\u062c\u0645\u0639": 2135, "\u062e\u0644\u064a\u062c\u064a": 2136, "\u0625\u064a\u062c\u0627\u0628\u064a": 2137, "\u0639\u0632\u064a\u0632": 2138, "\u064a\u0635\u0644": 2139, "\u0631\u0624\u064a": 2140, "\u0645\u0631\u0643\u0632\u064a": 2141, "22": 2142, "##\u0637\u0644\u0639": 2143, "\u0645\u0636\u064a\u0641": 2144, "\u0623\u0646\u062f\u064a": 2145, "\u0645\u0644\u0627\u064a\u064a\u0646": 2146, "\u0635\u0631\u0641": 2147, "##\u0636\u0649": 2148, "\u0645\u0633\u0627\u062d": 2149, "\u0625\u0646\u0645\u0627": 2150, "\u0641\u0648\u0631": 2151, "##\u0627\u0639\u0644": 2152, "\u0645\u0631\u062a\u0628": 2153, "\u0634\u0645\u0627\u0644\u064a": 2154, "\u0645\u0641\u0627\u0648\u0636": 2155, "##\u0628\u0627\u0637": 2156, "\u0623\u0637\u0631": 2157, "\u0646\u0627\u0631": 2158, "\u0636\u0628\u0637": 2159, "\u0635\u0639\u0628": 2160, "\u0625\u064a\u0637\u0627\u0644\u064a": 2161, "\u0633\u0644\u0637\u0627\u0646": 2162, "\u0642\u0631\u0628": 2163, "\u0641\u0631\u0646\u0633\u0627": 2164, "##\u062a\u0645\u0627\u062f": 2165, "\u064a\u0637": 2166, "##\u0627\u0642\u0641": 2167, "\u0634\u062f\u064a\u062f": 2168, "\u0645\u0646\u0627\u0642\u0634": 2169, "\u062d\u0644\u0648\u0644": 2170, "21": 2171, "\u062f\u064a\u0646\u064a": 2172, "\u0623\u0628\u0648\u0638": 2173, "\u062c\u0646\u0648\u0628\u064a": 2174, "\u0623\u062f\u0649": 2175, "\u062a\u0631\u0643\u064a\u0627": 2176, "\u062a\u0645\u0648\u064a\u0644": 2177, "\u0625\u0646\u062a\u0631": 2178, "\u062a\u0639\u0645\u0644": 2179, "##\u0626\u0644": 2180, "\u0643\u0627\u0631": 2181, "\u0645\u0631\u062a": 2182, "\u0645\u0639\u062a": 2183, "##\u0631\u0631": 2184, "\u0627\u0639\u062a\u0645\u0627\u062f": 2185, "##\u0627\u0632\u0646": 2186, "##\u0639\u0648": 2187, "\u0642\u0627\u062f\u0631": 2188, "\u062f\u064a\u0645\u0642\u0631\u0627\u0637\u064a": 2189, "\u0633\u0644\u0627\u062d": 2190, "\u062c\u0645\u0627\u0644": 2191, "\u0633\u0641\u0631": 2192, "\u0645\u0633\u0627\u0647\u0645": 2193, "\u0644\u0627\u0646": 2194, "##\u0627\u0646\u064a\u0646": 2195, "\u062a\u062d\u0645\u0644": 2196, "\u0627\u0648\u0644\u0649": 2197, "##\u0630\u0627\u0631": 2198, "\u0634\u0631\u0639\u064a": 2199, "\u0623\u0648\u0636\u0627\u0639": 2200, "\u0644\u0627\u062d": 2201, "\u0627\u0646\u062e": 2202, "##\u0648\u0627\u062a": 2203, "##\u0641\u0633": 2204, "\u064a\u0631\u064a\u062f": 2205, "\u0623\u0628\u0648\u0638\u0628\u064a": 2206, "\u062a\u0644\u0641\u0632\u064a": 2207, "\u0627\u0646\u062a\u0647\u0627\u0621": 2208, "\u0645\u062d\u0627\u0643\u0645": 2209, "##\u0635\u064a": 2210, "\u0648\u062c\u062f": 2211, "\u0639\u064a": 2212, "\u0645\u0628\u0644\u063a": 2213, "\u063a\u0630": 2214, "\u0645\u062a\u0648": 2215, "##\u0631\u064a\u0642\u064a\u0627": 2216, "##\u0633\u064a\u0642": 2217, "\u0642\u0631\u0646": 2218, "\u0639\u0631\u0641": 2219, "##\u062b\u0645\u0631": 2220, "##\u0642\u0627\u062f": 2221, "\u062c\u0632\u064a\u0631": 2222, "\u0635\u062d\u064a\u062d": 2223, "\u0642\u0631\u0627\u0621": 2224, "\u0645\u0639\u0627\u0644\u062c": 2225, "\u0628\u0631\u0644\u0645\u0627\u0646": 2226, "\u064a\u0633\u0645": 2227, "\u0627\u0633\u0631": 2228, "\u062c\u0645\u0647\u0648\u0631": 2229, "\u0631\u0648\u0633\u064a\u0627": 2230, "##\u0641\u0627\u0636": 2231, "\u0634\u0647\u0627\u062f": 2232, "##\u0627\u062a\u0644": 2233, "\u062d\u0636\u0631": 2234, "\u0644\u0648\u0627\u0621": 2235, "\u0639\u0642\u0648\u0628": 2236, "\u064a\u063a": 2237, "##\u0646\u0627": 2238, "\u0647\u0644\u0627\u0644": 2239, "\u0648\u0627\u0634\u0646": 2240, "\u0645\u0637\u0627\u0631": 2241, "##\u0648\u062e": 2242, "\u062c\u0645\u064a\u0644": 2243, "\u0648\u0627\u0634\u0646\u0637\u0646": 2244, "\u064a\u0639\u0648\u062f": 2245, "\u0641\u0648\u0642": 2246, "\u0643\u0628\u0627\u0631": 2247, "##\u0628\u0642": 2248, "\u0648\u0627\u0633\u0639": 2249, "\u0635\u0627\u0631": 2250, "##\u0639\u0627\u0628": 2251, "\u062a\u0627\u0631\u064a\u062e\u064a": 2252, "\u064a\u0639\u0646\u064a": 2253, "##\u0645\u0627\u0639": 2254, "\u0635\u0648": 2255, "\u0623\u0632": 2256, "##\u063a\u0627\u0646": 2257, "23": 2258, "##\u0648\u0642\u0631": 2259, "\u0628\u0627\u0643": 2260, "\u0645\u0642\u0627\u0631\u0646": 2261, "\u062a\u062c\u0627\u0647": 2262, "##\u0634\u062f": 2263, "\u062e\u0637\u0627\u0628": 2264, "##\u062e\u0627\u0630": 2265, "\u062a\u0623\u0633\u064a\u0633": 2266, "\u0645\u062a\u062d\u062f\u062b": 2267, "\u0623\u0637\u0644\u0642": 2268, "\u062d\u0631\u0635": 2269, "\u0632\u0631\u0627\u0639": 2270, "\u0634\u0643\u0631": 2271, "\u0627\u0646\u062a\u062e\u0627\u0628\u064a": 2272, "##\u0631\u064a\u0641": 2273, "\u062d\u0645\u0627\u0633": 2274, "\u062a\u0639\u0631\u0641": 2275, "\u0645\u064a\u0632": 2276, "\u062a\u0639\u062a\u0628\u0631": 2277, "\u0645\u0627\u0631\u0633": 2278, "\u0633\u0644\u064a\u0645\u0627\u0646": 2279, "\u0623\u0628\u062f": 2280, "\u064a\u0623\u062a\u064a": 2281, "##\u062e\u0645": 2282, "\u0643\u0627\u062a\u0628": 2283, "\u062a\u0648\u062c\u064a\u0647": 2284, "\u0634\u0631\u0627\u0621": 2285, "\u0628\u0639\u062f\u0645\u0627": 2286, "\u0633\u0631\u064a\u0639": 2287, "\u0643\u0644\u0627\u0645": 2288, "\u0623\u062c\u0646\u0628\u064a": 2289, "\u0641\u0635\u0644": 2290, "\u064a\u0648\u0631": 2291, "\u063a\u0627\u0632": 2292, "##\u0645\u0649": 2293, "\u064a\u0646\u0627\u064a\u0631": 2294, "##\u062c\u0648": 2295, "\u062d\u0648\u0627\u0644\u064a": 2296, "##\u0627\u0637\u0631": 2297, "##\u062a\u0645\u0644": 2298, "\u062a\u0642\u0644\u064a": 2299, "##\u0627\u062c\u0626": 2300, "\u0641\u064a\u0635\u0644": 2301, "##\u062a\u064a\u0628": 2302, "\u063a\u0627\u064a": 2303, "\u062e\u0627\u062f\u0645": 2304, "\u062d\u0631\u064a\u0631\u064a": 2305, "##\u0627\u062f\u0642": 2306, "##\u0648\u0642\u0631\u0627\u0637\u064a": 2307, "\u0645\u0646\u0635\u0628": 2308, "\u062a\u0645\u0627\u0645": 2309, "\u0628\u0627\u062a": 2310, "##\u0633\u064a\u0646": 2311, "\u0627\u062a\u062e\u0627\u0630": 2312, "##\u0628\u0644\u0648\u0645": 2313, "\u062f\u0645\u0634\u0642": 2314, "\u063a\u0636": 2315, "##\u0641\u064a\u0641": 2316, "\u0625\u0642\u0644\u064a\u0645\u064a": 2317, "##\u0633\u0627\u062f": 2318, "\u064a\u0648\u062c\u062f": 2319, "\u0644\u0645\u0627\u0630\u0627": 2320, "\u0625\u0634\u0627\u0631": 2321, "##\u0627\u0646\u0627": 2322, "##\u0632\u0639": 2323, "\u0628\u0627\u0644\u063a": 2324, "\u0644\u0627\u0632\u0645": 2325, "\u064a\u0628\u062f\u0648": 2326, "\u0636\u0645": 2327, "##\u0627\u0634\u062f": 2328, "\u062c\u0646\u0633\u064a": 2329, "\u0627\u0639\u062a\u0631": 2330, "##\u0647\u0627": 2331, "\u0627\u0634\u062a\u0631": 2332, "\u0633\u0628\u064a\u0644": 2333, "\u0643\u0648\u0631\u064a": 2334, "\u0623\u0635\u0644": 2335, "\u062a\u062c\u0627\u0648\u0632": 2336, "##\u0647\u0648\u0644": 2337, "\u0641\u0642": 2338, "##\u0627\u0637\u0639": 2339, "\u0635\u064a\u0646": 2340, "\u0627\u0646\u0633": 2341, "\u062a\u064a\u0627\u0631": 2342, "##\u0648\u0639\u064a": 2343, "\u064a\u062a\u062d": 2344, "\u062a\u0646\u0627\u0648\u0644": 2345, "\u0635\u0631\u0627\u0639": 2346, "\u064a\u062a\u0639\u0644\u0642": 2347, "\u0645\u0624\u062e\u0631": 2348, "##\u0627\u0645\u0631": 2349, "##\u062c\u064a\u0631": 2350, "\u0623\u0635\u062f\u0631": 2351, "\u0641\u0627\u0632": 2352, "\u062a\u0642\u0648\u0644": 2353, "\u0645\u0648\u0627\u0642\u0641": 2354, "\u062f\u0642": 2355, "\u062a\u0646\u0633\u064a\u0642": 2356, "\u064a\u0645\u062b\u0644": 2357, "\u0639\u0644\u0648\u0645": 2358, "##\u062a\u0644\u0627\u0641": 2359, "\u0645\u0643\u0627\u0641\u062d": 2360, "\u0636\u064a": 2361, "\u0643\u0648": 2362, "\u0623\u062a": 2363, "\u0646\u0627\u062d\u064a": 2364, "\u0645\u0633\u0644\u0633\u0644": 2365, "\u0627\u062f": 2366, "\u0645\u0627\u0646": 2367, "\u0634\u0627\u0645\u0644": 2368, "##\u0631\u0645": 2369, "\u062a\u0648\u0642\u0639": 2370, "\u0645\u062a\u0648\u0642\u0639": 2371, "2010": 2372, "\u063a\u064a\u0627\u0628": 2373, "\u0639\u0628\u062f\u0627\u0644\u0631\u062d": 2374, "\u0642\u0648\u0627\u0646\u064a\u0646": 2375, "\u0633\u0628\u0642": 2376, "##\u062a\u0627\u0646": 2377, "\u0628\u0634\u0631\u064a": 2378, "40": 2379, "\u0633\u0627\u0644\u0645": 2380, "##\u062f\u064a\u0642": 2381, "\u062a\u0648\u0631": 2382, "\u0628\u063a": 2383, "\u0627\u0633\u062a\u063a": 2384, "\u0645\u0639\u0646\u064a": 2385, "##\u0633\u0627\u0646": 2386, "\u0642\u0637\u0631": 2387, "\u0628\u062a\u0631": 2388, "\u0641\u0631\u0636": 2389, "##\u0627\u062c\u062f": 2390, "##\u0643\u0648\u0631": 2391, "\u0623\u0641\u0627\u062f": 2392, "##\u0646\u062f\u0627": 2393, "\u0636\u063a\u0637": 2394, "\u0645\u062a\u0639\u0644\u0642": 2395, "##\u062f\u0631\u064a": 2396, "##\u0646\u0627\u0646": 2397, "\u0625\u0639\u062f\u0627\u062f": 2398, "##\u0643\u0631\u064a": 2399, "\u0628\u0627\u0646": 2400, "\u0639\u062b": 2401, "##\u0642\u0628\u0627\u0644": 2402, "\u0645\u0648\u0639\u062f": 2403, "\u0645\u0639\u0647\u062f": 2404, "\u0645\u0642\u0627\u0644": 2405, "\u0627\u0636": 2406, "\u0632\u0645\u0646": 2407, "\u0625\u0641": 2408, "100": 2409, "\u0641\u0627\u0646": 2410, "\u0627\u0633\u0631\u0627\u0626\u064a\u0644": 2411, "\u0633\u064a\u0627\u062d\u064a": 2412, "\u0631\u0628\u0639": 2413, "\u0635\u062d\u0641": 2414, "\u0627\u062d\u062a\u062c\u0627\u062c": 2415, "\u0639\u0642\u0627\u0631\u064a": 2416, "\u0627\u0646\u0637\u0644\u0627\u0642": 2417, "\u0643\u064a\u0644": 2418, "\u0645\u0633\u0623\u0644": 2419, "\u0645\u0644\u0627\u062d": 2420, "\u0645\u0637\u0631": 2421, "##\u0627\u062c\u0631": 2422, "\u0645\u0648\u0646": 2423, "\u0639\u0627\u062f\u0644": 2424, "##\u0647\u0627\u0631": 2425, "\u062a\u062f\u0627\u0648\u0644": 2426, "\u0645\u0633\u062a\u062b\u0645\u0631": 2427, "\u0645\u062a\u062d": 2428, "\u0623\u0631\u0628\u0639\u0627\u0621": 2429, "\u0625\u0646\u062a\u0631\u0646\u062a": 2430, "##\u0648\u0634": 2431, "\u0643\u0645\u064a": 2432, "\u062c\u0648\u0631": 2433, "\u062f\u064a\u0645\u0648\u0642\u0631\u0627\u0637\u064a": 2434, "\u0645\u062a\u062e\u0635\u0635": 2435, "\u0633\u0627\u062f\u0633": 2436, "\u0627\u062a\u0647\u0627\u0645": 2437, "##\u0643\u0649": 2438, "\u0625\u062c\u0645\u0627\u0644\u064a": 2439, "26": 2440, "\u0645\u0641\u0631": 2441, "##\u0627\u0635\u064a\u0644": 2442, "\u0633\u0648\u0649": 2443, "\u062d\u0641\u0638": 2444, "\u0639\u0634": 2445, "\u0627\u0632": 2446, "\u0645\u0645\u0643\u0646": 2447, "##\u0644\u064a\u0632\u064a": 2448, "\u0628\u0639\u062b": 2449, "\u0645\u0635\u0627\u0628": 2450, "\u0625\u0635\u062f\u0627\u0631": 2451, "198": 2452, "\u0623\u0646\u0634\u0637": 2453, "\u0625\u0634\u0631": 2454, "\u062a\u0639\u064a": 2455, "\u0648\u0631\u0627\u0621": 2456, "##\u0627\u0642\u062f": 2457, "##\u0630\u0644": 2458, "\u0648\u0641\u0627": 2459, "##\u0637\u0641\u0649": 2460, "\u062c\u0645\u0627\u0647\u064a\u0631": 2461, "\u0645\u062a\u0637": 2462, "\u0637\u064a\u0631\u0627\u0646": 2463, "##\u0626\u064a": 2464, "\u0623\u0637\u0631\u0627\u0641": 2465, "\u062a\u0648\u0642\u064a\u0639": 2466, "##\u0637\u0644\u0627\u0639": 2467, "\u062a\u0639\u0627\u062f\u0644": 2468, "\u0623\u0633\u0645\u0627\u0621": 2469, "\u0642\u0628\u0636": 2470, "\u0639\u0635\u0631": 2471, "##\u0627\u0631\u0641": 2472, "\u0627\u0645\u0627": 2473, "\u064a\u062d\u062f\u062b": 2474, "##\u0631\u064a\u0644": 2475, "\u064a\u0624\u0643\u062f": 2476, "\u0639\u0628\u062f\u0627\u0644\u0631\u062d\u0645\u0646": 2477, "\u0644\u062d\u0638": 2478, "\u0623\u062d\u0632": 2479, "##\u0638\u0627\u0631": 2480, "\u0648\u0641\u0649": 2481, "\u0645\u0633\u062a\u0648\u064a": 2482, "\u0627\u0633\u062a\u0642\u0628\u0627\u0644": 2483, "\u0641\u0634\u0644": 2484, "\u0635\u064a\u062f": 2485, "\u0645\u0634\u0627\u0647\u062f": 2486, "\u0635\u0639\u064a\u062f": 2487, "\u0646\u062f\u0648": 2488, "\u0630\u0647\u0628": 2489, "\u0631\u0645\u0636\u0627\u0646": 2490, "\u0634\u0642\u064a\u0642": 2491, "\u0631\u0648\u064a": 2492, "\u0644\u062c\u0627\u0646": 2493, "\u062a\u0630": 2494, "\u0646\u0638\u0645": 2495, "\u062a\u0639\u0628\u064a\u0631": 2496, "\u0643\u0647\u0631\u0628\u0627\u0621": 2497, "\u0645\u062d\u062f\u062f": 2498, "27": 2499, "\u0634\u0631\u0648\u0637": 2500, "\u0623\u0645\u0631\u0627\u0636": 2501, "\u0634\u0627\u0639\u0631": 2502, "\u0627\u062d\u062a\u0641\u0627\u0644": 2503, "##\u0633\u062f": 2504, "\u0637\u0639": 2505, "\u0622\u062b\u0627\u0631": 2506, "\u0639\u062f\u0627\u0644": 2507, "\u062f\u0628\u0644\u0648\u0645": 2508, "\u0623\u0648\u0644\u064a": 2509, "\u0627\u0635": 2510, "\u0637\u0628\u064a\u0639": 2511, "\u0642\u0648\u0645\u064a": 2512, "\u0645\u0633\u064a\u062d\u064a": 2513, "##\u062a\u062c": 2514, "\u0633\u0647\u0645": 2515, "\u0627\u0633\u062a\u0641\u0627\u062f": 2516, "2011": 2517, "\u0625\u0645\u0643\u0627\u0646\u064a": 2518, "\u062a\u0648\u0635\u0644": 2519, "\u0647\u0632": 2520, "\u0631\u0648\u0645": 2521, "\u0645\u0647\u0627\u062c\u0645": 2522, "\u0636\u062d": 2523, "\u062a\u062d\u0631\u0643": 2524, "\u0645\u0633\u0626\u0648\u0644": 2525, "\u064a\u062d\u0645\u0644": 2526, "\u0627\u0641\u062a\u062a\u0627\u062d": 2527, "##\u062a\u0648\u062d": 2528, "##\u062a\u0627\u0645": 2529, "\u0633\u0645\u0627": 2530, "\u062a\u0639\u0644\u064a\u0645\u064a": 2531, "\u0645\u062d\u064a\u0637": 2532, "##\u0627\u0628\u062f": 2533, "\u0642\u062f\u0633": 2534, "\u0645\u0635\u0637\u0641\u0649": 2535, "\u0645\u062c\u0631\u062f": 2536, "\u0642\u0635\u0631": 2537, "##\u0627\u0643\u0631": 2538, "28": 2539, "\u0631\u0648\u0627\u064a": 2540, "\u062a\u0647\u062f\u064a\u062f": 2541, "\u0642\u062a": 2542, "\u0634\u0641": 2543, "##\u0627\u0641\u0644": 2544, "\u0647\u0648\u064a": 2545, "\u062d\u0641\u0627\u0638": 2546, "\u062a\u0648\u0642\u0641": 2547, "\u0641\u0631\u0639": 2548, "\u0648\u0643\u064a\u0644": 2549, "\u062a\u0647\u0645": 2550, "\u062b\u0627\u0646": 2551, "\u0625\u0645\u0643\u0627\u0646": 2552, "\u062a\u062d\u0648\u064a\u0644": 2553, "##\u0647\u0627\u0621": 2554, "\u062a\u062d\u0633\u064a\u0646": 2555, "\u0639\u0628\u0627\u0631": 2556, "\u0641\u0648": 2557, "##\u0643\u0627\u0644": 2558, "\u0625\u0634": 2559, "\u0638\u0627\u0647\u0631": 2560, "\u0646\u0648\u0641": 2561, "\u064a\u0634\u0627\u0631\u0643": 2562, "##\u0630\u064a": 2563, "##\u0639\u0641": 2564, "\u0623\u062d\u0632\u0627\u0628": 2565, "\u0633\u0644\u0628\u064a": 2566, "\u0628\u0627\u062d\u062b": 2567, "\u062e\u0631\u062c": 2568, "\u0628\u0637\u0644": 2569, "\u0627\u062d\u062a\u064a\u0627\u062c": 2570, "\u062a\u0645\u062b\u0644": 2571, "##\u062a\u0648\u0628\u0631": 2572, "##\u062a\u0631\u0636": 2573, "\u0645\u0633\u062c\u062f": 2574, "\u062a\u0634\u0647\u062f": 2575, "\u0623\u0643\u062a\u0648\u0628\u0631": 2576, "##\u0643\u0627\u0645": 2577, "\u0623\u0648\u0628": 2578, "\u062a\u0639\u0644\u064a\u0642": 2579, "\u0623\u062d\u064a\u0627\u0646": 2580, "\u0627\u0639\u062a\u062f\u0627\u0621": 2581, "\u0645\u0633\u062a\u0642\u0644": 2582, "##\u0648\u0631\u0649": 2583, "##\u0648\u0627\u0639": 2584, "##\u0648\u064a\u0636": 2585, "\u062b\u0627\u0645\u0646": 2586, "\u0635\u062d\u0627\u0641\u064a": 2587, "##\u0643\u064a\u0646": 2588, "\u0646\u0637": 2589, "\u062d\u0627\u0643\u0645": 2590, "\u0637\u064a\u0628": 2591, "\u0645\u0642\u062a\u0644": 2592, "##\u0643\u0628": 2593, "2008": 2594, "\u0645\u0631\u0627\u062c\u0639": 2595, "\u062a\u0639\u064a\u064a\u0646": 2596, "2012": 2597, "\u0633\u0628\u0627\u0642": 2598, "\u0635\u062f\u064a\u0642": 2599, "##\u0635\u0649": 2600, "\u062d\u0644\u0642": 2601, "##\u062f\u0648\u062f": 2602, "\u0628\u0648\u0644": 2603, "\u0634\u0645": 2604, "\u0634\u062f\u062f": 2605, "\u0641\u0644\u0633\u0637\u064a\u0646": 2606, "\u0646\u0641\u0633\u064a": 2607, "##\u0635\u062f": 2608, "##\u0645\u0627\u0631\u064a": 2609, "\u0633\u0639\u0627\u062f": 2610, "\u0645\u062e\u0631\u062c": 2611, "\u0623\u0633\u062f": 2612, "\u062a\u0641\u0627\u0635\u064a\u0644": 2613, "\u062b\u0627\u0646\u0648\u064a": 2614, "\u062a\u062d\u0642\u0642": 2615, "\u0623\u0639\u0631\u0628": 2616, "\u0634\u0639\u0627\u0631": 2617, "##\u0648\u064a\u062a": 2618, "\u0645\u0639\u064a\u0646": 2619, "\u0637\u0628\u0642": 2620, "\u062d\u0627\u0648\u0644": 2621, "\u0628\u0646\u0648\u0643": 2622, "\u0635\u0639\u0648\u0628": 2623, "\u0645\u062c\u0645\u0639": 2624, "\u062c\u0631\u064a\u0645": 2625, "\u0633\u0641\u0627\u0631": 2626, "\u064a\u0631\u0649": 2627, "\u0641\u0647\u0645": 2628, "\u0627\u0633\u062a\u0646": 2629, "\u0628\u063a\u062f\u0627\u062f": 2630, "\u062a\u063a\u064a\u0631": 2631, "\u062f\u0633\u062a\u0648\u0631\u064a": 2632, "\u0623\u0644\u0645\u0627\u0646\u064a\u0627": 2633, "\u0623\u0646\u0638\u0645": 2634, "\u0645\u0627\u0630\u0627": 2635, "##\u0631\u0648": 2636, "\u0647\u062c\u0645": 2637, "##\u0642\u0627\u0641": 2638, "##\u0648\u0641\u0631": 2639, "\u064a\u0628\u0644\u063a": 2640, "\u062a\u062d\u0627\u0644\u0641": 2641, "\u0627\u0631\u062a\u0641\u0639": 2642, "##\u0641\u0630": 2643, "\u0645\u0644\u062a": 2644, "\u0641\u0633\u0627\u062f": 2645, "##\u062a\u0644\u0643": 2646, "\u0642\u0628\u0648\u0644": 2647, "##\u0637\u0637": 2648, "##\u0627\u0643\u064a": 2649, "\u0645\u0628\u0646\u0649": 2650, "\u064a\u062c\u0639\u0644": 2651, "##\u0628\u062d\u062b": 2652, "##\u0639\u0644\u0627\u0645": 2653, "\u062a\u0628\u0627\u062f\u0644": 2654, "##\u0627\u0648": 2655, "\u062a\u0643\u0646\u0648\u0644\u0648\u062c\u064a": 2656, "\u0635\u0641\u062d": 2657, "\u0631\u062d\u0645": 2658, "\u0645\u062c\u0644": 2659, "\u0631\u0633\u0645": 2660, "\u0628\u0637\u0627\u0642": 2661, "\u0645\u0644\u062d": 2662, "\u0634\u0648\u0627\u0631": 2663, "\u0639\u062f\u0644": 2664, "\u0623\u0646\u0648\u0627\u0639": 2665, "2009": 2666, "\u0635\u0641\u0631": 2667, "\u0631\u0635\u064a\u062f": 2668, "##\u0648\u0644\u0627": 2669, "\u0637\u0646": 2670, "\u0635\u0641\u0642": 2671, "##\u0628\u064a\u0628": 2672, "\u0623\u0648\u0631\u0627\u0642": 2673, "##\u0644\u0648\u0628": 2674, "\u0642\u0636\u0627\u0626\u064a": 2675, "\u062c\u0628\u0647": 2676, "\u0645\u0643\u0631": 2677, "\u0645\u0648\u0636\u062d": 2678, "##\u0642\u0627\u0645": 2679, "##\u062e\u0631\u0627\u062c": 2680, "\u0625\u0628\u062f": 2681, "\u064a\u0639\u064a\u0634": 2682, "\u0645\u0648\u0633\u064a": 2683, "\u062c\u0648\u062f": 2684, "\u062f\u0627\u0639": 2685, "\u0645\u064a\u062f\u0627\u0646": 2686, "\u062c\u0627\u0631": 2687, "\u0645\u0646\u0635\u0648\u0631": 2688, "\u062a\u0635\u0648\u064a\u0631": 2689, "\u062a\u0642\u064a": 2690, "\u0636\u0648\u0621": 2691, "##\u0641\u0638": 2692, "35": 2693, "\u062e\u064a": 2694, "##\u0646\u062f\u064a": 2695, "\u062f\u064a\u0646\u0627\u0631": 2696, "197": 2697, "\u0646\u062c\u062d": 2698, "\u0631\u0623\u0649": 2699, "\u0634\u0648\u0637": 2700, "\u0644\u0648\u062d": 2701, "\u0623\u0644\u0639\u0627\u0628": 2702, "\u062a\u0635\u0646\u064a": 2703, "\u0625\u0644\u063a": 2704, "\u0645\u0633\u0627\u0631": 2705, "\u0627\u062d\u062a\u0631\u0627\u0645": 2706, "##\u0648\u0646\u064a\u0648": 2707, "\u0642\u0644\u0642": 2708, "\u0632\u0631\u0627\u0639\u064a": 2709, "\u0623\u0641\u0643\u0627\u0631": 2710, "\u062a\u0631\u0627\u062b": 2711, "##\u0627\u062c\u0628": 2712, "\u0645\u0634\u0631\u0641": 2713, "\u0633\u0642": 2714, "\u062a\u0634\u0643\u0644": 2715, "\u0645\u062f\u064a\u0631\u064a": 2716, "\u0634\u0648\u0627\u0631\u0639": 2717, "\u0627\u0644\u062a\u0649": 2718, "\u0641\u0642\u0631": 2719, "\u0641\u064a\u0631": 2720, "\u062d\u0630\u0631": 2721, "##\u062d\u0627\u0621": 2722, "\u0639\u0638": 2723, "\u0639\u0642\u0648\u062f": 2724, "##\u063a\u0627\u0644": 2725, "##\u063a\u064a\u0644": 2726, "\u0627\u0646\u062a\u0642\u0627\u0644": 2727, "\u062a\u0623\u062a\u064a": 2728, "##\u0627\u0624": 2729, "\u0627\u0646\u062a\u0634\u0627\u0631": 2730, "\u0635\u0645": 2731, "\u062f\u064a\u0633": 2732, "##\u062a\u0645\u0628\u0631": 2733, "\u0632\u0648\u0627\u062c": 2734, "\u0644\u0641\u062a": 2735, "\u0642\u0627\u0631": 2736, "\u0643\u0646\u064a": 2737, "\u0634\u0631\u0641": 2738, "\u0627\u0646\u062f": 2739, "\u0633\u0628\u062a\u0645\u0628\u0631": 2740, "\u0634\u0646": 2741, "\u0639\u0642\u0627\u0631": 2742, "\u0625\u0634\u0631\u0627\u0641": 2743, "\u062a\u0631\u062a\u064a\u0628": 2744, "##\u0646\u0627\u0626\u064a": 2745, "\u0639\u0644\u0645\u0627\u0621": 2746, "##\u0622\u062a": 2747, "\u0627\u0646\u0636\u0645": 2748, "\u0645\u0623": 2749, "\u062e\u0628\u0631\u0627\u0621": 2750, "##\u0633\u064a\u0637": 2751, "\u062a\u062b": 2752, "\u0644\u0646\u062f": 2753, "\u0642\u0627\u0639": 2754, "\u0641\u0631\u0627\u0646": 2755, "\u0641\u0631\u062d": 2756, "\u0633\u064a\u0627\u0642": 2757, "\u0645\u063a\u0631\u0628": 2758, "\u062a\u0633\u0639": 2759, "\u0645\u0645\u064a\u0632": 2760, "\u0641\u062d": 2761, "\u062c\u0630": 2762, "##\u0631\u0627\u0636": 2763, "\u062a\u0648\u0646\u0633\u064a": 2764, "\u062e\u0644\u064a\u0641": 2765, "\u0631\u0627\u0634\u062f": 2766, "\u062a\u062a\u062d": 2767, "\u0625\u064a\u062c\u0627\u062f": 2768, "##\u0647\u062c": 2769, "\u0646\u0627\u062f\u0649": 2770, "##\u062a\u0631\u062d": 2771, "\u062e\u0633\u0627\u0631": 2772, "\u0628\u0644\u062f\u0627\u0646": 2773, "\u0627\u0646\u062e\u0641\u0627\u0636": 2774, "##\u0647\u0627\u0646": 2775, "##\u062c\u062d": 2776, "\u0623\u0646\u0641\u0633": 2777, "\u0627\u0636\u0637\u0631": 2778, "\u064a\u0634\u0643\u0644": 2779, "##\u062b\u064a\u0642": 2780, "\u0648\u0627\u062c\u0628": 2781, "\u0623\u062c\u0631": 2782, "\u064a\u0624\u062f\u064a": 2783, "\u062a\u0636\u0645": 2784, "\u0647\u0648\u0644": 2785, "\u0635\u0641\u0648\u0641": 2786, "##\u0638\u0644": 2787, "##\u0627\u0631\u064a\u0631": 2788, "##\u0639\u062f\u062f": 2789, "\u0633\u0631\u0642": 2790, "##\u0630\u062c": 2791, "2006": 2792, "\u0645\u0648\u062a": 2793, "##\u062a\u0631\u0627": 2794, "\u064a\u062d\u062a\u0627\u062c": 2795, "\u062a\u0633\u0628\u0628": 2796, "\u0645\u0628\u0627\u062d\u062b": 2797, "\u0643\u064a\u0641\u064a": 2798, "\u0642\u0635\u064a\u0631": 2799, "\u0637\u0645": 2800, "\u0645\u062a\u0623": 2801, "\u0645\u0641\u062a\u0648\u062d": 2802, "\u062a\u0633\u0644\u064a\u0645": 2803, "\u0645\u0643\u062a": 2804, "\u0647\u0649": 2805, "\u062c\u0648\u0646": 2806, "##\u0627\u0628\u062a": 2807, "\u0623\u0635\u064a\u0628": 2808, "\u0639\u0628\u0627\u0633": 2809, "\u0632\u0639\u064a\u0645": 2810, "\u0645\u0639\u0646\u0649": 2811, "\u0633\u062c": 2812, "29": 2813, "\u062e\u0637\u0637": 2814, "##\u0633\u0627\u0644": 2815, "\u062f\u0628\u0644\u0648\u0645\u0627\u0633\u064a": 2816, "\u0645\u0633\u062a\u062e\u062f\u0645": 2817, "\u064a\u0633\u062a\u0637\u064a\u0639": 2818, "\u064a\u0648\u0644\u064a": 2819, "\u0645\u0646\u0633": 2820, "\u062a\u0648\u0646\u0633": 2821, "##\u0645\u0628\u064a": 2822, "##\u0634\u0627\u0641": 2823, "\u0628\u062f\u0631": 2824, "\u0627\u0646\u0639": 2825, "\u062c\u0646\u0648\u062f": 2826, "##\u062c\u0627\u0628": 2827, "##\u0643\u0627\u0646": 2828, "\u0623\u0645\u0627\u0643\u0646": 2829, "\u0632\u0627\u0644": 2830, "##\u063a\u0628": 2831, "\u062e\u064a\u0627\u0631": 2832, "\u0645\u062a\u0642\u062f\u0645": 2833, "\u0623\u0631\u062f\u0646": 2834, "##\u0627\u0626\u0649": 2835, "\u064a\u062a\u0646": 2836, "\u063a\u0630\u0627\u0626\u064a": 2837, "\u0623\u0646\u062a": 2838, "\u0623\u0635\u0648\u0627\u062a": 2839, "\u0625\u0644\u063a\u0627\u0621": 2840, "\u0645\u062a\u0638\u0627\u0647\u0631": 2841, "\u0645\u062d\u0627\u0636\u0631": 2842, "\u062a\u0633\u0645": 2843, "##\u0642\u0627\u0630": 2844, "\u064a\u0648\u0631\u0648": 2845, "\u0628\u0642": 2846, "##\u0627\u062f\u064a\u0645\u064a": 2847, "\u062a\u0628\u062f\u0623": 2848, "\u062a\u0634\u0645\u0644": 2849, "##\u062c\u0627\u0648\u0632": 2850, "##\u0637\u0627\u0646": 2851, "31": 2852, "\u0637\u0628\u064a\u0628": 2853, "\u0645\u062a\u0645\u064a\u0632": 2854, "\u0648\u0631\u062f": 2855, "\u062a\u0642\u0627\u0631\u064a\u0631": 2856, "\u0631\u0626\u0627\u0633\u064a": 2857, "##\u0627\u0626\u0646": 2858, "\u0633\u0648\u062f\u0627\u0646": 2859, "\u062a\u062e\u0637\u064a": 2860, "\u0636\u0639\u0641": 2861, "\u062c\u0647\u062f": 2862, "\u0648\u0644\u064a\u062f": 2863, "\u0646\u0642\u062f": 2864, "\u0645\u0633\u0631\u062d\u064a": 2865, "\u0645\u0628\u0631": 2866, "\u0627\u0628": 2867, "\u062d\u0627\u0631\u0633": 2868, "\u0637\u0628\u0639": 2869, "\u0628\u0648\u0634": 2870, "\u0627\u0633\u062a\u0637": 2871, "##\u0644\u064a\u0646": 2872, "\u062c\u0631\u0649": 2873, "\u0633\u0643\u0646\u064a": 2874, "\u0625\u0628": 2875, "\u062a\u062e\u0635\u0635": 2876, "\u0633\u0627\u0646": 2877, "\u0627\u0633\u062a\u0642": 2878, "\u0644\u0646\u062f\u0646": 2879, "60": 2880, "\u0645\u0647\u0646\u064a": 2881, "##\u0648\u0630": 2882, "\u0645\u0627\u0621": 2883, "##\u062a\u0648\u0646": 2884, "\u0645\u0647\u0645\u0627": 2885, "\u0623\u062b\u0631": 2886, "196": 2887, "##\u0641\u0627": 2888, "\u062a\u0638\u0627\u0647\u0631": 2889, "\u0633\u0644\u0633\u0644": 2890, "##\u064a\u0645\u0646": 2891, "\u0627\u0633\u062a\u0643": 2892, "\u064a\u0632\u064a\u062f": 2893, "\u064a\u0631\u0641": 2894, "\u0633\u0637": 2895, "\u0643\u0627\u0645": 2896, "\u0627\u0633\u062a\u0634": 2897, "\u062a\u0639\u0648\u062f": 2898, "##\u062f\u0633": 2899, "\u062a\u0634\u063a\u064a\u0644": 2900, "\u064a\u0645\u0646\u064a": 2901, "\u0645\u0627\u062f\u064a": 2902, "\u0625\u0633\u0643\u0646": 2903, "\u062b\u0645\u0627\u0646\u064a": 2904, "\u0645\u064a\u0646": 2905, "##\u0634\u0641\u064a": 2906, "##\u0627\u0647\u064a": 2907, "##\u062a\u0633": 2908, "\u062f\u0644\u064a\u0644": 2909, "\u0641\u0627\u0631\u0642": 2910, "\u0645\u0648\u0633\u0649": 2911, "\u0628\u0627\u0631\u064a\u0633": 2912, "##\u0627\u064a\u0646": 2913, "\u0645\u062a\u0639\u062f\u062f": 2914, "\u064a\u062d\u0635\u0644": 2915, "##\u0642\u064a\u0628": 2916, "\u0635\u064a\u0646\u064a": 2917, "\u0645\u062e\u062f\u0631": 2918, "##\u0627\u0646\u064a\u0627": 2919, "##\u062a\u0645\u0627\u0644": 2920, "\u064a\u0627\u0633": 2921, "\u0645\u0627\u0636\u0649": 2922, "\u062a\u0643\u0631": 2923, "\u062f\u064a\u0633\u0645\u0628\u0631": 2924, "\u0645\u0631\u0627\u0641\u0642": 2925, "\u0641\u0646\u062f": 2926, "##\u0626\u0646": 2927, "\u0625\u0646\u0642\u0627\u0630": 2928, "\u0627\u0644\u0644": 2929, "\u0641\u0628\u0631": 2930, "\u064a\u062c\u0631\u064a": 2931, "\u0623\u0637\u0628\u0627\u0621": 2932, "\u0641\u0627\u0631": 2933, "\u0633\u0645\u0639": 2934, "##\u0643\u064a\u0631": 2935, "\u062e\u0648\u0641": 2936, "##\u0648\u0631\u062f": 2937, "\u0645\u0642\u064a\u0645": 2938, "##\u0646\u0628": 2939, "\u0635\u062d\u0627\u0641": 2940, "\u0623\u0631\u0628\u0627\u062d": 2941, "\u0645\u062d\u0627\u0645": 2942, "\u0628\u0631\u064a\u0637\u0627\u0646\u064a\u0627": 2943, "2007": 2944, "\u0623\u0643\u0627\u062f\u064a\u0645\u064a": 2945, "\u062c\u062b": 2946, "\u0645\u0639\u0627\u064a": 2947, "##\u0641\u064a\u062f": 2948, "\u0641\u0631\u062f": 2949, "\u0637\u0648\u0644": 2950, "\u062e\u0637\u0648\u0637": 2951, "\u0623\u0633\u0644\u0648\u0628": 2952, "##\u0627\u0626\u0631\u064a": 2953, "\u0646\u0633\u062e": 2954, "\u0634\u062d": 2955, "\u0645\u0627\u064a\u0648": 2956, "##\u0634\u0631\u0641": 2957, "##\u0635\u064a\u0644": 2958, "##\u0627\u0647\u0646": 2959, "\u0645\u0648\u0627\u0635\u0644": 2960, "\u0645\u062e\u062a\u0635": 2961, "\u0633\u0642\u0648\u0637": 2962, "\u0635\u0631\u062d": 2963, "\u0645\u0646\u0627\u0632\u0644": 2964, "\u062a\u0631\u0643\u064a\u0632": 2965, "\u0644\u0627\u062d\u0642": 2966, "\u0645\u062d\u0628": 2967, "\u064a\u0648\u0646\u064a\u0648": 2968, "##\u0648\u064a\u062c": 2969, "\u062a\u0628\u0644\u063a": 2970, "\u0642\u0630": 2971, "\u0646\u0633\u062a": 2972, "##\u0631\u064a\u0633": 2973, "\u0641\u0628\u0631\u0627\u064a\u0631": 2974, "\u0645\u0631\u0627\u062d\u0644": 2975, "\u0645\u062e\u0627\u0637\u0631": 2976, "\u0631\u0642\u0627\u0628": 2977, "\u064a\u0635\u0628\u062d": 2978, "\u0645\u0648\u0627\u0631\u062f": 2979, "\u0645\u062a\u0645": 2980, "\u0632\u064a\u0646": 2981, "\u0645\u0639\u0627\u0645\u0644": 2982, "\u0639\u0642\u0644": 2983, "\u0637\u0627\u0626\u0641": 2984, "##\u0633\u064a\u0631": 2985, "\u0644\u0627\u062c\u0626": 2986, "##\u062c\u0628": 2987, "\u062a\u062e\u0635": 2988, "\u0642\u0627\u0636\u064a": 2989, "\u0645\u0648\u0644": 2990, "\u0646\u0627\u062c": 2991, "\u0637\u0627\u0644": 2992, "\u0633\u0627\u0626\u0642": 2993, "\u0644\u064a\u0628\u064a\u0627": 2994, "\u062a\u062a\u0639": 2995, "\u0623\u0648\u0644\u0645\u0628\u064a": 2996, "\u0639\u0645\u064a\u062f": 2997, "\u062a\u0644\u0641\u0632\u064a\u0648\u0646": 2998, "\u062c\u0628\u0644": 2999, "\u062a\u0635\u0631\u0641": 3000, "\u0631\u0641": 3001, "\u0627\u0626": 3002, "\u062a\u0635\u0648\u064a\u062a": 3003, "\u0645\u0639\u0631\u0643": 3004, "\u062a\u0628\u0631": 3005, "\u0646\u0648\u0641\u0645\u0628\u0631": 3006, "\u0628\u062d\u0631\u064a\u0646": 3007, "\u0623\u0631\u062f\u0646\u064a": 3008, "\u062a\u0643\u0644\u0641": 3009, "\u0648\u0631\u0634": 3010, "\u0627\u062e\u062a\u0628\u0627\u0631": 3011, "##\u0637\u0627\u0644": 3012, "\u0638\u0647\u0648\u0631": 3013, "##\u0633\u0648\u0646": 3014, "\u064a\u0644\u062a": 3015, "##\u0637\u0649": 3016, "\u062a\u0644\u0642\u0649": 3017, "\u0648\u0637\u0646\u0649": 3018, "\u062e\u064a\u0631\u064a": 3019, "\u0645\u0639\u0627\u064a\u064a\u0631": 3020, "45": 3021, "\u0623\u064a\u0646": 3022, "##\u0647\u0646": 3023, "##\u0627\u062e\u0631": 3024, "\u063a\u0631\u064a\u0628": 3025, "\u0623\u062c\u0648\u0627\u0621": 3026, "\u0628\u0634\u0631": 3027, "##\u0627\u0646\u0639": 3028, "\u062e\u0631\u064a": 3029, "##\u0648\u0642\u0641": 3030, "\u062e\u0637\u064a\u0631": 3031, "##\u0644\u064a\u0628": 3032, "\u0639\u0627\u062f\u064a": 3033, "2013": 3034, "\u0648\u0627\u0633": 3035, "\u0623\u0639\u062f": 3036, "\u0623\u0646\u0628\u0627\u0621": 3037, "\u0639\u0631\u0648\u0636": 3038, "\u064a\u0628\u062f\u0623": 3039, "\u064a\u0628\u0642\u0649": 3040, "\u0627\u0646\u062a\u0638\u0627\u0631": 3041, "##\u062a\u0635": 3042, "\u0643\u062b": 3043, "\u0648\u062b": 3044, "\u062e\u0644\u0642": 3045, "\u0623\u0647\u0627\u0644\u064a": 3046, "\u0646\u0639\u0645": 3047, "\u0627\u0634\u062a\u0628": 3048, "\u062c\u064a\u0644": 3049, "\u0645\u062e\u0635": 3050, "\u062a\u0628\u0642\u0649": 3051, "\u0646\u062c\u0648\u0645": 3052, "\u0627\u063a\u062a\u064a": 3053, "\u064a\u0648\u0644\u064a\u0648": 3054, "\u062c\u0632\u0627\u0626\u0631": 3055, "\u0632\u0645\u064a\u0644": 3056, "\u062c\u0631\u0627\u0626\u0645": 3057, "\u0647\u062c\u0631": 3058, "\u062a\u063a\u0637\u064a": 3059, "\u062a\u062e\u0644": 3060, "\u0633\u062d\u0628": 3061, "\u0623\u0641\u0644\u0627\u0645": 3062, "\u0643\u0641\u0627\u0621": 3063, "\u0627\u0645\u064a\u0631": 3064, "\u0630\u0643\u0631\u0649": 3065, "\u0642\u0631\u0649": 3066, "\u062a\u0642\u0631\u064a\u0628": 3067, "\u0623\u0644\u0627": 3068, "\u0642\u0648\u0627\u0639\u062f": 3069, "\u062a\u0627\u0633\u0639": 3070, "##\u0639\u064a\u0644": 3071, "\u0645\u0628\u0643\u0631": 3072, "##\u0628\u064a\u062f": 3073, "##\u0628\u0647": 3074, "\u062a\u0634\u062c\u064a": 3075, "\u0647\u0631": 3076, "\u0623\u0646\u0635\u0627\u0631": 3077, "\u0631\u0627\u062d": 3078, "\u0648\u0644\u062f": 3079, "\u0627\u0633\u062a\u062b\u0645\u0627\u0631\u064a": 3080, "\u0625\u0633\u0643\u0646\u062f\u0631\u064a": 3081, "\u062a\u0631\u0628\u0648\u064a": 3082, "\u0645\u0631\u0636\u0649": 3083, "\u062a\u0648\u0627\u062c\u0647": 3084, "\u062a\u0636\u0645\u0646": 3085, "\u0625\u0646\u0647\u0627\u0621": 3086, "\u062e\u0637\u0623": 3087, "##\u0627\u0637\u0626": 3088, "##\u0627\u0628\u0633": 3089, "\u0631\u0627\u0626\u062f": 3090, "\u0643\u062a\u0644": 3091, "\u0627\u0633\u062a\u0647\u0644": 3092, "\u0645\u0631\u0643\u0628": 3093, "\u0627\u0639\u0644\u0627\u0645": 3094, "\u0627\u0633\u062a\u0642\u0644\u0627\u0644": 3095, "\u0623\u0642\u064a\u0645": 3096, "##\u0627\u0635\u0641": 3097, "\u0628\u0646\u062a": 3098, "\u0634\u0639\u0648\u0628": 3099, "\u0639\u0643\u0633": 3100, "\u0636\u064a\u0641": 3101, "\u062c\u0648\u0631\u062c": 3102, "##\u0647\u0648\u0645": 3103, "\u0645\u0639\u0627\u0644\u064a": 3104, "\u062f\u0631\u0647\u0645": 3105, "##\u0632\u0627\u0621": 3106, "\u0627\u0633\u062a\u0637\u0627\u0639": 3107, "\u062a\u0641\u0639\u064a\u0644": 3108, "\u0627\u0646\u0633\u062d\u0627\u0628": 3109, "\u0627\u0633\u062a\u0631": 3110, "\u0623\u0645\u0631\u064a\u0643\u0627": 3111, "\u0627\u0639\u062a\u0642\u0627\u0644": 3112, "2005": 3113, "\u0644\u0627\u0626\u062d": 3114, "\u0645\u064a\u0632\u0627\u0646\u064a": 3115, "##\u0648\u0631\u0643": 3116, "\u0639\u0644\u0627\u0645": 3117, "\u0636\u062d\u0627\u064a\u0627": 3118, "##\u064a\u0645\u0627\u0646": 3119, "##\u0633\u0627\u0637": 3120, "\u0623\u062d\u0643\u0627\u0645": 3121, "\u0623\u0642\u0631": 3122, "\u0645\u0647\u0627\u0645": 3123, "\u0625\u0633\u062a": 3124, "\u0634\u064a\u0626": 3125, "\u0625\u0630\u0627\u0639": 3126, "\u0639\u062f\u0648": 3127, "##\u0627\u0628\u0644\u0633": 3128, "##\u063a\u0644\u0627\u0642": 3129, "##\u064a\u0639": 3130, "\u064a\u0636\u0645": 3131, "\u062a\u0643\u0631\u064a\u0645": 3132, "##\u0627\u0633\u0644": 3133, "\u062c\u0631\u064a\u062f": 3134, "\u0634\u0627\u0647\u062f": 3135, "##\u062a\u0627\u0632": 3136, "\u062a\u0642\u064a\u064a\u0645": 3137, "\u0623\u0628\u0631\u064a\u0644": 3138, "\u0632\u0627\u062f": 3139, "\u0622\u0633\u064a\u0648\u064a": 3140, "\u0645\u062e\u0635\u0635": 3141, "\u062d\u0627\u0636\u0631": 3142, "\u0627\u0642\u062a\u0631\u0627\u062d": 3143, "\u0633\u0643\u0631": 3144, "##\u062e\u064a\u0635": 3145, "\u0644\u0627\u0628\u062f": 3146, "\u0627\u063a\u062a\u064a\u0627\u0644": 3147, "\u0646\u0631": 3148, "\u0631\u0624\u0633\u0627\u0621": 3149, "\u0623\u062d\u0645\u0631": 3150, "\u0623\u0635\u062f": 3151, "\u062c\u0627\u0645\u0639\u064a": 3152, "\u0627\u0646\u0641\u062c\u0627\u0631": 3153, "\u0645\u0639\u0633\u0643\u0631": 3154, "\u0628\u062f\u064a\u0644": 3155, "##\u064a\u0632": 3156, "\u0623\u062e\u0644": 3157, "\u0627\u0633\u062a\u0642\u0628\u0644": 3158, "\u0643\u0646\u064a\u0633": 3159, "\u0634\u0645\u0633": 3160, "\u064a\u062a\u0631": 3161, "##\u062c\u0623": 3162, "\u0623\u0628\u062d": 3163, "\u062a\u0634\u062c\u064a\u0639": 3164, "\u0635\u064a\u0641": 3165, "\u0634\u0648": 3166, "\u0631\u0634\u064a\u062f": 3167, "\u062d\u0638": 3168, "\u0623\u0641\u0631\u064a\u0642\u064a\u0627": 3169, "\u0645\u062e\u064a\u0645": 3170, "\u062a\u0643\u0646\u0648\u0644\u0648\u062c\u064a\u0627": 3171, "##\u0633\u064a\u0645": 3172, "##\u064a\u0633\u064a": 3173, "\u0625\u0631\u0633\u0627\u0644": 3174, "\u062a\u0642\u0644\u064a\u062f\u064a": 3175, "\u0645\u062e\u0637\u0637": 3176, "\u0635\u0644\u0627": 3177, "\u0627\u0633\u062a\u0642\u0627\u0644": 3178, "\u0641\u0627\u0626\u0632": 3179, "\u0646\u0637\u0627\u0642": 3180, "##\u0639\u0627\u062f": 3181, "\u062a\u0648\u0627\u062c\u062f": 3182, "\u062a\u0641\u0631": 3183, "\u0623\u062d\u0631": 3184, "\u0634\u0628\u0647": 3185, "\u0645\u062d\u0627\u062f\u062b": 3186, "\u0646\u064a\u0644": 3187, "##\u0647\u0644\u0643": 3188, "\u062a\u0623\u0647\u064a\u0644": 3189, "\u062a\u062d\u062a\u0627\u062c": 3190, "\u0645\u062b\u0627\u0644": 3191, "\u0647\u0628": 3192, "\u062c\u0633\u0645": 3193, "\u0646\u062c\u062f": 3194, "##\u0641\u0649": 3195, "\u0623\u063a\u0646\u064a": 3196, "##\u064a\u0633\u0649": 3197, "\u0645\u0643\u0648\u0646": 3198, "##\u062c\u064a\u0628": 3199, "\u0646\u0627\u062e\u0628": 3200, "\u0633\u064a\u0645\u0627": 3201, "\u0623\u0641\u063a\u0627\u0646": 3202, "\u062a\u064a": 3203, "\u0648\u0642\u0648\u0641": 3204, "\u062a\u0639\u0648\u064a\u0636": 3205, "\u062a\u0634\u0631\u064a\u0646": 3206, "\u062a\u0644\u0642": 3207, "\u0622\u0633\u064a\u0627": 3208, "##\u062a\u0627\u0631": 3209, "\u0633\u0648\u064a\u0633": 3210, "##\u0634\u0626": 3211, "\u062a\u0628\u064a\u0646": 3212, "\u0625\u0636\u0627\u0641\u064a": 3213, "\u064a\u0644\u0639\u0628": 3214, "\u063a\u0627\u0644\u0628": 3215, "\u062f\u064a\u0648\u0627\u0646": 3216, "\u0623\u0638\u0647\u0631": 3217, "\u0645\u0633\u062a\u0634\u0641\u064a": 3218, "\u0645\u0637\u0644\u0639": 3219, "##\u0641\u0648\u0631": 3220, "\u062c\u0627\u0647": 3221, "\u0648\u062f": 3222, "##\u0648\u0638": 3223, "##\u0627\u0643\u0628": 3224, "\u0625\u062e\u0631\u0627\u062c": 3225, "\u0628\u0631\u0644\u0645\u0627\u0646\u064a": 3226, "\u0645\u0630\u0643\u0631": 3227, "\u062e\u0644\u064a\u0644": 3228, "\u0623\u0635\u0648\u0644": 3229, "\u0645\u0624\u0644\u0641": 3230, "\u0634\u0647\u064a\u062f": 3231, "\u062a\u0624\u0643\u062f": 3232, "\u064a\u0645\u0644\u0643": 3233, "\u062f\u0628": 3234, "\u0637\u0648": 3235, "32": 3236, "##\u0632\u064a\u0646": 3237, "\u062c\u0627\u0646": 3238, "##\u0643\u0630\u0627": 3239, "\u0646\u0647\u0636": 3240, "\u062a\u0634\u064a\u0631": 3241, "##\u0642\u064a\u0644": 3242, "\u0623\u062e\u0628\u0627\u0631": 3243, "##\u0637\u0639": 3244, "\u0645\u0638\u0627\u0647\u0631": 3245, "\u062a\u062e\u0637\u064a\u0637": 3246, "\u0639\u0636\u0648\u064a": 3247, "\u062c\u0645\u0644": 3248, "\u0623\u0628\u064a\u0636": 3249, "\u062f\u0645\u0627\u0645": 3250, "##\u0628\u0648\u0644": 3251, "\u062a\u0645\u062b": 3252, "\u0623\u0646\u062d\u0627\u0621": 3253, "\u0623\u0648\u0628\u0627\u0645\u0627": 3254, "\u062a\u0635\u0645\u064a\u0645": 3255, "\u0645\u0631\u0633\u0649": 3256, "\u0646\u0638\u064a\u0631": 3257, "\u0639\u0627\u062c": 3258, "\u0647\u0627\u062a\u0641": 3259, "\u0630\u0647\u0627\u0628": 3260, "##\u0648\u0627\u0645": 3261, "\u064a\u0632\u0627\u0644": 3262, "\u0641\u0646\u062f\u0642": 3263, "\u0645\u0647\u0646": 3264, "\u0645\u063a\u0631": 3265, "\u0628\u0642\u0627\u0621": 3266, "\u0645\u0642\u062a\u0631\u062d": 3267, "\u064a\u0642\u062a": 3268, "\u0639\u0645\u0627": 3269, "##\u0627\u0645\u062d": 3270, "\u0633\u0639\u064a": 3271, "\u0648\u0627\u0641\u0642": 3272, "\u0627\u0646\u062a\u0635\u0627\u0631": 3273, "\u0634\u0642": 3274, "\u0627\u062d\u062f": 3275, "\u062d\u0644\u0641": 3276, "\u062f\u0631\u0627\u0633\u064a": 3277, "##\u0641\u0627\u0621": 3278, "\u062a\u062c\u062f\u064a\u062f": 3279, "\u0645\u0631\u0645\u0649": 3280, "\u0648\u0631\u0642": 3281, "\u0625\u0642\u0644\u064a\u0645": 3282, "\u0639\u062c": 3283, "\u0633\u0644\u0645\u0627\u0646": 3284, "\u0645\u0642\u0627\u0637\u0639": 3285, "\u0644\u064a\u0631": 3286, "\u0645\u0641\u0647\u0648\u0645": 3287, "\u0645\u0631\u064a\u0636": 3288, "\u064a\u062c\u062f": 3289, "\u062a\u0634\u064a": 3290, "\u0634\u062f": 3291, "\u0634\u0647\u0631\u064a": 3292, "\u062a\u062c\u0627\u0631\u0628": 3293, "\u0633\u0645\u0627\u062d": 3294, "\u0635\u0644\u0627\u062d": 3295, "\u0643\u0648\u0631\u064a\u0627": 3296, "\u0647\u0643\u0630\u0627": 3297, "\u062e\u0633\u0627\u0626\u0631": 3298, "##\u0635\u0631\u064a": 3299, "\u062e\u0636": 3300, "\u0631\u0648\u064a\u062a\u0631": 3301, "\u0646\u0648\u0639\u064a": 3302, "\u064a\u062d\u0627\u0648\u0644": 3303, "\u062b\u0646\u0627\u0626\u064a": 3304, "\u062a\u0639\u0644\u0645": 3305, "\u0645\u0637\u0644\u0642": 3306, "\u0637\u0648\u0627\u0644": 3307, "\u062b\u0645\u0646": 3308, "##50": 3309, "\u062d\u0631\u0628\u064a": 3310, "\u0639\u0645\u0648\u0645\u064a": 3311, "\u0632\u0645\u0627\u0644": 3312, "\u0645\u0643\u0631\u0645": 3313, "##\u0633\u062a\u0627\u0646\u064a": 3314, "\u062c\u0632\u0627\u0626\u0631\u064a": 3315, "\u0627\u062b\u0631": 3316, "\u0623\u0631\u0642\u0627\u0645": 3317, "##\u062f\u064a\u0648": 3318, "\u062a\u0633\u0647\u064a\u0644": 3319, "\u0633\u0644\u0639": 3320, "\u0639\u062c\u0632": 3321, "\u0623\u0630": 3322, "\u0646\u064a\u0648\u064a": 3323, "\u0648\u0639\u064a": 3324, "\u0630\u0648\u064a": 3325, "\u0623\u0642\u0635\u0649": 3326, "\u062d\u064a\u0648\u064a": 3327, "70": 3328, "##\u0632\u0642": 3329, "\u062a\u0648\u0644\u064a": 3330, "\u0628\u0644\u0627\u063a": 3331, "\u0637\u0645\u0648\u062d": 3332, "\u0625\u062b\u0631": 3333, "\u062a\u0648\u0641\u0631": 3334, "\u0646\u0633\u0645": 3335, "\u064a\u0646\u0628": 3336, "\u0645\u062a\u062f": 3337, "\u0623\u0633\u0626\u0644": 3338, "\u0623\u062c\u0627\u0646\u0628": 3339, "\u0625\u063a\u0644\u0627\u0642": 3340, "\u0631\u0633\u0648\u0645": 3341, "\u0627\u062d\u062a\u0645\u0627\u0644": 3342, "\u064a\u0648\u0627\u062c\u0647": 3343, "\u0645\u0642\u0627\u062a\u0644": 3344, "\u0627\u0633\u062a\u063a\u0644\u0627\u0644": 3345, "\u062c\u0648\u0627\u0646": 3346, "\u0634\u0647\u062f\u0627\u0621": 3347, "\u062a\u0635\u0641\u064a": 3348, "\u0625\u0645\u0627\u0631\u0627\u062a\u064a": 3349, "\u0648\u062b\u064a\u0642": 3350, "\u0646\u0646": 3351, "##\u0632\u0646": 3352, "\u0641\u062a\u0627": 3353, "\u0646\u064a\u0648\u064a\u0648\u0631\u0643": 3354, "\u0632\u0645\u0644": 3355, "\u0639\u0627\u0637": 3356, "\u0634\u0645\u0644": 3357, "\u0623\u0628\u062d\u0627\u062b": 3358, "\u064a\u0633\u062a\u062e\u062f\u0645": 3359, "\u062e\u0644\u0641\u064a": 3360, "\u0628\u0648\u0631\u0635": 3361, "\u062f\u0627\u0639\u064a": 3362, "\u062c\u062f\u062f": 3363, "\u0644\u0630\u0627": 3364, "\u062d\u062f\u0648\u062b": 3365, "\u0636\u0641": 3366, "\u063a\u0627\u0644": 3367, "\u0636\u0631\u0648\u0631\u064a": 3368, "\u062a\u062f\u0631\u064a\u0628\u064a": 3369, "##\u0633\u062a\u0631\u0627\u0644\u064a": 3370, "\u0630\u0647\u0628\u064a": 3371, "\u0646\u062f": 3372, "\u064a\u0633\u0639\u0649": 3373, "\u062c\u062f\u064a": 3374, "\u062a\u0648\u0633\u0639": 3375, "\u0623\u0644\u0642": 3376, "\u064a\u0639\u062a\u0642\u062f": 3377, "80": 3378, "##\u0645\u0648\u0646": 3379, "\u0641\u0643\u0631\u064a": 3380, "\u062a\u0642\u0639": 3381, "\u0639\u0645\u0627\u062f": 3382, "\u0645\u0632\u0627\u0631\u0639": 3383, "\u0645\u063a\u0631\u0628\u064a": 3384, "##\u0648\u064a\u062f": 3385, "\u0646\u0642\u0635": 3386, "\u064a\u0642\u0644": 3387, "\u062a\u0633\u0639\u0649": 3388, "\u062a\u0648\u062c\u062f": 3389, "##\u0632\u0627": 3390, "\u062a\u0632\u0627\u0644": 3391, "\u0648\u0642\u0648\u0639": 3392, "\u0645\u062d\u062a\u0631\u0641": 3393, "\u0648\u062f\u064a": 3394, "\u0643\u0644\u0627": 3395, "\u0645\u0644\u0627\u0628\u0633": 3396, "\u0631\u0628\u064a\u0639": 3397, "\u064a\u0627\u0628\u0627\u0646\u064a": 3398, "##\u0645\u0627\u0626\u064a": 3399, "\u0646\u064a\u0627\u0628\u064a": 3400, "\u0627\u0645\u0631": 3401, "\u0639\u0627\u0634": 3402, "\u062e\u0627\u0644": 3403, "##\u0637\u0645": 3404, "##\u0634\u064a\u062d": 3405, "##\u0627\u062f\u0626": 3406, "##er": 3407, "\u0633\u0627\u0645\u064a": 3408, "\u0633\u062f": 3409, "##\u0646\u0627\u0621": 3410, "\u062a\u0645\u064a\u0632": 3411, "\u062a\u0641\u062c\u064a\u0631": 3412, "\u062a\u0636\u0627\u0645\u0646": 3413, "##\u0633\u0643\u0648": 3414, "\u0625\u0632\u0627\u0644": 3415, "##\u0647\u0631\u0627\u0646": 3416, "\u0648\u0638\u0627\u0626\u0641": 3417, "\u0623\u0633\u0641\u0631": 3418, "\u062a\u062c\u0647\u064a": 3419, "\u0645\u0647\u0627\u0631": 3420, "\u064a\u062d\u0642\u0642": 3421, "##\u0648\u063a": 3422, "\u062d\u0628\u064a\u0628": 3423, "\u0642\u0631\u0622\u0646": 3424, "\u0645\u0628\u0627\u0644\u063a": 3425, "\u062a\u0647\u062f\u0641": 3426, "\u0645\u0646\u0638": 3427, "\u0631\u0627\u0626\u0639": 3428, "\u0627\u062e\u062a\u0644\u0627\u0641": 3429, "\u062a\u062c\u0647\u064a\u0632": 3430, "\u062d\u0631\u0633": 3431, "##\u062a\u0644\u0641": 3432, "\u0641\u0646\u0648\u0646": 3433, "\u0627\u0633\u062a\u0639\u0627\u062f": 3434, "##\u0646\u064a\u0627": 3435, "\u0641\u0627\u0626\u062f": 3436, "\u0643\u0648\u0645": 3437, "\u0642\u0637\u0631\u064a": 3438, "\u0623\u0641\u063a\u0627\u0646\u0633\u062a\u0627\u0646": 3439, "##\u0634\u0627\u0644": 3440, "\u0632\u0645\u0627\u0644\u0643": 3441, "##\u0647\u0627\u0628": 3442, "\u0648\u0638\u064a\u0641": 3443, "\u0623\u0648\u0644\u0648\u064a": 3444, "\u0636\u063a\u0648\u0637": 3445, "\u062a\u0623\u0647\u0644": 3446, "##\u0627\u0628\u064a\u0639": 3447, "\u0645\u062f\u0627\u0641\u0639": 3448, "\u062a\u0631\u0634\u064a\u062d": 3449, "##\u063a\u0631\u0627\u0641\u064a": 3450, "\u0646\u0642\u0627\u0634": 3451, "\u0627\u0631\u062a\u0628": 3452, "\u0628\u0633\u064a\u0637": 3453, "\u0623\u0639\u0648\u0627\u0645": 3454, "\u0625\u0633\u0645\u0627\u0639": 3455, "\u062b\u0631\u0648": 3456, "\u0623\u0628\u0637\u0627\u0644": 3457, "\u062d\u0648\u0627\u062f\u062b": 3458, "\u0639\u0638\u064a\u0645": 3459, "\u0623\u0633\u062a\u0631\u0627\u0644\u064a": 3460, "\u0645\u0631\u062a\u0628\u0637": 3461, "\u0631\u0648\u064a\u062a\u0631\u0632": 3462, "\u062a\u0638\u0647\u0631": 3463, "\u0645\u0627\u0632\u0627\u0644": 3464, "\u0645\u0646\u0627\u062e": 3465, "\u0631\u0635\u062f": 3466, "\u0633\u0648\u0621": 3467, "\u0643\u0631\u0627\u0645": 3468, "\u0627\u062a\u062e\u0630": 3469, "\u0643\u0627\u0641\u064a": 3470, "\u062a\u0623\u0643\u062f": 3471, "\u0637\u0631\u0627\u0628\u0644\u0633": 3472, "\u064a\u0627\u0628\u0627\u0646": 3473, "\u063a\u0636\u0628": 3474, "\u0623\u0633\u0633": 3475, "\u0635\u0627\u0644": 3476, "\u0641\u0636\u0627\u0626\u064a": 3477, "\u0648\u0636": 3478, "##\u0631\u064a\u0643": 3479, "\u0622\u0646": 3480, "\u0645\u0646\u062a\u0635\u0641": 3481, "\u0631\u0628\u0637": 3482, "##\u0639\u064a\u062f": 3483, "\u0639\u0627\u0626\u062f": 3484, "##\u0633\u0637\u0633": 3485, "\u0628\u0648\u062a": 3486, "\u062a\u0642\u0627\u0645": 3487, "\u0625\u0633\u0645\u0627\u0639\u064a\u0644": 3488, "\u062a\u0631\u0649": 3489, "\u062b\u0627\u0628\u062a": 3490, "\u0627\u0639\u062a\u0631\u0627\u0641": 3491, "\u0634\u0648\u0631\u0649": 3492, "\u064a\u062d\u064a": 3493, "\u0622\u064a": 3494, "\u0632\u0645": 3495, "\u0622\u0630\u0627\u0631": 3496, "\u062a\u062d\u0644\u064a\u0644": 3497, "\u0625\u0642\u0631\u0627\u0631": 3498, "\u064a\u0638\u0647\u0631": 3499, "\u0645\u0644\u0627\u062d\u0638": 3500, "\u0625\u062d\u0635": 3501, "\u0634\u0627\u0631": 3502, "\u0635\u0646\u0639": 3503, "##\u0644\u0644": 3504, "\u0642\u0635\u0641": 3505, "##\u0628\u0627\u0644": 3506, "\u0644\u0648\u0646": 3507, "\u062c\u0631\u062d": 3508, "\u062a\u0635\u062f\u0631": 3509, "\u0623\u063a\u0633\u0637\u0633": 3510, "\u062c\u0648\u0627\u0626\u0632": 3511, "\u0643\u0647\u0631\u0628\u0627\u0626\u064a": 3512, "\u062c\u062f\u0648\u0644": 3513, "\u0633\u0627\u0647\u0645": 3514, "\u0623\u0634\u0643\u0627\u0644": 3515, "\u0633\u0647\u0644": 3516, "\u0628\u062b": 3517, "\u062a\u062d\u0636": 3518, "\u0639\u064a\u0633\u0649": 3519, "\u0631\u062d\u0645\u0646": 3520, "\u062d\u0645\u064a\u062f": 3521, "\u0625\u0636\u0631": 3522, "\u0645\u0635\u0631\u0641\u064a": 3523, "\u0625\u0641\u0631": 3524, "\u0628\u0631\u0627\u0632\u064a": 3525, "\u0645\u0633\u062a\u0647\u0644\u0643": 3526, "\u062a\u062c\u0631\u064a": 3527, "\u0633\u0645\u064a\u0631": 3528, "\u0645\u064a\u0631": 3529, "\u0645\u062a\u0633": 3530, "\u0645\u062d\u062a": 3531, "\u0623\u062d\u062f\u062b": 3532, "\u0628\u0631\u062a": 3533, "\u062a\u0648\u0627\u0641\u0642": 3534, "\u0633\u064a\u0627\u062f": 3535, "\u0625\u064a\u0645\u0627\u0646": 3536, "\u0645\u062d\u062f\u0648\u062f": 3537, "\u0635\u062f\u0648\u0631": 3538, "\u0627\u062e\u062a\u0631": 3539, "\u0645\u062a\u0641": 3540, "##\u0627\u064a\u0644": 3541, "\u0639\u0627\u0634\u0631": 3542, "##\u0627\u0641\u062f": 3543, "\u0636\u0648": 3544, "\u0623\u062f\u0646\u0649": 3545, "\u0645\u0633\u0627\u0641": 3546, "\u0645\u062a\u0643": 3547, "\u062a\u062f\u0645": 3548, "\u062a\u0639\u0631\u064a\u0641": 3549, "\u0633\u064a\u0646\u0645\u0627": 3550, "\u0648\u0627\u0633\u0637": 3551, "\u0648\u0627\u0631\u062f": 3552, "142": 3553, "##\u0641\u0632": 3554, "\u0645\u0633\u062c\u0644": 3555, "\u0637\u0627\u0626": 3556, "\u0627\u0646\u062a\u0642\u0644": 3557, "\u062d\u0631\u0627\u0631": 3558, "\u0645\u0634\u0647\u062f": 3559, "\u064a\u0637\u0627\u0644\u0628": 3560, "##\u0648\u0627\u0644\u0649": 3561, "\u0634\u062a": 3562, "\u0645\u062a\u0628": 3563, "\u0634\u0631\u0627\u0643": 3564, "##\u0634\u0649": 3565, "##\u0627\u0632\u0645": 3566, "\u0628\u0631\u0627\u0632\u064a\u0644\u064a": 3567, "\u062c\u0631\u0627\u062d": 3568, "\u0632\u0627\u064a\u062f": 3569, "\u0645\u0624\u0642\u062a": 3570, "##\u0627\u0636\u0649": 3571, "\u062a\u0631\u064a\u062f": 3572, "\u0627\u0633\u062a\u0643\u0645\u0627\u0644": 3573, "\u0623\u062d\u064a\u0627\u0621": 3574, "\u0639\u0633\u0643\u0631": 3575, "\u0645\u0639\u062a\u0642\u0644": 3576, "##\u0627\u0624\u0644": 3577, "\u0636\u062e\u0645": 3578, "\u0643\u0627\u0646\u0648\u0646": 3579, "\u0645\u0648\u062c\u0628": 3580, "\u0627\u0646\u0636\u0645\u0627\u0645": 3581, "\u0637\u0648\u0627\u0631": 3582, "##\u062a\u064a\u0644": 3583, "\u0628\u064a\u0626\u064a": 3584, "90": 3585, "\u0639\u0645\u0627\u0646": 3586, "\u062c\u0627\u0628\u0631": 3587, "\u064a\u0631\u062a": 3588, "\u0632\u0644": 3589, "\u0639\u0642\u064a\u062f": 3590, "\u064a\u062a\u062d\u062f\u062b": 3591, "\u062b\u0644": 3592, "\u0645\u0634\u0627\u0639\u0631": 3593, "\u062a\u0639\u0627\u0642\u062f": 3594, "##\u0628\u0649": 3595, "\u0645\u0644\u062a\u0642\u0649": 3596, "\u0645\u0635\u0646\u0639": 3597, "\u0627\u062a\u0647\u0645": 3598, "\u0645\u0628\u0627\u062f\u0626": 3599, "\u0630\u0649": 3600, "\u0648\u0639\u062f": 3601, "\u0645\u062a\u0632": 3602, "\u062a\u0631\u062c\u0645": 3603, "\u062a\u0641\u062a\u064a": 3604, "##\u0637\u0628": 3605, "\u0639\u0645\u0631\u0648": 3606, "\u0645\u0633\u0627": 3607, "\u0635\u0648\u0627\u0631\u064a\u062e": 3608, "\u062d\u0644\u0645": 3609, "\u0625\u0628\u062f\u0627\u0639": 3610, "\u062a\u0641\u0643\u064a\u0631": 3611, "\u0636\u0628\u0627\u0637": 3612, "\u0634\u0626": 3613, "\u0645\u0631\u062a\u0641\u0639": 3614, "\u064a\u0646\u062a\u0638\u0631": 3615, "\u0643\u0648\u0644": 3616, "\u0641\u0631\u064a\u062f": 3617, "\u064a\u062f\u062e\u0644": 3618, "\u0623\u063a\u0644\u0628": 3619, "\u0645\u0628\u062f": 3620, "\u062a\u0635\u0628\u062d": 3621, "\u0631\u0627\u0647\u0646": 3622, "\u0623\u0633\u0627\u0628\u064a\u0639": 3623, "\u0639\u062a\u064a": 3624, "\u0623\u0642\u0627\u0645": 3625, "\u0623\u0628\u0646\u0627\u0626": 3626, "\u0648\u0647\u0649": 3627, "\u0645\u0628\u062f\u0623": 3628, "\u0627\u0634\u062a\u0628\u0627\u0643": 3629, "\u0639\u0648\u0627\u0645\u0644": 3630, "\u0644\u0639\u0644": 3631, "##\u0642\u0627\u0637": 3632, "\u064a\u0636\u0639": 3633, "\u0642\u0636\u0627": 3634, "36": 3635, "\u0639\u0645\u0644\u0627\u0621": 3636, "\u0645\u0646\u0634\u0622\u062a": 3637, "\u064a\u062a\u0648\u0642\u0639": 3638, "\u0633\u0628\u0644": 3639, "\u0645\u0639\u0627\u0647\u062f": 3640, "\u0641\u062c\u0631": 3641, "\u062f\u0647": 3642, "2014": 3643, "2004": 3644, "\u062b\u0627\u0646\u0649": 3645, "\u063a\u0627\u0628": 3646, "\u064a\u0633\u0645\u062d": 3647, "\u0633\u0646\u064a": 3648, "\u0633\u0644\u0648\u0643": 3649, "\u0645\u0635\u064a\u0631": 3650, "##\u0639\u062f\u0627\u0645": 3651, "\u062a\u0623\u062c\u064a\u0644": 3652, "\u0645\u0639\u062a\u0628\u0631": 3653, "##\u062a\u0641\u064a": 3654, "##\u0631\u064a\u0646": 3655, "\u0645\u062d\u062a\u0644": 3656, "\u0645\u0643\u0627\u062a\u0628": 3657, "\u0642\u0646\u0648": 3658, "\u062c\u0645\u0627\u0639\u064a": 3659, "\u062a\u0648\u062a\u0631": 3660, "\u062d\u0636\u0627\u0631": 3661, "##\u0645\u0627\u0646\u064a": 3662, "\u062a\u0627\u0645": 3663, "\u0623\u062b\u0627\u0631": 3664, "\u062a\u0645\u062b\u064a\u0644": 3665, "\u062e\u0637\u0648\u0631": 3666, "\u062a\u0648\u0641\u064a\u0642": 3667, "\u062a\u062a\u0646": 3668, "\u0635\u064a\u0627\u0646": 3669, "\u0645\u0634\u062f\u062f": 3670, "33": 3671, "\u062a\u0627\u064a": 3672, "\u0645\u0646\u0645\u0646": 3673, "\u0646\u0638\u0631\u064a": 3674, "\u0646\u0628\u064a": 3675, "\u062a\u0648\u0635\u064a": 3676, "\u062c\u0631\u0627\u0621": 3677, "\u0637\u0648\u0627\u0631\u0626": 3678, "\u0637\u0627\u0626\u0641\u064a": 3679, "\u062d\u0627\u0645\u0644": 3680, "194": 3681, "\u0643\u0631\u064a": 3682, "\u0641\u0646\u0649": 3683, "\u0645\u062a\u0646\u0648\u0639": 3684, "\u064a\u062f\u0641\u0639": 3685, "\u062f\u0648\u0644\u0649": 3686, "##\u0642\u0627\u0626": 3687, "##\u062a\u0645\u0646\u0649": 3688, "\u0646\u0627\u062a\u062c": 3689, "\u0647\u0634": 3690, "\u0635\u0644\u0627\u062d\u064a": 3691, "\u0637\u0647\u0631\u0627\u0646": 3692, "##\u0648\u0633\u064a": 3693, "\u0646\u0632\u0627\u0639": 3694, "\u062a\u0641\u0648\u0642": 3695, "\u0645\u0648\u062c\u0647": 3696, "\u0646\u0645\u0648\u0630\u062c": 3697, "\u0627\u0631\u0628": 3698, "##\u0627\u0639\u0645": 3699, "\u063a\u0644": 3700, "\u0628\u0627\u0642\u064a": 3701, "\u0630\u0627\u062a\u064a": 3702, "\u0639\u0641": 3703, "\u062e\u062a\u0627\u0645": 3704, "\u0646\u0641\u0630": 3705, "\u0639\u0648\u0646": 3706, "\u062e\u0641\u0636": 3707, "\u0627\u0633\u062a\u0626\u0646": 3708, "\u0635\u0647\u064a": 3709, "\u0631\u0641\u064a\u0642": 3710, "\u0628\u0627\u0631\u0632": 3711, "\u0641\u064a\u062f\u064a\u0648": 3712, "\u0633\u0644\u0645\u064a": 3713, "\u0625\u0631\u0627\u062f": 3714, "\u0643\u0627\u0645\u064a\u0631": 3715, "\u062a\u062e\u0631\u062c": 3716, "##\u062d\u0627\u0645": 3717, "\u064a\u0642\u0639": 3718, "\u0646\u062e": 3719, "\u0645\u0628\u064a\u0639": 3720, "##\u0645\u064a\u0642": 3721, "\u0639\u062f\u0648\u0627\u0646": 3722, "\u0623\u062d\u0648\u0627\u0644": 3723, "\u062a\u0633\u062a\u0645\u0631": 3724, "\u0623\u0628\u0648\u0627\u0628": 3725, "\u0645\u062d\u0627\u0633\u0628": 3726, "\u062a\u0648\u0638": 3727, "\u062a\u0631\u0643\u064a\u0628": 3728, "\u0643\u0644\u0641": 3729, "\u062a\u0644\u0642\u064a": 3730, "\u0648\u0627\u062c\u0647": 3731, "\u0628\u0637\u0631": 3732, "\u0627\u0643\u062a\u0634\u0627\u0641": 3733, "\u062a\u0648\u0631\u0633": 3734, "\u0637\u0639\u0627\u0645": 3735, "##\u0647\u0648\u062f": 3736, "\u0639\u0637": 3737, "\u062a\u062c\u062f": 3738, "\u0628\u0631\u064a\u062f": 3739, "\u0645\u0624\u0647\u0644": 3740, "\u0645\u0635\u0631\u0641": 3741, "\u062a\u0648\u0638\u064a\u0641": 3742, "##\u0628\u0639\u0627\u062f": 3743, "\u0627\u0645\u0631\u0623": 3744, "500": 3745, "\u0645\u062f\u0631\u064a\u062f": 3746, "\u0627\u0646\u0642\u0644": 3747, "##\u0627\u0647\u0648": 3748, "##\u062d\u064a\u0644": 3749, "\u064a\u0628\u062d\u062b": 3750, "\u0623\u062f\u0628\u064a": 3751, "\u062a\u062a\u0636\u0645\u0646": 3752, "\u062a\u0635\u0646\u064a\u0641": 3753, "##\u0627\u0645\u0628": 3754, "\u0634\u0639\u0648\u0631": 3755, "\u062a\u0645\u064a": 3756, "\u0632\u0647\u0631": 3757, "##\u0643\u0631\u0631": 3758, "\u0647\u0627\u062f": 3759, "##\u0641\u064a\u0636": 3760, "\u0645\u062c\u062f\u062f": 3761, "\u0623\u0634\u0627\u062f": 3762, "\u0645\u0646\u062f": 3763, "\u062c\u0646\u062f\u064a": 3764, "##\u0647\u0627\u062f": 3765, "\u0627\u0628\u062a\u062f": 3766, "##\u0635\u0627\u0645": 3767, "\u0625\u0646\u062c\u0644\u064a\u0632\u064a": 3768, "\u062a\u0634\u0631\u064a\u0639\u064a": 3769, "\u0645\u0642\u0627\u0645": 3770, "\u0641\u0639\u0644\u064a": 3771, "\u0623\u062e\u0637\u0627\u0621": 3772, "##\u062a\u064a\u0646\u064a": 3773, "\u062a\u0646\u0645": 3774, "##\u0632\u0631": 3775, "\u0645\u062a\u0627\u062d": 3776, "\u0628\u0630\u0644": 3777, "\u064a\u0633\u062a\u0645\u0631": 3778, "\u0627\u062e\u062a\u0635": 3779, "\u0646\u0642\u062f\u064a": 3780, "\u062d\u062f\u064a\u062f": 3781, "\u062d\u0648\u0627\u0644\u0649": 3782, "\u062d\u0644\u0628": 3783, "\u0625\u0645\u0627\u0645": 3784, "##\u064a\u0646\u0627": 3785, "\u0646\u0633\u0627\u0626\u064a": 3786, "\u0642\u064a\u0627\u0633\u064a": 3787, "\u0623\u0639\u062f\u0627\u062f": 3788, "\u0633\u0631\u0637\u0627\u0646": 3789, "\u0648\u0632\u0646": 3790, "\u0623\u0633\u0637": 3791, "\u0645\u062f\u0627\u0631": 3792, "\u0633\u0642\u0637": 3793, "\u0641\u062d\u0635": 3794, "\u064a\u0642\u0648\u062f": 3795, "\u0633\u0643\u0646": 3796, "\u064a\u0634\u0647\u062f": 3797, "##\u0631\u0643\u0632": 3798, "##\u0641\u062a\u0627\u0621": 3799, "\u0623\u064a\u0636": 3800, "\u062a\u0633\u0644\u0645": 3801, "\u0628\u062a\u0631\u0648\u0644": 3802, "\u0645\u0639\u0627\u0646\u0627": 3803, "\u062d\u0643\u0627\u0645": 3804, "\u062a\u0639\u0627\u0644\u0649": 3805, "\u0642\u0628\u064a\u0644": 3806, "\u0625\u0636\u0631\u0627\u0628": 3807, "\u062a\u0633\u064a": 3808, "##\u0646\u0641": 3809, "\u0641\u062a": 3810, "\u0639\u0628\u064a\u062f": 3811, "\u0627\u0633\u062a\u0636\u0627\u0641": 3812, "\u0639\u0645\u0648\u0645": 3813, "\u064a\u062a\u0636\u0645\u0646": 3814, "\u0633\u064a\u0641": 3815, "\u0635\u0627\u062f\u0642": 3816, "\u0641\u0627\u0639\u0644": 3817, "\u064a\u062d\u062a": 3818, "##\u0627\u062e\u0644": 3819, "\u0628\u0634\u0627\u0631": 3820, "\u0643\u0648\u0631": 3821, "\u0639\u064a\u0634": 3822, "\u0623\u0642\u0631\u0628": 3823, "\u0623\u0647\u0644\u0649": 3824, "\u0645\u0646\u062a\u062f\u0649": 3825, "\u0623\u062f\u064a": 3826, "##\u0648\u0627\u0646\u064a": 3827, "\u0625\u0639\u0637\u0627\u0621": 3828, "\u0628\u0631\u0643": 3829, "\u0645\u062e\u0644": 3830, "\u0623\u062f\u0648\u064a": 3831, "\u062a\u0633\u0648\u064a\u0642": 3832, "\u062a\u0633\u062a\u062e\u062f\u0645": 3833, "\u062e\u0633\u0631": 3834, "\u0623\u0631\u0633\u0644": 3835, "195": 3836, "\u0627\u062a\u062d\u0627\u062f\u064a": 3837, "##\u062a\u064a\u062d": 3838, "\u0627\u0643": 3839, "##\u0628\u0627\u062a": 3840, "\u0639\u0645\u0627\u0631": 3841, "\u063a\u0627\u0644\u0628\u064a": 3842, "##\u0648\u0637\u0646": 3843, "\u0645\u0642\u0639\u062f": 3844, "\u0645\u062c\u0627\u0648\u0631": 3845, "##\u062d\u0631": 3846, "\u064a\u0647\u0648\u062f": 3847, "\u0631\u0633\u0627\u0626\u0644": 3848, "\u0645\u0642\u062f\u0633": 3849, "\u0645\u062d\u0627\u0645\u064a": 3850, "\u0627\u062e\u062a\u0635\u0627\u0635": 3851, "##\u062a\u0646\u0627": 3852, "\u0646\u0647\u0631": 3853, "\u0634\u0647\u064a\u0631": 3854, "\u0623\u064a\u062f\u064a": 3855, "\u0627\u0645\u062a\u062d": 3856, "\u062a\u0639\u064a\u0634": 3857, "##\u0627\u0644\u064a\u062f": 3858, "\u0645\u0648\u062d\u062f": 3859, "34": 3860, "\u0639\u0631\u0628\u0649": 3861, "\u0628\u0627\u0628\u0627": 3862, "\u0627\u0633\u062a\u0626\u0646\u0627\u0641": 3863, "\u062d\u0638\u0631": 3864, "\u0627\u0633\u062a\u064a": 3865, "\u062c\u0648\u0627\u0646\u0628": 3866, "\u062a\u0645\u0644\u0643": 3867, "\u0643\u064a\u0627\u0646": 3868, "\u0645\u0631\u0633": 3869, "\u0632\u0627\u0631": 3870, "\u0623\u0642\u0648\u0644": 3871, "\u0632\u0648\u0627\u0631": 3872, "\u0645\u064a\u0646\u0627\u0621": 3873, "42": 3874, "\u0631\u0633\u0648\u0644": 3875, "\u0645\u0631\u0628\u0639": 3876, "\u062d\u0645\u0648\u062f": 3877, "##\u062f\u0631\u0633": 3878, "\u0645\u0630\u0643\u0648\u0631": 3879, "##\u0648\u0643\u064a": 3880, "\u062f\u064a\u0631": 3881, "\u064a\u0634\u064a\u0631": 3882, "\u0623\u062f\u0628": 3883, "\u0645\u0639\u0646": 3884, "\u062d\u064a\u0648\u0627\u0646": 3885, "\u0623\u0644\u0628": 3886, "\u0637\u0627\u0631\u0642": 3887, "\u064a\u0633\u0627\u0639\u062f": 3888, "\u0645\u062a\u0634": 3889, "\u064a\u0639\u0627\u0646\u064a": 3890, "\u062f\u0627\u0639\u0634": 3891, "\u0645\u0645\u062a\u0627\u0632": 3892, "##\u062f\u0648\u0646": 3893, "\u062a\u0648\u0639\u064a": 3894, "\u0623\u0633\u0641": 3895, "##\u064a\u064a\u062f": 3896, "##\u0627\u0644\u064a\u0628": 3897, "\u0627\u0632\u062f": 3898, "\u0627\u0633\u062a\u062f": 3899, "\u062a\u0648\u0627\u0644\u064a": 3900, "##\u062e\u064a\u0631": 3901, "\u0641\u0627\u0631\u0633": 3902, "\u062f\u0639\u0648\u0649": 3903, "##\u0627\u0648\u0649": 3904, "\u062d\u0627\u062f": 3905, "\u0636\u0627\u0628\u0637": 3906, "\u0635\u0647\u064a\u0648\u0646\u064a": 3907, "\u0641\u062e": 3908, "\u0634\u0627\u0634": 3909, "##\u0632\u0632": 3910, "300": 3911, "\u0633\u0646\u062f": 3912, "\u0645\u0627\u0631\u0643": 3913, "##\u062a\u0631\u064a": 3914, "\u064a\u0639\u0631\u0636": 3915, "\u062c\u0627\u062f": 3916, "\u0623\u0636\u0631": 3917, "\u062f\u0642\u0627\u0626\u0642": 3918, "\u0645\u062c\u0647\u0648\u0644": 3919, "\u0637\u064a": 3920, "\u0647\u0632\u064a\u0645": 3921, "##\u0627\u0641\u0630": 3922, "\u062a\u0642\u0644": 3923, "\u0627\u0645\u062a\u062d\u0627\u0646": 3924, "48": 3925, "\u0645\u0646\u0627\u0647": 3926, "\u0643\u062b\u0631": 3927, "\u0646\u0627\u062c\u062d": 3928, "\u062a\u062a\u0639\u0644\u0642": 3929, "75": 3930, "\u0637\u0631\u062f": 3931, "\u0646\u0636": 3932, "\u064a\u0646\u0628\u063a\u064a": 3933, "\u0631\u0636\u0627": 3934, "\u0645\u062a\u0637\u0644\u0628": 3935, "##\u0647\u064a\u062f": 3936, "\u0627\u0639\u062a\u0635\u0627\u0645": 3937, "\u062d\u0631\u064a\u0642": 3938, "\u0646\u0633\u064a": 3939, "\u0646\u0641\u0642": 3940, "\u062a\u062e\u0635\u064a\u0635": 3941, "\u062a\u0643\u0648\u064a\u0646": 3942, "\u0633\u0627\u0631": 3943, "\u0646\u0628\u064a\u0644": 3944, "\u062d\u0646": 3945, "\u0647\u0646\u062f\u064a": 3946, "\u0633\u064a\u0627\u0633\u0649": 3947, "##\u062b\u0642": 3948, "\u0622\u0645\u0646": 3949, "\u0631\u0635\u0627\u0635": 3950, "##\u0639\u0648\u062f": 3951, "\u062a\u0644\u0628\u064a": 3952, "\u0641\u0624": 3953, "\u062c\u0648\u0627\u0631": 3954, "\u0644\u062c": 3955, "\u064a\u0636": 3956, "\u0628\u0627\u0643\u0633\u062a\u0627\u0646": 3957, "\u0642\u0627\u0628\u0644": 3958, "\u0627\u0646\u062a\u0642": 3959, "\u062a\u0631\u062a": 3960, "\u062a\u0646\u0638\u0645": 3961, "\u0623\u062e\u0636\u0631": 3962, "\u063a\u0627\u0631": 3963, "\u0645\u0633\u0627\u0646\u062f": 3964, "\u0625\u063a": 3965, "\u0625\u0630\u0646": 3966, "\u062a\u0634\u0627\u0631\u0643": 3967, "\u062a\u0632\u064a\u062f": 3968, "\u062d\u062f\u062f": 3969, "\u063a\u0627\u0645": 3970, "##\u0630\u0628": 3971, "##\u064a\u0644\u0648\u0644": 3972, "\u0627\u0646\u062a\u0642\u0627\u062f": 3973, "\u0623\u0631\u0627\u062f": 3974, "\u0627\u0633\u062a\u062e\u062f\u0645": 3975, "##on": 3976, "\u0625\u062c\u0627\u0632": 3977, "##\u0627\u062c\u0623": 3978, "##\u0635\u0645": 3979, "\u0628\u0631\u0645\u064a\u0644": 3980, "##\u062a\u064a\u0631": 3981, "\u062d\u0641\u0631": 3982, "\u0623\u062f\u0648": 3983, "\u064a\u0647\u062f\u0641": 3984, "\u0631\u062d\u064a\u0644": 3985, "\u0633\u064a\u0646\u0627\u0621": 3986, "\u0627\u0633\u062a\u062b\u0646\u0627\u0621": 3987, "\u0647\u064a\u0643\u0644": 3988, "\u0627\u0633\u062a\u062c\u0627\u0628": 3989, "\u0623\u0644\u0642\u0649": 3990, "\u0633\u0648\u062f\u0627\u0646\u064a": 3991, "##\u0627\u0647\u0628": 3992, "\u062a\u0641\u062a\u064a\u0634": 3993, "\u0627\u0637\u0644\u0627\u0642": 3994, "\u0646\u0627\u062f\u0631": 3995, "\u0646\u0631\u064a\u062f": 3996, "2003": 3997, "\u0627\u0646\u0642": 3998, "\u0645\u0627\u062c\u062f": 3999, "\u0645\u0627\u0644\u0643": 4000, "\u0634\u0626\u0648\u0646": 4001, "\u0634\u0627\u0631\u0642": 4002, "\u0645\u0633\u062a\u0642\u0628": 4003, "\u0641\u0636\u0627\u0621": 4004, "##\u0637\u064a\u0641": 4005, "37": 4006, "\u0644\u0627\u0633\u064a": 4007, "\u0642\u0648\u0645": 4008, "\u064a\u0647\u0648\u062f\u064a": 4009, "\u064a\u0639\u062a\u0645\u062f": 4010, "\u064a\u0639\u0642\u062f": 4011, "\u0633\u064a\u0626": 4012, "\u064a\u062d\u062f": 4013, "\u0645\u0648\u0633\u064a\u0642\u0649": 4014, "\u0641\u0624\u0627\u062f": 4015, "\u0648\u0642\u0648\u062f": 4016, "\u0645\u0633\u062a\u0648\u0637\u0646": 4017, "\u0644\u0627\u0633\u064a\u0645\u0627": 4018, "##\u0632\u0627\u0646": 4019, "\u0645\u0648\u0627\u0632\u0646": 4020, "##\u0636\u064a\u062d": 4021, "\u0633\u0627\u0645": 4022, "\u0627\u0644\u062a\u0642\u0649": 4023, "\u0634\u0631\u064a\u0643": 4024, "\u0645\u062d\u062a\u0645\u0644": 4025, "38": 4026, "\u0627\u0639\u062f\u0627\u062f": 4027, "\u0645\u062b\u0642\u0641": 4028, "\u062d\u0645\u0631": 4029, "\u0645\u064a\u062f\u0627\u0646\u064a": 4030, "\u0643\u0631\u0645": 4031, "\u0630\u0627\u0643\u0631": 4032, "\u0645\u0639\u0631": 4033, "\u062f\u0648\u0627\u0626\u0631": 4034, "\u064a\u0634\u0639\u0631": 4035, "\u0628\u064a\u062f": 4036, "\u0628\u062d\u0648\u062b": 4037, "\u0645\u0633\u062a\u0642\u0628\u0644\u064a": 4038, "\u0645\u0648\u0633\u0643\u0648": 4039, "\u0623\u0641\u0631\u064a\u0642\u064a": 4040, "\u062b\u0645\u0629": 4041, "\u062a\u0646\u0642\u0644": 4042, "\u062c\u0646\u0627\u0626\u064a": 4043, "\u0627\u0633\u062a\u0641\u062a\u0627\u0621": 4044, "\u0632\u064a\u062f": 4045, "\u0627\u0639\u0644\u0646": 4046, "\u0628\u0627\u0642": 4047, "\u0648\u0633\u064a\u0644": 4048, "\u063a\u0646\u064a": 4049, "##\u0631\u0639": 4050, "\u0627\u0645\u062a": 4051, "\u0646\u0627\u0634\u0637": 4052, "##\u0627\u0636\u0639": 4053, "\u0639\u0644\u0627": 4054, "\u062a\u0644\u064a\u0641": 4055, "\u0639\u0646\u0635\u0631": 4056, "\u062a\u062d\u0636\u064a\u0631": 4057, "\u0623\u0628\u0644\u063a": 4058, "\u062a\u062d\u0643\u0645": 4059, "##\u062b\u0641": 4060, "##\u0627\u0636\u0644": 4061, "##\u0648\u0641\u064a": 4062, "\u0639\u0627\u0626": 4063, "\u0627\u0633\u062a\u0637\u0644\u0627\u0639": 4064, "\u0641\u062a\u064a": 4065, "##\u0631\u0627\u0644": 4066, "\u0645\u0648\u0631": 4067, "\u0623\u0631\u0636\u064a": 4068, "\u0642\u064a\u0627\u062f\u064a": 4069, "\u0643\u064a\u0644\u0648": 4070, "##\u0633\u064a\u0639": 4071, "##\u0644\u0628\u064a": 4072, "\u0627\u0646\u062a\u062d": 4073, "##\u0634\u0644\u0648\u0646": 4074, "\u0635\u062f\u0627\u0645": 4075, "\u0635\u0627\u0631\u0648\u062e": 4076, "\u0623\u0631\u062c\u0646": 4077, "\u0645\u0633\u062a\u062d\u0642": 4078, "\u062d\u0633\u0645": 4079, "##\u063a\u0627\u0631": 4080, "##\u0627\u0642\u0644": 4081, "\u0628\u0631\u0634\u0644\u0648\u0646": 4082, "\u0623\u0633\u0627\u0645": 4083, "\u0623\u0633\u0627\u0644\u064a\u0628": 4084, "##\u0627\u0628\u0647": 4085, "\u064a\u0639\u0644\u0645": 4086, "##\u062e\u0641\u0636": 4087, "\u0635\u062f\u062f": 4088, "\u0639\u0646\u0627\u064a": 4089, "\u062a\u0644\u0641\u0632\u064a\u0648\u0646\u064a": 4090, "\u0627\u0646\u062a\u0647\u0627\u0643": 4091, "\u0634\u063a\u0644": 4092, "\u0641\u0648\u0636": 4093, "##\u0627\u062d\u0646": 4094, "##\u0633\u062a\u064a": 4095, "\u064a\u062f\u0639\u0648": 4096, "\u0645\u062d\u0648\u0631": 4097, "\u0623\u0648\u0644\u0627\u062f": 4098, "\u0641\u0631\u062f\u064a": 4099, "##in": 4100, "\u062c\u062f\u0644": 4101, "\u062a\u062e\u0641\u064a\u0636": 4102, "##\u0627\u0639\u0641": 4103, "\u0645\u062a\u0643\u0627\u0645\u0644": 4104, "\u0631\u0627\u062d\u0644": 4105, "##\u0647\u0648": 4106, "\u0641\u0639\u0627\u0644": 4107, "\u0645\u062d\u0633\u0646": 4108, "\u0646\u0627\u0634\u0626": 4109, "\u062c\u0646\u0631\u0627\u0644": 4110, "\u062a\u0641\u0627\u0639\u0644": 4111, "\u0625\u064a\u0642\u0627\u0641": 4112, "\u062a\u0648\u0633\u064a\u0639": 4113, "##\u062e\u0627\u0644": 4114, "\u062a\u0623\u064a\u064a\u062f": 4115, "\u0623\u0639\u062a\u0642\u062f": 4116, "\u0627\u0633\u062a\u062d": 4117, "\u062f\u0646\u064a\u0627": 4118, "\u0646\u0627\u0631\u064a": 4119, "##\u0638\u0649": 4120, "\u0623\u0631\u0643": 4121, "\u062c\u0633\u062f": 4122, "\u0642\u062d": 4123, "\u0645\u062c\u0627\u0644\u0633": 4124, "##\u0627\u0642\u0635": 4125, "\u0642\u0631\u0648\u0636": 4126, "\u0648\u0627\u0635\u0644": 4127, "\u0627\u0646\u0637\u0644\u0642": 4128, "\u0645\u0643\u0644\u0641": 4129, "\u0627\u0628\u062a\u062f\u0627\u0626\u064a": 4130, "##\u0627\u0631\u064a\u0648": 4131, "\u062a\u0645\u0631": 4132, "\u0646\u0641\u0637\u064a": 4133, "##\u0628\u0633": 4134, "\u064a\u0644\u064a": 4135, "\u0623\u0633\u0648\u062f": 4136, "\u062e\u0648\u0636": 4137, "##\u0634\u0627\u062f": 4138, "\u0633\u0627\u062d\u0644": 4139, "\u0627\u0633\u062a\u0647\u0644\u0627\u0643": 4140, "\u0631\u0628\u062d": 4141, "\u0628\u0643\u0631": 4142, "\u0645\u0642\u0627\u0648\u0644": 4143, "\u0634\u0639\u0631\u064a": 4144, "##\u0648\u062a\u0631": 4145, "\u0628\u0627\u0631\u0627\u0643": 4146, "\u0642\u0637\u0627\u0631": 4147, "\u064a\u062a\u0623": 4148, "\u0627\u0639\u062a\u0631\u0641": 4149, "\u062a\u062f\u0645\u064a\u0631": 4150, "\u0646\u0638\u064a\u0641": 4151, "##\u0648\u0645\u062a\u0631": 4152, "\u0643\u0627\u0628": 4153, "\u0646\u0648\u0645": 4154, "\u062a\u0633\u0627\u0639\u062f": 4155, "\u064a\u0641\u0631": 4156, "\u0645\u062a\u0641\u0631": 4157, "\u0642\u0635\u064a\u062f": 4158, "\u062c\u0632\u0627\u0621": 4159, "\u0645\u0631\u0648\u0631\u064a": 4160, "\u0635\u062f\u0627\u0631": 4161, "\u062a\u0630\u0643\u0631": 4162, "\u0627\u0637\u0644\u0627\u0639": 4163, "\u0645\u062b\u064a\u0631": 4164, "\u0627\u0633\u062a\u062d\u0642": 4165, "\u064a\u062a\u0645\u0643\u0646": 4166, "\u062d\u0635\u0627\u0631": 4167, "\u062f\u0631\u0633": 4168, "\u0645\u0645\u0627\u062b\u0644": 4169, "\u0639\u064a\u0648\u0646": 4170, "\u0633\u0641\u064a\u0646": 4171, "\u0645\u0639\u062a\u0645\u062f": 4172, "\u0639\u062b\u0645\u0627\u0646": 4173, "\u062d\u0627\u0631": 4174, "\u062a\u062c\u0639\u0644": 4175, "\u0633\u064a\u0646\u0645\u0627\u0626\u064a": 4176, "\u062e\u0631\u064a\u062c": 4177, "\u0627\u0634\u062a": 4178, "\u0627\u0636\u0637\u0631\u0627\u0628": 4179, "##\u0627\u062f\u064a\u0642": 4180, "\u062a\u0648\u0642\u064a\u062a": 4181, "\u0642\u064a\u0627\u0633": 4182, "\u0647\u0627\u0626\u0644": 4183, "\u0645\u0646\u0638\u0648\u0645": 4184, "\u0646\u0627\u0637\u0642": 4185, "\u0635\u0646\u0627\u062f\u064a\u0642": 4186, "\u0635\u0639\u0648\u062f": 4187, "\u062a\u0633\u062a\u0637\u064a\u0639": 4188, "##\u062a\u0631\u0627\u0648\u062d": 4189, "\u062a\u0624\u062f\u064a": 4190, "\u0628\u064a\u0648\u062a": 4191, "##\u0634\u0645": 4192, "\u0633\u064a\u0648\u0644": 4193, "##\u062c\u0627\u0639": 4194, "\u0627\u0633\u062a\u0647\u062f\u0641": 4195, "\u062a\u0639\u062a\u0645\u062f": 4196, "\u062a\u0648\u0641\u064a": 4197, "##\u064a\u0627": 4198, "\u0628\u0646\u062f": 4199, "\u0646\u0627\u064a\u0641": 4200, "\u0623\u0635\u0644\u064a": 4201, "\u0623\u062b\u0628\u062a": 4202, "\u062a\u0634\u0631\u064a\u0639": 4203, "\u062e\u0628\u064a\u0631": 4204, "\u0641\u0635": 4205, "\u0641\u064a\u0631\u0648\u0633": 4206, "##\u064a\u0645\u064a": 4207, "\u0643\u0645\u0627\u0644": 4208, "\u0627\u0633\u062a\u062e\u0628": 4209, "\u0625\u062c\u0627\u0628": 4210, "\u062a\u062d\u062a\u064a": 4211, "##\u0643\u0627\u0628": 4212, "\u062c\u062f\u0627\u0631": 4213, "\u062d\u0631\u0627\u0633": 4214, "\u0627\u0633\u062a\u0628\u062f": 4215, "\u0639\u0646\u0632\u064a": 4216, "##\u0632\u0627\u0632": 4217, "\u0627\u0646\u0647\u064a": 4218, "##\u062a\u0632\u0645": 4219, "\u0633\u0647\u0648\u0644": 4220, "\u0623\u0634\u064a\u0627\u0621": 4221, "\u0643\u0627": 4222, "\u064a\u0642\u0641": 4223, "\u062d\u0627\u0641\u0638": 4224, "\u0646\u062e\u0628": 4225, "\u0645\u0639\u0646\u0648\u064a": 4226, "\u0639\u0632\u0644": 4227, "\u0623\u0636\u0631\u0627\u0631": 4228, "\u062a\u0631\u0641\u064a": 4229, "\u062a\u062e\u0641\u064a\u0641": 4230, "\u0644\u062c\u0648\u0621": 4231, "\u0623\u0645\u064a\u0631\u0643\u0627": 4232, "\u0645\u063a\u0627\u062f\u0631": 4233, "\u062d\u0627\u0635\u0644": 4234, "\u064a\u062e\u0631\u062c": 4235, "\u0643\u064a\u0644\u0648\u0645\u062a\u0631": 4236, "\u062c\u062f\u064a\u0631": 4237, "\u064a\u0634\u0645\u0644": 4238, "\u0641\u062a\u0646": 4239, "\u0634\u0631\u062d": 4240, "\u0642\u064a\u062f": 4241, "65": 4242, "##\u0627\u0644\u064a\u0641": 4243, "\u062a\u0648\u0627\u0632\u0646": 4244, "\u0643\u064a\u0645\u064a": 4245, "\u0628\u0631\u062c": 4246, "\u0648\u062b\u0627\u0626\u0642": 4247, "\u0635\u0648\u0645": 4248, "\u0643\u0633\u0631": 4249, "\u0632\u0639\u0645": 4250, "\u0627\u062a\u0641\u0642": 4251, "\u0647\u0648\u0627\u0621": 4252, "\u064a\u062a\u0637\u0644\u0628": 4253, "\u0644\u0627\u064a": 4254, "##\u0633\u0627\u0633": 4255, "\u064a\u0644\u062a\u0642\u064a": 4256, "\u0643\u0641\u0631": 4257, "\u0622\u0631\u0627\u0621": 4258, "##\u0636\u0631\u0631": 4259, "\u0645\u0648\u0646\u062f\u064a": 4260, "\u0631\u0627\u0645": 4261, "\u0639\u0633\u0643\u0631\u0649": 4262, "##\u0643\u064a\u0645": 4263, "44": 4264, "##\u0648\u0627\u062c\u062f": 4265, "\u0627\u0646\u0647\u064a\u0627\u0631": 4266, "\u0625\u0644\u0647": 4267, "\u0623\u0632\u0647\u0631": 4268, "\u0635\u0644\u0649": 4269, "\u064a\u062a\u0639\u0631\u0636": 4270, "\u0627\u062e\u062a\u0627\u0631": 4271, "\u064a\u0637\u0644\u0628": 4272, "\u0625\u0642\u0628\u0627\u0644": 4273, "##\u0646\u0627\u0639": 4274, "\u064a\u0639\u0644\u0646": 4275, "\u0645\u0635\u0627\u0631\u0641": 4276, "\u0646\u064a\u0633": 4277, "##an": 4278, "##\u062a\u0631\u0645": 4279, "\u0623\u064a\u0645\u0646": 4280, "\u064a\u0637\u0644\u0642": 4281, "##\u0645\u062d": 4282, "\u062e\u064a\u0645": 4283, "##\u0644\u0633\u064a": 4284, "\u0636\u062d\u064a": 4285, "\u062e\u0634": 4286, "\u0645\u0637\u0631\u0648\u062d": 4287, "\u062f\u0648\u0633": 4288, "\u0645\u0646\u0648\u0631": 4289, "\u064a\u0637\u0631": 4290, "\u0627\u0631\u0628\u0639\u0627\u0621": 4291, "##\u0627\u062a\u0641": 4292, "\u0645\u062a\u0637\u0631\u0641": 4293, "\u0625\u0641\u0631\u0627\u062c": 4294, "\u062a\u0635\u062f\u064a\u0631": 4295, "\u062a\u0641\u0627\u0647\u0645": 4296, "\u062d\u062c\u0631": 4297, "\u0638\u0644\u0645": 4298, "\u0642\u0627\u062f\u0633\u064a": 4299, "\u062d\u0636\u0627\u0631\u064a": 4300, "\u064a\u062d\u064a\u0649": 4301, "\u0623\u0635\u062f\u0642\u0627\u0621": 4302, "\u0647\u0627\u062a\u0641\u064a": 4303, "\u064a\u0631\u0641\u0636": 4304, "\u064a\u062a\u0645\u062a\u0639": 4305, "\u0645\u0624\u064a\u062f": 4306, "\u0645\u0636\u0627\u062f": 4307, "\u0627\u0644\u064a": 4308, "2015": 4309, "\u0623\u063a\u0644\u0628\u064a": 4310, "\u062d\u0627\u0641\u0644": 4311, "##\u0627\u0644\u0643": 4312, "\u0648\u0644\u0627\u062f": 4313, "\u0648\u0627\u062f\u064a": 4314, "##\u0627\u0648\u0641": 4315, "##\u0631\u064a\u062a": 4316, "\u0634\u0631\u064a\u0639": 4317, "\u0642\u0644\u0648\u0628": 4318, "\u0647\u0646\u062f\u0633": 4319, "\u0639\u0645\u064a\u0642": 4320, "##\u0648\u062c\u0647": 4321, "\u0625\u0644\u0642": 4322, "\u0634\u0631\u0628": 4323, "\u0641\u0627\u0637": 4324, "\u064a\u0636\u064a\u0641": 4325, "##\u0642\u062f\u0627\u0645": 4326, "\u062a\u0635\u0648\u0631": 4327, "\u0623\u062d\u0633\u0627\u0621": 4328, "\u0645\u0642\u062a": 4329, "\u0623\u0631\u0643\u0627\u0646": 4330, "\u0628\u0631\u0627\u0632": 4331, "\u062a\u0628\u0631\u0639": 4332, "\u062a\u0639\u0647\u062f": 4333, "\u0644\u0633": 4334, "\u0646\u0641\u0649": 4335, "\u0646\u0642\u064a\u0628": 4336, "##\u0627\u062a\u0630": 4337, "##\u062a\u0628\u0647": 4338, "\u0645\u0648\u0646\u062f\u064a\u0627\u0644": 4339, "\u0639\u0648\u0636": 4340, "\u062a\u062f\u0631\u064a\u0633": 4341, "\u0646\u0631\u0649": 4342, "\u064a\u0627\u0633\u0631": 4343, "\u0647\u0628\u0648\u0637": 4344, "\u0642\u0627\u0628": 4345, "\u0631\u064a\u0641": 4346, "\u063a\u0631\u0636": 4347, "\u0637\u0641": 4348, "\u0645\u062e\u0627\u0648\u0641": 4349, "\u0628\u0627\u0644": 4350, "\u0645\u0648\u0627\u0635\u0641": 4351, "\u062c\u063a\u0631\u0627\u0641\u064a": 4352, "\u0634\u062d\u0646": 4353, "\u0623\u0636": 4354, "\u0631\u0627\u064a": 4355, "\u0623\u0644\u0648\u0627\u0646": 4356, "\u0645\u0648\u0633\u064a\u0642\u064a": 4357, "\u0641\u0631\u0627\u0646\u0633": 4358, "\u0625\u062d\u0627\u0644": 4359, "\u0633\u062c\u0648\u0646": 4360, "\u0628\u0643": 4361, "\u0645\u0631\u0633\u0648\u0645": 4362, "\u0645\u062a\u062d\u0641": 4363, "\u062c\u0631\u0648\u062d": 4364, "\u062f\u0644": 4365, "\u0643\u0644\u0645\u0627": 4366, "\u0639\u0627\u062c\u0644": 4367, "\u0623\u064a\u0644\u0648\u0644": 4368, "\u062a\u0643\u0627\u0644\u064a\u0641": 4369, "\u062e\u0627\u0646": 4370, "\u0646\u0647\u0627\u0631": 4371, "##\u0639\u0627\u0644": 4372, "##\u062a\u0628\u0639": 4373, "\u062a\u0643\u062a": 4374, "\u0635\u062f\u0642": 4375, "\u0627\u0646\u0642\u0644\u0627\u0628": 4376, "\u062a\u0646\u0645\u0648\u064a": 4377, "\u0627\u0626\u062a\u0644\u0627\u0641": 4378, "\u0623\u0633\u0627\u062a\u0630": 4379, "\u062a\u062c\u0646\u0628": 4380, "\u062a\u0631\u062f\u062f": 4381, "\u0627\u0633\u062a\u0639\u0645\u0627\u0644": 4382, "\u0645\u062a\u0648\u0627\u0635\u0644": 4383, "\u0645\u062d\u0636\u0631": 4384, "\u062a\u0645\u0627": 4385, "\u062e\u0646": 4386, "\u0623\u0648\u0643\u0631": 4387, "\u0635\u064a\u063a": 4388, "\u062a\u0646\u062a\u0647\u064a": 4389, "\u0645\u0627\u0633": 4390, "\u0625\u062f\u062e\u0627\u0644": 4391, "\u062a\u0644\u0627": 4392, "\u0639\u0645\u0642": 4393, "\u0633\u062e": 4394, "\u0627\u0631\u062a\u0628\u0627\u0637": 4395, "\u0641\u0631\u0648\u0639": 4396, "\u0645\u0642\u0628\u0648\u0644": 4397, "\u0639\u0637\u0627\u0621": 4398, "\u0645\u0631\u062c": 4399, "\u0632\u0645\u0646\u064a": 4400, "\u064a\u0645\u0631": 4401, "\u0627\u0646\u062a\u0645": 4402, "\u0648\u0641\u0627\u0621": 4403, "\u0627\u0644\u0625": 4404, "\u0628\u064a\u0636\u0627\u0621": 4405, "\u0645\u064a\u0644\u0627\u062f": 4406, "\u0645\u064a\u0634\u0627\u0644": 4407, "\u0627\u0639\u062a\u0645\u062f": 4408, "\u062c\u0627\u0647\u0632": 4409, "\u0645\u0647\u0627\u062c\u0631": 4410, "55": 4411, "\u0642\u062a\u0644\u0649": 4412, "\u0625\u0633\u0631\u0627\u0626\u064a\u0644\u0649": 4413, "\u062a\u062a\u0648": 4414, "\u0623\u0642\u062f\u0645": 4415, "150": 4416, "\u062f\u064a\u0648\u0646": 4417, "\u0647\u0627\u0645\u0634": 4418, "##\u0627\u0639\u0649": 4419, "##\u0645\u0632": 4420, "\u0642\u062d\u0637\u0627\u0646\u064a": 4421, "\u0636\u0639\u064a": 4422, "\u0625\u062e\u0644": 4423, "\u0645\u0628\u0631\u0631": 4424, "\u0623\u0647\u0627\u0644\u0649": 4425, "\u062e\u062f": 4426, "\u0623\u0646\u0637": 4427, "\u062f\u0648\u0645": 4428, "\u063a\u0627\u0644\u064a": 4429, "\u0645\u0633\u0628": 4430, "##\u0648\u0646\u0649": 4431, "\u062a\u0623\u062e\u0631": 4432, "\u0648\u064a": 4433, "\u0633\u0645\u064a": 4434, "\u0623\u0642\u0648\u0649": 4435, "\u0623\u0643\u0645\u0644": 4436, "\u062a\u0631\u0634\u062d": 4437, "\u062a\u063a\u0644\u0628": 4438, "##\u062f\u0627\u0628": 4439, "\u062c\u0633": 4440, "##\u0648\u0627\u062d": 4441, "\u064a\u0646\u0635": 4442, "\u0645\u062a\u0649": 4443, "##\u0635\u062f\u0631": 4444, "\u0641\u0648\u0636\u0649": 4445, "\u062d\u0628\u0633": 4446, "##\u0627\u0646\u0645": 4447, "\u062a\u0639\u0644": 4448, "##\u062d\u0645": 4449, "\u062d\u0634\u062f": 4450, "##\u0642\u062f\u0631": 4451, "\u062a\u0642\u0648\u064a": 4452, "\u064a\u0633\u0645\u0649": 4453, "\u0623\u062d\u0628": 4454, "\u0645\u062d\u0627\u0631\u0628": 4455, "\u062a\u0639\u0628": 4456, "\u0633\u0648\u064a\u062f\u064a": 4457, "##\u0644\u064a\u0633": 4458, "\u062c\u0646\u0627\u062d": 4459, "\u0645\u0639\u064a\u0634": 4460, "\u062c\u0647\u0627\u062f": 4461, "\u0646\u0623": 4462, "\u064a\u0630": 4463, "\u0639\u062b\u0631": 4464, "\u0643\u0633\u0628": 4465, "\u0630\u064a": 4466, "\u0647\u062f\u0648\u0621": 4467, "\u0627\u0644\u0644\u0630": 4468, "2002": 4469, "\u062b\u0644\u0627\u062b\u064a": 4470, "##\u0648\u0627\u0626\u064a": 4471, "\u062a\u0641\u0633\u064a\u0631": 4472, "\u062a\u062d\u0633\u0646": 4473, "\u062a\u0636\u0639": 4474, "\u0625\u0645\u0627": 4475, "\u062a\u0637\u0631\u0642": 4476, "##\u062f\u0631\u062c": 4477, "\u0627\u0646\u062a\u0647\u0649": 4478, "46": 4479, "\u0634\u0645\u0631\u064a": 4480, "\u062a\u0648\u062d\u064a\u062f": 4481, "\u0645\u062d\u0644\u0644": 4482, "41": 4483, "\u062d\u062c\u0627\u062c": 4484, "##\u0627\u062f\u0646": 4485, "##\u0633\u0627\u0628": 4486, "\u0645\u0633\u062a\u0639": 4487, "\u0622\u0628": 4488, "\u0623\u0645\u0631\u064a\u0643\u0649": 4489, "\u0628\u0627\u0643\u0633\u062a\u0627\u0646\u064a": 4490, "##\u0633\u0641": 4491, "\u0639\u062a\u064a\u0628\u064a": 4492, "\u0625\u0646\u0643": 4493, "\u062a\u0646\u0648\u0639": 4494, "\u062a\u0645\u0633\u0643": 4495, "\u063a\u0631\u0627\u0645": 4496, "\u064a\u0635\u062f\u0631": 4497, "\u062d\u0627\u0645": 4498, "\u0648\u0636\u0648\u062d": 4499, "\u062e\u0636\u0631": 4500, "43": 4501, "##20": 4502, "\u062a\u062d\u0643\u064a\u0645": 4503, "\u0636\u0639\u064a\u0641": 4504, "\u0628\u0631\u0627\u0632\u064a\u0644": 4505, "##\u0628\u064a\u062a": 4506, "\u0627\u0634\u062a\u0631\u0627\u0643": 4507, "\u0623\u062f\u0644": 4508, "\u0645\u0635\u0627\u0646\u0639": 4509, "##\u0642\u0627\u062a": 4510, "\u0639\u0638\u0645": 4511, "\u0637\u0627\u0644\u0645\u0627": 4512, "##\u0627\u0641\u0649": 4513, "##\u0627\u063a\u0628": 4514, "\u0625\u062f\u0631": 4515, "\u0625\u0633\u0645": 4516, "\u064a\u062a\u062c\u0627\u0648\u0632": 4517, "\u064a\u0623\u062e\u0630": 4518, "\u0645\u0633\u0628\u0642": 4519, "\u0645\u0646\u062f\u0648\u0628": 4520, "\u0625\u0639\u062f\u0627\u0645": 4521, "##\u0628\u0639\u062f": 4522, "\u0628\u0648\u0627\u0628": 4523, "\u0641\u0627\u0637\u0645": 4524, "\u0645\u062a\u0642": 4525, "\u0635\u064a\u062f\u0627": 4526, "39": 4527, "##\u0627\u0637\u0641": 4528, "\u0645\u064a\u0633": 4529, "\u0634\u0627\u0645": 4530, "\u064a\u0645\u0646\u0639": 4531, "\u0623\u0628\u062f\u0649": 4532, "\u0625\u0644\u0642\u0627\u0621": 4533, "\u0645\u062f\u0631\u0633\u064a": 4534, "\u062a\u0646\u0635": 4535, "\u0623\u0634\u0631\u0641": 4536, "\u0648\u0632\u0627\u0631\u064a": 4537, "2016": 4538, "\u0644\u064a\u0641": 4539, "\u062a\u0643\u0631\u0627\u0631": 4540, "##\u0627\u0637\u0628": 4541, "\u0627\u0633\u062a\u062d\u0642\u0627\u0642": 4542, "2017": 4543, "\u0645\u0648\u0627\u0636\u064a": 4544, "\u0646\u0639\u064a": 4545, "\u062a\u0645\u0648\u0632": 4546, "\u062f\u064a\u0641": 4547, "\u064a\u0645\u064a\u0646": 4548, "##\u0628\u064a\u0648\u062a\u0631": 4549, "\u062d\u0627\u062f\u064a": 4550, "\u0646\u0633\u0628\u064a": 4551, "\u062c\u064a\u0632": 4552, "\u0645\u0648\u0627\u0636\u064a\u0639": 4553, "##or": 4554, "\u0639\u0645\u0631\u064a": 4555, "##\u062f\u0642": 4556, "\u062a\u0645\u064a\u064a\u0632": 4557, "\u0642\u062a\u064a\u0644": 4558, "\u062e\u0644\u0627\u064a\u0627": 4559, "\u063a\u0627\u062f\u0631": 4560, "\u0647\u0634\u0627\u0645": 4561, "##\u064a\u062f\u0631": 4562, "\u0645\u062f\u0631\u062c": 4563, "\u0623\u062c\u0631\u064a": 4564, "##\u0639\u0627\u0641": 4565, "\u0623\u0646\u0646\u064a": 4566, "##\u0648\u0642\u064a": 4567, "\u0625\u064a\u0637\u0627\u0644\u064a\u0627": 4568, "\u0636\u064a\u0642": 4569, "\u0637\u0627\u0628\u0639": 4570, "\u0645\u0643\u062b\u0641": 4571, "##\u0635\u0631\u0627\u0631": 4572, "\u062a\u0639\u0627\u0646\u064a": 4573, "\u0628\u0637\u0627\u0644": 4574, "\u0627\u0639\u062a\u0631\u0627\u0636": 4575, "\u0645\u0637\u064a\u0631\u064a": 4576, "\u062c\u0627\u0633\u0645": 4577, "\u0643\u0648\u0643": 4578, "\u0639\u0635\u0627\u0645": 4579, "\u0636\u0631\u0627\u0626\u0628": 4580, "\u064a\u0641\u062a": 4581, "\u062a\u0634\u0643\u064a": 4582, "\u0630\u0631": 4583, "\u0645\u0642\u0627\u0639\u062f": 4584, "\u0641\u0627\u062a": 4585, "\u0645\u062b\u0627\u0628": 4586, "\u0645\u0639\u0627\u0635\u0631": 4587, "\u062d\u0632\u064a\u0631\u0627\u0646": 4588, "\u0645\u062a\u0645\u0631": 4589, "\u0623\u0642\u0633\u0627\u0645": 4590, "\u0641\u0646\u0627\u062f\u0642": 4591, "\u0627\u0646\u062e\u0641\u0636": 4592, "##en": 4593, "##\u063a\u0648": 4594, "\u0639\u0627\u0632": 4595, "##\u062a\u064a\u0627\u0632": 4596, "##\u0630\u064a\u0628": 4597, "\u0628\u0631\u0633": 4598, "\u0631\u0648\u0627\u062a\u0628": 4599, "\u062a\u0633\u0645\u062d": 4600, "\u0623\u0648\u0642\u0627\u062a": 4601, "\u064a\u062a\u0648": 4602, "\u0627\u0639\u062a\u0642\u0644": 4603, "\u0634\u0631\u064a\u0637": 4604, "\u062f\u0648\u062d": 4605, "##\u0627\u0642\u0636": 4606, "\u062a\u0642\u062f\u0631": 4607, "400": 4608, "##\u063a\u0627\u0644\u064a": 4609, "\u0623\u062e\u0644\u0627\u0642\u064a": 4610, "\u0637\u0639\u0646": 4611, "##\u0647\u0631\u064a": 4612, "\u062c\u0633\u0631": 4613, "\u0627\u0631\u062a\u0643\u0627\u0628": 4614, "##\u0645\u0627\u0648\u064a": 4615, "\u0635\u0645\u062a": 4616, "\u064a\u0639\u0637\u064a": 4617, "\u0625\u062d\u0631": 4618, "00": 4619, "\u0627\u0634\u062a\u0631\u0627\u0643\u064a": 4620, "\u0645\u0636\u0645\u0648\u0646": 4621, "\u062d\u062b": 4622, "##\u0631\u0623": 4623, "\u062c\u0639": 4624, "\u062a\u0633\u0645\u064a": 4625, "\u0637\u0627\u0631": 4626, "\u062f\u0648\u0631\u0649": 4627, "\u0625\u0633\u0628\u0627\u0646\u064a\u0627": 4628, "\u062c\u0646\u0633": 4629, "\u0623\u062d\u0644\u0627\u0645": 4630, "\u0645\u0633\u062a\u0639\u062f": 4631, "\u0627\u0646\u062a\u0642\u062f": 4632, "\u0646\u0647\u062c": 4633, "\u0625\u064a\u0631\u0627\u062f": 4634, "\u0631\u062d\u0628": 4635, "\u0627\u0646\u062f\u0644": 4636, "\u0631\u0648\u0633": 4637, "\u0627\u0639\u062a\u0642\u062f": 4638, "\u0627\u062c\u0631\u0627\u0621": 4639, "\u0642\u0628\u0633": 4640, "\u062a\u0628\u0646\u064a": 4641, "\u062a\u062e\u0644\u0635": 4642, "\u062a\u062d\u064a": 4643, "\u062f\u0631\u0627\u062c": 4644, "\u0627\u0641\u062a\u062a\u062d": 4645, "2001": 4646, "\u0645\u0628\u0627\u0646\u064a": 4647, "\u0639\u0637\u0644": 4648, "\u0642\u062a\u0627\u0644": 4649, "\u0645\u0627\u0646\u0634": 4650, "\u062d\u0631\u0648\u0628": 4651, "\u0646\u064a\u0633\u0627\u0646": 4652, "\u062d\u0627\u0626\u0644": 4653, "\u0645\u0639\u0628\u0631": 4654, "\u064a\u0643\u062a\u0628": 4655, "\u064a\u062d\u062f\u062f": 4656, "\u0642\u0627\u0633\u0645": 4657, "\u0645\u0631\u0627\u0633\u0644": 4658, "\u0625\u0646\u0643\u0644\u064a\u0632\u064a": 4659, "\u0628\u0646\u0649": 4660, "\u062a\u0642\u0633\u064a\u0645": 4661, "\u062f\u0645\u0627\u0621": 4662, "\u0639\u0646\u064a\u0641": 4663, "\u0645\u062e\u0627\u0628\u0631": 4664, "47": 4665, "##\u062c\u0627\u0632": 4666, "\u0646\u0642\u0648\u0644": 4667, "\u0641\u0648\u062c": 4668, "\u0646\u0635\u0648\u0635": 4669, "\u064a\u0641\u0639\u0644": 4670, "##ic": 4671, "\u0627\u0644\u062a\u062d": 4672, "##ar": 4673, "\u062d\u064a\u0646\u0645\u0627": 4674, "52": 4675, "\u0645\u0637\u0628": 4676, "##\u0634\u064a\u0631": 4677, "\u062a\u0641\u0627\u0648\u0636": 4678, "\u0645\u0633\u0627\u062c\u062f": 4679, "\u064a\u062c\u0648\u0632": 4680, "\u062c\u0648\u0627\u0632": 4681, "\u0645\u0642\u062f\u0627\u0631": 4682, "\u062d\u0632\u0645": 4683, "##\u0627\u0626\u0637": 4684, "\u0635\u0646\u0639\u0627\u0621": 4685, "\u0648\u0627\u0642": 4686, "\u064a\u0624\u062b\u0631": 4687, "\u0643\u062b\u0627\u0641": 4688, "\u0634\u0641\u0627\u0641\u064a": 4689, "\u0642\u0645\u0631": 4690, "\u0645\u0628\u064a\u0646": 4691, "\u062a\u0635\u062d\u064a": 4692, "\u0645\u0639\u0627\u0631\u0643": 4693, "\u0625\u062b": 4694, "\u062d\u0643\u0627\u064a": 4695, "\u0644\u064a\u0628\u0631": 4696, "\u062a\u0628\u0639": 4697, "\u0644\u062d\u0648\u062f": 4698, "\u062a\u062d\u0627\u0648\u0644": 4699, "\u0623\u062c\u064a": 4700, "\u0623\u0645\u0637\u0627\u0631": 4701, "\u0645\u0624\u062b\u0631": 4702, "\u062a\u062d\u0631\u064a": 4703, "\u0622\u0645\u0627\u0644": 4704, "\u0645\u062f\u062e\u0644": 4705, "\u062d\u0642\u0627\u0626\u0642": 4706, "\u0627\u0646\u062a\u0642\u0627\u0644\u064a": 4707, "\u0634\u0627\u062d\u0646": 4708, "\u0630\u0631\u064a": 4709, "\u0643\u0631\u062f": 4710, "\u062a\u062d\u062f\u064a\u062b": 4711, "\u062a\u062d\u0635\u0644": 4712, "\u0634\u0627\u0626\u0639": 4713, "##\u0628\u0648\u0631": 4714, "\u0635\u064a\u0627\u063a": 4715, "\u062a\u0637\u0627\u0644\u0628": 4716, "\u062a\u0628\u062f\u0648": 4717, "\u062a\u0648\u064a": 4718, "##es": 4719, "\u0627\u0633\u062a\u062b\u0646": 4720, "\u064a\u0631\u063a\u0628": 4721, "\u0645\u062f\u0641": 4722, "\u0641\u064a\u0644": 4723, "\u062d\u0627\u0633\u0645": 4724, "##30": 4725, "##\u0627\u0643\u0633": 4726, "##\u0627\u0639\u0644\u064a": 4727, "\u0625\u062b\u0627\u0631": 4728, "\u0644\u0648\u064a": 4729, "\u0635\u0628\u0631": 4730, "\u0634\u0631\u0639": 4731, "\u0645\u062a\u0623\u062e\u0631": 4732, "##\u0628\u0631\u064a": 4733, "\u0645\u0631\u0641": 4734, "\u0639\u062c\u0644": 4735, "\u0625\u0635\u0631\u0627\u0631": 4736, "\u062a\u0637\u0644\u0639": 4737, "\u0633\u0623\u0644": 4738, "\u0646\u0647\u064a\u0627\u0646": 4739, "\u0633\u0641\u0646": 4740, "\u0645\u0639\u0644\u0646": 4741, "\u0633\u0627\u0639\u062f": 4742, "\u0645\u0644\u0627\u0639\u0628": 4743, "\u0647\u0648\u0644\u0646\u062f\u064a": 4744, "\u0623\u062b\u0631\u064a": 4745, "##\u064a\u0646\u063a": 4746, "\u0623\u0639\u0631\u0641": 4747, "\u0637\u0627\u0648\u0644": 4748, "\u0627\u0643\u062a\u0634\u0641": 4749, "\u062a\u0645\u062f\u064a\u062f": 4750, "\u0633\u0637\u062d": 4751, "\u0634\u064a\u0648\u062e": 4752, "\u0625\u062c\u0631": 4753, "\u0645\u0633\u062a\u0641\u064a\u062f": 4754, "##\u0641\u064a\u0639": 4755, "\u0627\u0644\u0644\u064a": 4756, "\u062a\u062d\u0630": 4757, "\u0645\u0645\u0631": 4758, "\u062a\u062d\u062a\u0648\u064a": 4759, "\u0627\u0633\u0627\u0633": 4760, "\u0634\u0639\u0631\u0627\u0621": 4761, "\u0636\u064a\u0648\u0641": 4762, "\u0645\u062d\u0631\u0643": 4763, "\u062a\u0623\u0633\u064a\u0633\u064a": 4764, "\u062d\u0643\u064a\u0645": 4765, "\u0645\u0627\u0631\u064a": 4766, "##\u0627\u0633\u0631": 4767, "\u0646\u0639\u0631\u0641": 4768, "\u062a\u062a\u062c\u0627\u0648\u0632": 4769, "\u0632\u0645\u0627\u0646": 4770, "\u0645\u062a\u0637\u0648\u0631": 4771, "51": 4772, "\u0623\u0648\u0627\u0626\u0644": 4773, "\u064a\u0646\u0638\u0645": 4774, "\u0628\u0648\u0644\u064a": 4775, "\u0645\u062d\u0631": 4776, "\u062a\u0639\u0642\u062f": 4777, "##\u0627\u064a\u0632": 4778, "\u0645\u0646\u0633\u0642": 4779, "\u0623\u062c\u0632\u0627\u0621": 4780, "##\u0644\u0627\u0621": 4781, "\u0648\u0627\u0644\u0649": 4782, "\u0627\u0642\u062a\u0631\u0627\u0639": 4783, "\u0625\u0633\u0643\u0627\u0646": 4784, "\u062f\u0644\u0627\u0644": 4785, "\u062d\u0645\u0627\u062f": 4786, "\u0625\u0631\u0634\u0627\u062f": 4787, "\u0645\u062f\u0627\u062e\u0644": 4788, "\u0645\u0641\u064a\u062f": 4789, "\u0645\u0646\u062e\u0641\u0636": 4790, "##\u0631\u0643\u064a": 4791, "\u0631\u0643\u0627\u0628": 4792, "\u0623\u0635\u0627\u0628": 4793, "\u0642\u0648\u0645\u0649": 4794, "54": 4795, "\u062a\u0631\u0627\u0645\u0628": 4796, "\u0622\u0631": 4797, "\u062a\u0632\u0648\u064a\u062f": 4798, "\u062c\u0644\u0627\u0644": 4799, "\u0645\u062a\u062c": 4800, "\u062a\u062e\u0644\u064a": 4801, "\u0643\u0627\u0631\u062b": 4802, "\u0627\u0644\u0627\u0646": 4803, "\u0625\u062d\u0635\u0627\u0621": 4804, "\u0645\u0648\u0633": 4805, "\u062f\u0648\u0633\u0631\u064a": 4806, "\u0631\u0645\u0632": 4807, "\u0625\u0628\u0644": 4808, "\u0645\u064a\u0644\u0627\u0646": 4809, "\u062c\u0627\u0632": 4810, "\u0628\u064a\u0644": 4811, "\u0628\u062f\u0627": 4812, "\u0645\u062d\u0642\u0642": 4813, "\u062a\u0631\u0648\u064a\u062c": 4814, "\u062c\u0628\u064a\u0644": 4815, "\u062a\u0623\u0644\u064a\u0641": 4816, "\u0639\u0631\u064a": 4817, "##\u0646\u062d": 4818, "\u062a\u062d\u0631": 4819, "\u0631\u0627\u063a\u0628": 4820, "\u0645\u0646\u062a\u0638\u0631": 4821, "\u062a\u0623\u062e\u0630": 4822, "\u063a\u0630\u0627\u0621": 4823, "\u064a\u0642\u064a\u0645": 4824, "\u062a\u0633\u062f\u064a\u062f": 4825, "\u062d\u0633\u0627\u0645": 4826, "\u0645\u062d\u0627\u0648\u0631": 4827, "\u0645\u062a\u0632\u0627\u064a\u062f": 4828, "\u064a\u0642\u0627\u0645": 4829, "\u062f\u0627\u0641\u0639": 4830, "##\u0627\u0628\u064a\u0631": 4831, "\u062d\u0627\u0644\u0649": 4832, "\u0642\u0633": 4833, "\u0634\u0643\u0648\u0649": 4834, "\u0623\u0633\u062a\u0631\u0627\u0644\u064a\u0627": 4835, "\u0623\u062c\u064a\u0627\u0644": 4836, "\u0631\u0645\u0648\u0632": 4837, "\u062f\u0627\u0645": 4838, "\u062b\u0642\u064a\u0644": 4839, "##\u0627\u0634\u064a": 4840, "\u062a\u0648\u0644\u0649": 4841, "\u062a\u0635\u0646\u064a\u0639": 4842, "\u0625\u0633\u0642\u0627\u0637": 4843, "\u0639\u0645\u062f": 4844, "\u0627\u0641\u0631\u064a\u0642\u064a": 4845, "\u0645\u0646\u0641\u0630": 4846, "\u0648\u0627\u0641\u062f": 4847, "\u0635\u063a\u0627\u0631": 4848, "\u0644\u0623\u0646": 4849, "##\u064a\u0642": 4850, "\u0633\u0628\u0623": 4851, "\u0645\u0627\u0646\u0634\u0633\u062a\u0631": 4852, "\u0623\u064a\u0627\u0631": 4853, "##\u0646\u0626": 4854, "\u0623\u062a\u0645\u0646\u0649": 4855, "\u0631\u0647": 4856, "##\u0631\u0627\u0646": 4857, "\u062a\u062a\u0631": 4858, "##\u0642\u0648\u0644": 4859, "\u062a\u0647\u0631\u064a\u0628": 4860, "\u0635\u0644\u0628": 4861, "\u062f\u0631\u0639": 4862, "\u062a\u062d\u062f\u062f": 4863, "\u0646\u0627\u0644": 4864, "\u0625\u0646\u062a\u0627\u062c\u064a": 4865, "\u0645\u0644\u0645": 4866, "\u0627\u0641\u0631\u064a\u0642\u064a\u0627": 4867, "##\u062a\u0632": 4868, "\u0642\u0627\u062a\u0644": 4869, "\u0628\u0631\u0648\u062a": 4870, "##\u0646\u062a\u0648\u0646": 4871, "\u0634\u0647\u0648\u062f": 4872, "\u0648\u0627\u0642\u0639\u064a": 4873, "##\u0645\u0645": 4874, "\u0635\u062d\u0631\u0627\u0621": 4875, "##\u0645\u062c": 4876, "\u0628\u062d\u064a\u0631": 4877, "\u0627\u062d\u062a\u064a\u0627\u0637\u064a": 4878, "\u064a\u062e\u0635": 4879, "\u0623\u0628\u0631": 4880, "\u0627\u0633\u062a\u062e\u0628\u0627\u0631": 4881, "\u0645\u062a\u0645\u0631\u062f": 4882, "##\u062f\u0627": 4883, "\u062a\u062f\u0641\u0639": 4884, "\u0633\u0648\u064a\u062f": 4885, "\u062a\u0639\u0644\u0646": 4886, "49": 4887, "\u0642\u0646\u0627\u0639": 4888, "\u0644\u0627\u0645": 4889, "\u0627\u0633\u062a\u0634\u0627\u0631\u064a": 4890, "\u0645\u0642\u0631\u0628": 4891, "\u0646\u0638\u0627\u0641": 4892, "\u062d\u0635\u0631": 4893, "\u0641\u0648\u0644": 4894, "\u062c\u0630\u0628": 4895, "\u064a\u0633\u062a\u062d\u0642": 4896, "##\u0623\u0649": 4897, "##at": 4898, "\u062d\u0645\u0631\u0627\u0621": 4899, "\u062a\u0632\u0627\u064a\u062f": 4900, "\u0631\u0648\u0646": 4901, "##\u062d\u0627\u0646": 4902, "\u0637\u0631\u0627\u0632": 4903, "\u064a\u0648\u0627\u0635\u0644": 4904, "##\u0646\u064a\u0627\u0647\u0648": 4905, "##\u0627\u062c\u064a": 4906, "\u064a\u0632\u0648\u0631": 4907, "\u0627\u0645\u062a\u062f\u0627\u062f": 4908, "\u0627\u0633\u062a\u062b\u0646\u0627\u0626\u064a": 4909, "##\u0648\u0644\u062f": 4910, "\u0647\u0627\u062f\u064a": 4911, "\u0645\u0631\u0634\u062f": 4912, "\u062a\u0635\u062d\u064a\u062d": 4913, "\u0641\u0631\u0639\u064a": 4914, "\u0623\u0633\u0631\u0639": 4915, "\u0645\u0647\u062a\u0645": 4916, "\u0625\u0632\u0627\u0621": 4917, "\u0633\u064a\u0644": 4918, "\u0633\u0645\u062d": 4919, "\u0646\u062a\u0646\u064a\u0627\u0647\u0648": 4920, "\u0628\u0644\u062c\u064a": 4921, "##\u0637\u0627": 4922, "\u062a\u0633\u0627\u0624\u0644": 4923, "\u0641\u0627\u0626": 4924, "\u0641\u0631\u0627\u063a": 4925, "##\u062a\u0627\u0628": 4926, "\u063a\u0627\u0632\u064a": 4927, "\u0623\u064a\u062f": 4928, "##\u0641\u0627\u0641": 4929, "\u064a\u0631\u0641\u0639": 4930, "\u0623\u0648\u0633\u0627\u0637": 4931, "\u0633\u0643\u0627\u0646\u064a": 4932, "\u062a\u0642\u0631\u0631": 4933, "\u064a\u0646\u0638\u0631": 4934, "\u0645\u0633\u0627\u0648\u0627": 4935, "##\u0641\u0631\u062f": 4936, "\u0631\u0643\u0644": 4937, "\u064a\u062b": 4938, "\u062a\u0643\u0644\u064a\u0641": 4939, "\u0645\u0624\u0645\u0646": 4940, "\u0645\u0627\u0626\u064a": 4941, "\u0643\u0648\u0627\u062f\u0631": 4942, "##al": 4943, "\u0637\u0627\u0644\u0628\u0627\u0646": 4944, "\u062e\u0637\u0641": 4945, "\u0634\u0628\u0627\u0637": 4946, "\u0623\u0633\u0631\u0649": 4947, "\u0635\u062f\u0645": 4948, "\u062d\u0645\u062f\u0627\u0646": 4949, "\u0644\u0633\u0627\u0646": 4950, "##\u0637\u0644\u062d": 4951, "\u0623\u062d\u0631\u0632": 4952, "\u0627\u0646\u0639\u0642\u0627\u062f": 4953, "\u062c\u0632\u0631": 4954, "\u062a\u0642\u0628\u0644": 4955, "\u064a\u062c\u0645\u0639": 4956, "\u064a\u0645\u0627\u0631\u0633": 4957, "\u0623\u062f\u0648\u0627\u0631": 4958, "##\u0648\u0647\u0627": 4959, "\u0625\u0643": 4960, "\u0628\u062d\u0631\u064a\u0646\u064a": 4961, "\u0631\u0627\u0641": 4962, "##\u0642\u0627\u0646": 4963, "\u064a\u0645\u062a\u0644\u0643": 4964, "##\u0643\u0648\u0645": 4965, "\u062d\u0632\u0646": 4966, "\u0645\u0636\u064a": 4967, "\u0637\u0642": 4968, "\u0643\u0644\u064a\u0646\u062a\u0648\u0646": 4969, "\u062a\u0639\u0627": 4970, "\u0625\u0633\u0639\u0627\u0641": 4971, "\u062a\u0644\u064a\u0641\u0632\u064a": 4972, "\u0646\u0632\u0639": 4973, "##\u0628\u0646\u0649": 4974, "\u0645\u0633\u0626\u0648\u0644\u064a": 4975, "\u064a\u0643\u0641\u064a": 4976, "\u0633\u062a\u064a": 4977, "\u0634\u064a\u0639\u064a": 4978, "\u0631\u0641\u064a\u0639": 4979, "\u0639\u0634\u0648\u0627\u0626\u064a": 4980, "\u0623\u0633\u0645\u0627": 4981, "\u062a\u0647\u062f": 4982, "\u062a\u062f\u0639\u0645": 4983, "\u0634\u0627\u0647": 4984, "\u062a\u0623\u062b\u0631": 4985, "\u062a\u0646\u0627\u0632\u0644": 4986, "\u064a\u0637\u0631\u062d": 4987, "\u0632\u0627\u0648\u064a": 4988, "\u0643\u0645\u0628\u064a\u0648\u062a\u0631": 4989, "\u062e\u0635\u0648\u0635\u064a": 4990, "\u0623\u0633\u064a": 4991, "\u062a\u062d\u0641\u0638": 4992, "\u0623\u0634\u063a\u0627\u0644": 4993, "\u0628\u0634\u064a\u0631": 4994, "##\u0628\u0627\u0647": 4995, "\u062a\u062f\u0639\u0648": 4996, "\u062a\u0639\u0646\u064a": 4997, "\u062a\u0633\u062a\u0647\u062f\u0641": 4998, "\u0645\u0644\u062d\u0648\u0638": 4999, "\u0628\u064a\u0636": 5000, "\u064a\u0648\u0641\u0631": 5001, "##\u0627\u0639\u064a\u0644\u064a": 5002, "##\u062a\u0627\u0644": 5003, "##\u0646\u062c": 5004, "\u0645\u0636\u0627\u0639\u0641": 5005, "\u0641\u0648\u0627\u0626\u062f": 5006, "##\u0648\u0646\u0627": 5007, "\u062d\u0648\u0632": 5008, "\u0627\u062d\u0633\u0627\u0621": 5009, "\u0646\u064a\u0631\u0627\u0646": 5010, "##\u062a\u0627\u0644\u064a": 5011, "\u063a\u0632\u0648": 5012, "\u0645\u062a\u0635\u0644": 5013, "\u062a\u0646\u0627\u0641\u0633": 5014, "\u0627\u0633\u062a\u0634\u0627\u0631": 5015, "\u0623\u0648\u0627\u062e\u0631": 5016, "\u0646\u0627\u0642\u0634": 5017, "\u0628\u062e": 5018, "\u064a\u0643\u062a": 5019, "56": 5020, "\u0628\u0642\u0627\u0639": 5021, "\u064a\u062a\u0631\u0643": 5022, "\u062a\u062c\u0627\u0647\u0644": 5023, "\u0623\u0633\u0628\u0648\u0639\u064a": 5024, "\u0634\u064a\u0631": 5025, "##\u062a\u0628\u0637": 5026, "\u0634\u0647\u0648\u0631": 5027, "##\u0635\u0648\u0631": 5028, "##\u064a\u0641\u064a": 5029, "\u0645\u0647\u062f\u064a": 5030, "\u0627\u0646\u0642\u0637": 5031, "\u062a\u0646\u0638\u064a\u0645\u064a": 5032, "\u0627\u0646\u062a\u0641\u0627\u0636": 5033, "##\u062c\u064a\u0631\u064a": 5034, "##\u0639\u0648\u0645": 5035, "\u0639\u0627\u0645\u0631": 5036, "##\u0648\u064a\u0634": 5037, "\u0648\u062c\u0648\u0647": 5038, "\u0633\u0644\u0628": 5039, "##\u062d\u0649": 5040, "\u062a\u062a\u0643": 5041, "\u062d\u062f\u064a\u0642": 5042, "\u0627\u0628\u064a": 5043, "57": 5044, "\u0639\u062b\u0648\u0631": 5045, "\u0634\u0627\u0631\u0648\u0646": 5046, "\u062d\u062c\u0632": 5047, "\u062a\u062d\u0641\u064a": 5048, "\u062a\u0624\u062b\u0631": 5049, "\u0631\u0627\u062a\u0628": 5050, "\u0647\u0631\u0645": 5051, "\u0633\u062f\u0627\u062f": 5052, "\u0645\u062a\u0645\u062b\u0644": 5053, "\u062a\u0645\u0647\u064a\u062f": 5054, "\u0633\u0648\u062f\u0627\u0621": 5055, "\u062c\u0627\u0631\u0649": 5056, "##\u0627\u0626\u0633": 5057, "\u0639\u0628\u0627\u062f": 5058, "\u0642\u0631\u0627\u0628": 5059, "\u0627\u0645\u062a\u0646": 5060, "\u062a\u0646\u0637\u0644\u0642": 5061, "\u0646\u0641\u0648\u0630": 5062, "##\u064a\u0646\u064a\u0627": 5063, "\u0634\u0628\u0627\u0643": 5064, "\u0642\u0627\u0631\u0626": 5065, "\u062a\u0642\u0644\u064a\u0644": 5066, "53": 5067, "\u0637\u0644\u0627\u0644": 5068, "\u0639\u064a\u0627\u062f": 5069, "\u062c\u0648\u0647\u0631": 5070, "\u0643\u0627\u062f": 5071, "##\u0627\u0644\u0627": 5072, "67": 5073, "\u062f\u0648\u0627\u0645": 5074, "\u0646\u0645\u0627": 5075, "\u0645\u0643\u0633\u064a": 5076, "\u062a\u062f\u0648\u0631": 5077, "\u0642\u0635\u062f": 5078, "\u0645\u063a\u0644\u0642": 5079, "\u0623\u062c\u0627\u0628": 5080, "\u0641\u0627\u0633": 5081, "\u0639\u0645\u0644\u0627\u0642": 5082, "\u0627\u062e\u062a\u062a\u0645": 5083, "##\u0643\u0627\u0633": 5084, "\u0646\u0632\u0644": 5085, "\u0627\u0642\u062a\u0631\u062d": 5086, "\u0631\u0648\u0628": 5087, "\u0645\u064a\u062f\u0627\u0644\u064a": 5088, "##\u0632\u064a\u0641": 5089, "\u0645\u062d\u0645\u0648\u0644": 5090, "\u062a\u0644\u0639\u0628": 5091, "\u0645\u0635\u0631\u0639": 5092, "\u0623\u0631\u0627\u0636\u0649": 5093, "##\u062b\u0627\u0644": 5094, "\u0645\u0635\u0637\u0644\u062d": 5095, "\u064a\u062e\u0648\u0636": 5096, "\u062a\u062a\u0623": 5097, "##\u0632\u0647": 5098, "\u0645\u0627\u062a": 5099, "##\u0630\u0627\u0643": 5100, "##\u0635\u0644\u064a": 5101, "##\u062c\u0648\u0627\u0628": 5102, "\u0622\u062a\u064a": 5103, "##\u0643\u0627\u0646\u064a": 5104, "\u062a\u062a\u062e\u0630": 5105, "85": 5106, "##\u0627\u064a\u0633": 5107, "\u0645\u0631\u0632": 5108, "\u064a\u0641\u062a\u0631\u0636": 5109, "\u062c\u0631\u064a": 5110, "\u062a\u0631\u062e\u064a\u0635": 5111, "\u062a\u0639\u0630\u064a\u0628": 5112, "##\u0648\u0646\u063a": 5113, "\u0635\u0639\u062f": 5114, "\u0627\u0633\u062a\u062c\u0648\u0627\u0628": 5115, "\u0637\u064a\u0648\u0631": 5116, "\u0623\u0631\u064a\u062f": 5117, "\u0645\u062b\u0644\u0645\u0627": 5118, "\u0645\u0631\u064a": 5119, "\u0623\u0648\u0642\u0627\u0641": 5120, "\u064a\u062f\u0631\u0643": 5121, "\u064a\u0642\u062f\u0631": 5122, "\u0642\u0628\u0631": 5123, "##\u0627\u0637\u0649": 5124, "\u0635\u0627\u0641\u064a": 5125, "\u064a\u062d\u0636\u0631": 5126, "##\u064a\u0631\u0627\u062f": 5127, "\u062a\u062a\u0628\u0639": 5128, "\u062a\u062a\u0645\u062b\u0644": 5129, "\u0646\u0642\u0627\u0628\u064a": 5130, "\u0645\u0646\u0641": 5131, "\u0639\u0644\u0642": 5132, "\u0647\u064a\u0644": 5133, "\u0645\u0641\u0627\u062c\u0626": 5134, "\u0623\u0633\u0628\u0642": 5135, "\u0627\u0644\u0644\u0630\u064a\u0646": 5136, "\u0639\u0642\u0644\u064a": 5137, "\u0627\u0639\u062a\u0642\u0627\u062f": 5138, "##\u0628\u0631\u0627\u0637": 5139, "\u0645\u0628\u062f\u0639": 5140, "\u0628\u0648\u0633": 5141, "\u0633\u0648\u0641\u064a": 5142, "##\u0627\u0645\u064a\u0646": 5143, "\u0625\u0639\u0645\u0627\u0631": 5144, "\u064a\u062d\u0644": 5145, "\u0639\u0635\u0627\u0628": 5146, "\u0645\u062e\u062a\u0627\u0631": 5147, "##\u0632\u064a\u0647": 5148, "\u0645\u0631\u0627\u062f": 5149, "\u0646\u0634\u0623": 5150, "\u0628\u0637\u0631\u064a\u0631": 5151, "\u064a\u0634\u0627\u0631": 5152, "\u062a\u0642\u0641": 5153, "\u064a\u0648\u0646\u0627\u0646\u064a": 5154, "##\u0627\u062a\u0645": 5155, "\u0627\u062f\u0639\u0627\u0621": 5156, "\u062a\u0631\u0643\u0632": 5157, "\u0646\u0643\u0648\u0646": 5158, "\u062a\u0635\u0639\u064a\u062f": 5159, "\u0646\u0635\u064a\u0628": 5160, "\u0645\u0631\u062c\u0639\u064a": 5161, "\u062a\u0648\u0636\u064a\u062d": 5162, "\u0632\u0645\u0644\u0627\u0626": 5163, "\u0635\u064a\u0641\u064a": 5164, "\u0625\u062f\u0627\u0646": 5165, "\u0627\u0633\u062a\u0642\u0637": 5166, "##\u0647\u064a\u0631\u064a": 5167, "\u0646\u0635\u0628": 5168, "##\u0637\u064a\u0646": 5169, "\u0628\u0648\u0643": 5170, "\u0637\u064a\u0627\u0631": 5171, "\u0631\u062e\u0635": 5172, "\u062a\u0646\u0648\u064a": 5173, "\u0625\u0633\u0645\u0627\u0639\u064a\u0644\u064a": 5174, "\u062c\u064a\u0646": 5175, "\u0639\u0631\u064a\u0636": 5176, "\u0645\u062a\u0644": 5177, "\u062c\u0628\u0631": 5178, "##\u0628\u064a\u0627": 5179, "\u0623\u062c\u0631\u0649": 5180, "##\u0627\u0635\u0628": 5181, "\u0646\u064a\u0648\u0632": 5182, "\u064a\u062a\u0642\u062f\u0645": 5183, "\u0631\u0623\u0633\u0645": 5184, "\u062c\u0627\u0643": 5185, "\u062e\u0637\u064a\u0628": 5186, "##\u0628\u0643": 5187, "\u0645\u0634\u0648\u0627\u0631": 5188, "\u062e\u0627\u0637\u0626": 5189, "\u064a\u0647\u062f\u062f": 5190, "\u064a\u0642\u0627\u0644": 5191, "\u064a\u0642\u0628\u0644": 5192, "##\u0635\u0646": 5193, "\u0633\u0644\u0641\u064a": 5194, "193": 5195, "\u062a\u0645\u0643\u064a\u0646": 5196, "\u0623\u0648\u0646": 5197, "\u064a\u0639\u064a\u062f": 5198, "\u0627\u0631\u062a\u0643\u0628": 5199, "##\u0648\u062a\u064a": 5200, "\u062d\u0627\u0645\u062f": 5201, "\u0645\u0645\u0646": 5202, "\u064a\u0633\u0627\u0647\u0645": 5203, "\u0637\u0627\u0642\u0645": 5204, "\u063a\u0646": 5205, "64": 5206, "\u062a\u0636\u062e\u0645": 5207, "##\u0637\u064a\u0644": 5208, "\u0645\u0639\u0648\u0642": 5209, "\u0633\u0644\u0641": 5210, "\u0623\u0633\u0648\u0623": 5211, "\u0639\u0631\u0641\u0627\u062a": 5212, "\u0630\u0643\u064a": 5213, "\u0639\u0627\u0631\u0636": 5214, "##\u0627\u0648\u0628": 5215, "\u0644\u0648\u0627\u0626\u062d": 5216, "\u062a\u063a\u0630\u064a": 5217, "\u062a\u0633\u0627\u0647\u0645": 5218, "\u062e\u0641\u064a\u0641": 5219, "\u0627\u0646\u062a\u0645\u0627\u0621": 5220, "\u062a\u062a\u0631\u0627\u0648\u062d": 5221, "\u0645\u0634\u0639\u0644": 5222, "\u0648\u0638\u064a\u0641\u064a": 5223, "\u063a\u0627\u0646\u0645": 5224, "\u0645\u062a\u0634\u062f\u062f": 5225, "\u062a\u062d\u0630\u064a\u0631": 5226, "58": 5227, "\u0645\u0627\u0644\u0643\u064a": 5228, "\u064a\u062f\u0639\u0649": 5229, "\u0642\u0635\u0635": 5230, "\u0641\u0648\u0631\u064a": 5231, "\u0646\u0641\u0648\u0633": 5232, "\u0633\u0645\u0627\u0621": 5233, "\u0623\u0645\u062b\u0644": 5234, "\u064a\u062e\u062f\u0645": 5235, "\u0646\u0647\u0648\u0636": 5236, "##\u0641\u062a\u0627\u062d": 5237, "\u0639\u0644\u0627\u0621": 5238, "##\u0632\u0648\u0646": 5239, "##\u062b\u0631\u064a": 5240, "\u062a\u0645\u0631\u064a\u0631": 5241, "\u0633\u064a\u0646\u0627\u0631\u064a\u0648": 5242, "\u062a\u0642\u062a": 5243, "\u0648\u0633\u0637\u0649": 5244, "\u0642\u0628\u0627\u0626\u0644": 5245, "\u0637\u0627\u0631\u0626": 5246, "\u0632\u062c\u0627\u062c": 5247, "##\u0648\u0636\u064a": 5248, "##\u0627\u0641\u0632": 5249, "##\u0632\u064a\u0627\u0621": 5250, "62": 5251, "\u0631\u0643\u0646": 5252, "\u0641\u0642\u062f\u0627\u0646": 5253, "\u0643\u0631\u064a\u0633\u062a": 5254, "\u0623\u0633\u0646\u0627\u0646": 5255, "\u062a\u0635\u062f\u064a": 5256, "##\u0627\u0631\u0649": 5257, "\u0628\u0627\u0631\u062f": 5258, "\u0633\u0631\u0627\u062d": 5259, "\u062a\u062f\u0627\u0639\u064a": 5260, "\u062c\u0645\u0627\u0647\u064a\u0631\u064a": 5261, "\u0623\u062e\u0637\u0631": 5262, "\u064a\u0639\u0628\u0631": 5263, "\u0634\u064a\u0639": 5264, "\u062d\u0634": 5265, "\u0645\u062c\u062f": 5266, "\u062c\u064a\u0631": 5267, "\u0632\u0627\u0626\u0631": 5268, "\u0647\u0648\u0627\u062a\u0641": 5269, "\u0643\u064a\u0645\u064a\u0627\u0626\u064a": 5270, "\u0645\u0644\u0627\u062d\u0642": 5271, "\u0639\u0633": 5272, "\u0623\u0639\u0627\u062f": 5273, "\u0645\u0633\u062d": 5274, "\u0641\u0643": 5275, "\u0645\u0635\u0648\u0631": 5276, "\u0635\u0642\u0631": 5277, "66": 5278, "\u0646\u064a\u062c\u064a\u0631\u064a": 5279, "\u0635\u0628\u064a": 5280, "\u063a\u0636\u0648\u0646": 5281, "\u0645\u0646\u0649": 5282, "\u0645\u0646\u064a\u0631": 5283, "\u0645\u0633\u062a\u062c\u062f": 5284, "\u064a\u062a\u0646\u0627\u0648\u0644": 5285, "\u062a\u062f\u0641\u0642": 5286, "\u062d\u062f\u0648\u062f\u064a": 5287, "##\u0642\u0627\u0628": 5288, "\u0627\u0644\u062a\u0647\u0627\u0628": 5289, "\u0641\u0627\u0631\u0648\u0642": 5290, "\u0623\u062c\u0648\u0631": 5291, "\u062a\u0623\u062e\u064a\u0631": 5292, "\u0645\u0646\u0632": 5293, "\u0631\u0627\u062c": 5294, "\u062c\u0632\u0626\u064a": 5295, "\u0645\u0641\u062a\u0631\u0636": 5296, "\u062b\u0644\u062b": 5297, "\u062f\u0646": 5298, "\u0642\u0641\u0632": 5299, "##\u063a\u0627\u0646\u064a": 5300, "\u062d\u064a\u0627\u0644": 5301, "\u0645\u0641\u0648\u0636\u064a": 5302, "\u062b\u0648\u0631\u064a": 5303, "\u0645\u0633\u0627\u0641\u0631": 5304, "\u0625\u062b\u0628\u0627\u062a": 5305, "\u0631\u064a\u0627\u062d": 5306, "\u0625\u064a\u062f": 5307, "\u062e\u0628": 5308, "\u0627\u0633\u062a\u0639\u0631\u0627\u0636": 5309, "\u0639\u0628\u0648": 5310, "\u062a\u0632\u0648\u064a\u0631": 5311, "\u062a\u062a\u0645\u062a\u0639": 5312, "\u064a\u062a\u0633": 5313, "##\u0645\u0646\u062a": 5314, "\u062f\u0645\u0627": 5315, "##\u0634\u0623": 5316, "\u0635\u062f\u0627\u0642": 5317, "\u0632\u064a\u062a": 5318, "\u062d\u062f\u0627\u062f": 5319, "\u0625\u0646\u0641\u0627\u0642": 5320, "\u062c\u0644\u062f": 5321, "\u0623\u063a\u0644\u0642": 5322, "\u062e\u0644\u0644": 5323, "##\u0627\u064a\u0634": 5324, "\u0639\u0628\u0648\u0631": 5325, "\u0643\u0646\u062f\u0627": 5326, "\u0627\u0633\u062a\u064a\u0631\u0627\u062f": 5327, "\u0645\u0623\u0633": 5328, "\u064a\u062d\u0628": 5329, "\u063a\u0627\u0645\u062f\u064a": 5330, "\u0627\u0646\u0642\u0633\u0627\u0645": 5331, "\u0639\u0646\u0635\u0631\u064a": 5332, "##\u0641\u0644\u0648\u0646": 5333, "\u0648\u0642\u0627\u0626\u0639": 5334, "\u0641\u064a\u0641\u0627": 5335, "\u0641\u0631\u062c": 5336, "\u0641\u0644\u0627\u062d": 5337, "\u0645\u0633\u062a\u0646\u062f": 5338, "##\u062e\u064a\u0646": 5339, "\u0627\u0635\u0637": 5340, "\u0641\u0635\u0627\u0626\u0644": 5341, "\u0641\u0627\u0639\u0644\u064a": 5342, "\u0632\u0628": 5343, "\u062a\u0631\u064a": 5344, "\u0646\u0644": 5345, "\u0648\u0641\u0631": 5346, "\u062f\u0648\u0627\u0621": 5347, "\u0645\u0639\u0637\u064a": 5348, "##\u0644\u0646\u062f\u0627": 5349, "##\u0641\u0644\u0648\u0646\u0632\u0627": 5350, "\u0645\u064a\u062a": 5351, "\u064a\u0648\u0646\u0627\u0646": 5352, "04": 5353, "\u0646\u0645\u0633": 5354, "\u062d\u0645\u0627\u0645": 5355, "\u0645\u0646\u0647": 5356, "\u0645\u062d\u0631\u0631": 5357, "\u0643\u0631\u062f\u064a": 5358, "##\u0628\u064a\u0647": 5359, "\u0646\u064a\u0643": 5360, "\u064a\u0630\u0647\u0628": 5361, "\u0631\u0627\u0645\u064a": 5362, "\u0628\u0631\u0644\u064a\u0646": 5363, "\u0622\u0641\u0627\u0642": 5364, "\u0645\u0646\u0647\u062c": 5365, "\u0645\u0641\u0627\u0647\u064a\u0645": 5366, "\u0630\u0627\u0643": 5367, "\u0639\u0645\u0631\u0627\u0646\u064a": 5368, "\u0642\u0630\u0627\u0641\u064a": 5369, "##\u0641\u0646": 5370, "\u0639\u062f\u0646\u0627\u0646": 5371, "\u062d\u0631\u0641": 5372, "\u0627\u0641\u062a\u0631": 5373, "\u064a\u0646\u0627\u0642\u0634": 5374, "\u0628\u062a": 5375, "\u0637\u0641\u0648\u0644": 5376, "\u0639\u0632\u0645": 5377, "\u0628\u0646\u0648\u062f": 5378, "\u064a\u0645\u0646\u062d": 5379, "\u062a\u062a\u0637\u0644\u0628": 5380, "\u062a\u0631\u062c\u064a": 5381, "\u0641\u0644\u0633\u0641": 5382, "\u0643\u0627\u062b": 5383, "\u0623\u0639\u0631\u0627\u0636": 5384, "\u0643\u0627\u0626\u0646": 5385, "\u062a\u0644\u0648\u062b": 5386, "\u0642\u0644\u0639": 5387, "##\u0633\u0627\u0631": 5388, "\u0627\u0645\u062a\u0644": 5389, "\u0645\u0646\u0637": 5390, "\u0634\u0643\u0627": 5391, "##\u0627\u0630\u0628": 5392, "\u0644\u0637\u064a\u0641": 5393, "##\u0634\u064a\u0646": 5394, "\u0645\u0628\u062a": 5395, "\u062a\u062e\u062a\u0644\u0641": 5396, "\u0642\u0645\u0639": 5397, "\u064a\u062e\u0644": 5398, "\u0645\u0633\u0627\u0626\u0644": 5399, "##\u0623\u0646\u062a": 5400, "\u0644\u0627\u062d\u0638": 5401, "\u062c\u0631\u062d\u0649": 5402, "\u062a\u0633\u064a\u0631": 5403, "##he": 5404, "\u0641\u0648\u062c\u0626": 5405, "\u0646\u062f\u0627\u0621": 5406, "\u064a\u0648\u0646\u0627\u064a": 5407, "\u0627\u0639\u062a\u0630\u0627\u0631": 5408, "##\u0648\u0627\u062a\u064a": 5409, "\u0644\u0642\u0627\u0626": 5410, "\u0634\u0628\u0627\u0628\u064a": 5411, "\u0633\u0646\u064a\u0648\u0631": 5412, "##\u062a\u064a\u0627\u062d": 5413, "\u0648\u0647": 5414, "77": 5415, "\u062c\u0646\u0628\u0644": 5416, "\u0631\u062f\u0648\u062f": 5417, "\u062c\u0627\u0644\u064a": 5418, "\u0648\u0642\u0627\u064a": 5419, "\u0627\u062d\u062a\u0644": 5420, "\u0627\u062c\u062a": 5421, "\u0646\u0643": 5422, "\u0627\u0631\u062a\u0642\u0627\u0621": 5423, "##\u0627\u0647\u0644": 5424, "\u062e\u0627\u0636": 5425, "\u064a\u0633\u062c\u0644": 5426, "\u062a\u0627\u064a\u0645\u0632": 5427, "\u0646\u0641\u0627\u064a": 5428, "\u062d\u062f\u064a\u062f\u064a": 5429, "\u064a\u062f\u0639\u0645": 5430, "##\u0636\u062d\u064a": 5431, "\u064a\u0648\u0646\u0627\u064a\u062a\u062f": 5432, "##\u0648\u062c\u0628": 5433, "##\u0626\u0643": 5434, "\u0628\u0633\u0627\u0637": 5435, "\u062a\u0648\u0645": 5436, "\u0633\u0627\u0626\u062f": 5437, "\u0639\u0633\u064a\u0631": 5438, "250": 5439, "\u0645\u0637\u0631\u0628": 5440, "\u0636\u0631\u0631": 5441, "\u0634\u064a\u0643": 5442, "\u0627\u0646\u062a\u0628\u0627\u0647": 5443, "##\u062f\u0648\u0646\u064a\u0633\u064a": 5444, "\u062c\u0628\u0627\u0644": 5445, "\u0631\u0627\u0639\u064a": 5446, "\u0631\u0624\u0648\u0633": 5447, "\u0645\u0627\u0644\u064a\u0632\u064a": 5448, "\u0637\u0644\u0642": 5449, "\u062e\u0631\u0637": 5450, "\u062a\u062f\u0647\u0648\u0631": 5451, "\u0630\u0648": 5452, "\u062a\u0633\u0644\u064a": 5453, "\u062a\u0639\u0627\u0648\u0646\u064a": 5454, "\u0645\u0638\u0644": 5455, "\u0647\u0627\u062f\u0626": 5456, "\u0633\u0628\u0623\u0646\u062a": 5457, "\u062a\u0647\u064a": 5458, "\u062d\u0627\u0633\u0628": 5459, "\u0648\u062d": 5460, "##\u0633\u064a\u0627": 5461, "\u0647\u064a\u0631": 5462, "\u0625\u0645\u0628\u0631\u0627\u0637": 5463, "\u0628\u0627\u0639": 5464, "72": 5465, "\u0633\u0648\u064a\u0633\u0631\u064a": 5466, "##\u0628\u0627\u0639": 5467, "##\u063a\u0649": 5468, "\u0643\u0631\u0648\u064a": 5469, "\u062f\u0627\u0639\u0645": 5470, "\u0630\u0643\u0648\u0631": 5471, "\u062c\u0646\u0628\u0644\u0627\u0637": 5472, "\u0631\u0648\u0645\u0627": 5473, "\u062a\u0642\u062f": 5474, "\u0645\u0637\u0627\u0639\u0645": 5475, "\u0623\u0631\u0649": 5476, "\u0627\u0626\u062a\u0645": 5477, "\u0645\u064a\u0644\u064a": 5478, "\u062e\u0645": 5479, "61": 5480, "\u062a\u0631\u0641\u0636": 5481, "\u0623\u0641\u063a\u0627\u0646\u064a": 5482, "\u0645\u0644\u0627\u0645\u062d": 5483, "\u064a\u062e\u062a\u0644\u0641": 5484, "\u0625\u064a\u0627": 5485, "\u062a\u062b\u0628\u064a\u062a": 5486, "\u064a\u0638\u0644": 5487, "\u062a\u0645\u062a\u0644\u0643": 5488, "\u0642\u0644\u0645": 5489, "\u0644\u064a\u0646": 5490, "##\u0627\u0639\u064a\u062f": 5491, "\u0623\u0634\u062f": 5492, "63": 5493, "\u0628\u0631\u0627\u0621": 5494, "\u0642\u0627\u0628\u0636": 5495, "\u062d\u0632\u0628\u064a": 5496, "\u0623\u0648\u0644\u0626\u0643": 5497, "\u062e\u0635\u0635": 5498, "##\u0627\u0621\u0644": 5499, "\u0627\u0628\u062a\u0643\u0627\u0631": 5500, "\u0644\u0628": 5501, "\u0623\u0648\u062f": 5502, "\u0633\u0642\u0641": 5503, "\u062a\u0645\u0646\u062d": 5504, "\u0623\u062d\u0633\u0646": 5505, "\u0645\u0637\u0644\u0628": 5506, "\u062a\u0628\u062d\u062b": 5507, "\u0627\u0645\u062a\u064a\u0627\u0632": 5508, "\u0633\u0648\u0631": 5509, "\u062a\u0639\u062f\u0627\u062f": 5510, "\u062a\u0646\u0633": 5511, "\u0646\u062c\u064a\u0628": 5512, "##\u062c\u0627\u0645": 5513, "\u0623\u0634\u0639": 5514, "\u0645\u0639\u0627\u0644\u0645": 5515, "\u0648\u0641\u0627\u0642": 5516, "\u064a\u0639\u0643\u0633": 5517, "##\u0648\u0646\u0647": 5518, "\u0645\u062a\u0643\u0631\u0631": 5519, "\u062d\u0631\u062c": 5520, "\u062a\u0632\u0627\u0645\u0646": 5521, "\u0645\u0632\u062f": 5522, "\u0634\u0627\u0621": 5523, "##\u0648\u0632\u064a": 5524, "##\u0628\u0631\u062a": 5525, "\u0628\u062f\u0646\u064a": 5526, "\u0635\u0631\u0627\u062d": 5527, "95": 5528, "\u0625\u0646\u0634": 5529, "##01": 5530, "\u0644\u0645\u0633": 5531, "\u064a\u0643\u0634\u0641": 5532, "\u0645\u0646\u0634\u0623": 5533, "\u0633\u064a\u062a\u064a": 5534, "\u0622\u062f\u0627\u0628": 5535, "\u064a\u0639\u0627\u0646": 5536, "##\u0634\u064a\u0637": 5537, "##\u0642\u0648\u062f": 5538, "\u0645\u0646\u0627\u0647\u062c": 5539, "\u062f\u0641\u0627\u0639\u064a": 5540, "\u0645\u0646\u0637\u0644\u0642": 5541, "\u0627\u0633\u062a\u0639\u0627\u0646": 5542, "##\u0632\u062d": 5543, "\u0641\u062e\u0631": 5544, "##\u0648\u0628\u0649": 5545, "\u0645\u0641\u0631\u0648\u0636": 5546, "\u0645\u0641\u0631\u062f": 5547, "\u0631\u0632\u0642": 5548, "\u064a\u062a\u0648\u0644\u0649": 5549, "\u0627\u062e\u062a\u0641": 5550, "\u062f\u0627\u0646": 5551, "\u062a\u0642\u0627\u0644\u064a\u062f": 5552, "\u064a\u062f\u0644": 5553, "\u0645\u0646\u0627\u0635\u0628": 5554, "\u0628\u0631\u062a\u063a\u0627\u0644\u064a": 5555, "\u062a\u0648\u0642\u064a\u0641": 5556, "\u0628\u0627\u064a\u0631": 5557, "\u0634\u064a\u0648\u0639\u064a": 5558, "\u0625\u0646\u0630\u0627\u0631": 5559, "\u0642\u0646\u0627\u0628\u0644": 5560, "\u0645\u0641\u0627\u062c\u0623": 5561, "##\u062f\u0628": 5562, "\u0642\u0635\u064a\u0645": 5563, "\u062c\u062f\u0648\u0649": 5564, "\u0634\u0627\u064a": 5565, "\u0633\u0627": 5566, "\u064a\u0636\u0645\u0646": 5567, "\u0623\u062e\u0644\u0627\u0642": 5568, "\u0646\u0636\u0627\u0644": 5569, "68": 5570, "\u062a\u062d\u0631\u0631": 5571, "\u064a\u0633\u0627\u0631": 5572, "\u0647\u0627\u0631": 5573, "##\u0645\u062f\u0627\u062f": 5574, "\u064a\u0631\u062f": 5575, "\u062c\u0648\u0627\u0644": 5576, "##\u0648\u0646\u062f": 5577, "99": 5578, "\u062f\u0631\u0648\u0633": 5579, "\u0623\u0648\u0642\u0641": 5580, "##\u0648\u062d\u064a": 5581, "\u0634\u0641\u064a\u0642": 5582, "\u0622\u0646\u0630\u0627\u0643": 5583, "\u062b\u0648\u0627\u0631": 5584, "\u0632\u0631\u0639": 5585, "\u0641\u0631\u0632": 5586, "\u0645\u0631\u0643\u0632\u0649": 5587, "\u062a\u0646\u0641\u0630": 5588, "\u0623\u0648\u0627\u0645\u0631": 5589, "\u0623\u0631\u0648\u0627\u062d": 5590, "\u062a\u0631\u0627": 5591, "##\u0645\u062f\u064a": 5592, "\u0647\u0631\u0648\u0628": 5593, "\u0646\u0648\u0627\u0641": 5594, "##\u062c\u0627\u0621": 5595, "\u0645\u0639\u0627\u0642": 5596, "\u0636\u0648\u0627\u0628\u0637": 5597, "\u0643\u0646\u062f\u064a": 5598, "##\u062f\u0631\u0627\u0644\u064a": 5599, "\u0639\u0635\u0628\u064a": 5600, "\u064a\u062a\u0627\u0628\u0639": 5601, "\u064a\u0642\u0636\u064a": 5602, "59": 5603, "##\u0639\u064a\u0645": 5604, "\u0623\u0634\u062c\u0627\u0631": 5605, "\u0645\u0639\u0627\u062f\u0644": 5606, "##\u062a\u064a\u0645": 5607, "\u062c\u0646\u064a\u0641": 5608, "191": 5609, "\u0631\u0645\u064a": 5610, "\u0645\u062a\u062a\u0627\u0644\u064a": 5611, "76": 5612, "\u062a\u0648\u0632\u0639": 5613, "##\u0627\u0645\u0649": 5614, "\u0645\u0636\u0649": 5615, "\u0645\u0634\u062c\u0639": 5616, "\u0623\u0628\u0639\u062f": 5617, "\u0642\u064a\u0648\u062f": 5618, "##\u0631\u062e": 5619, "\u0623\u0644\u0628\u0648\u0645": 5620, "\u0645\u0648\u0636\u0648\u0639\u064a": 5621, "\u0645\u0647\u0644": 5622, "\u062a\u0648\u0631\u0637": 5623, "\u062f\u064a\u0641\u064a\u062f": 5624, "\u0648\u062c\u0628": 5625, "\u0623\u0631\u062c\u0646\u062a\u064a\u0646\u064a": 5626, "##\u0638\u0646": 5627, "\u062a\u0639\u0627\u0637\u064a": 5628, "\u064a\u0647\u0645": 5629, "\u0648\u064a\u0644": 5630, "\u0623\u0628\u0639\u0627\u062f": 5631, "\u0645\u0643\u0627\u0633\u0628": 5632, "\u0632\u0648\u0631": 5633, "\u0645\u0631\u062d": 5634, "\u0645\u0641\u062a\u0634": 5635, "\u0645\u0648\u0632\u0639": 5636, "\u0645\u0633\u062a\u0648\u0627": 5637, "03": 5638, "##\u0632\u0649": 5639, "\u0642\u0631\u0636": 5640, "\u0644\u0648\u0644\u0627": 5641, "\u0646\u062c\u0631\u0627\u0646": 5642, "\u0627\u0646\u0642\u0637\u0627\u0639": 5643, "192": 5644, "\u062e\u0635\u0645": 5645, "\u064a\u062d\u062a\u0648\u064a": 5646, "\u0633\u0645\u0627\u0639": 5647, "\u0623\u0643\u0644": 5648, "\u062a\u0641\u0642\u062f": 5649, "\u0643\u0627\u0631\u0644": 5650, "\u0631\u0648\u0627\u0626\u064a": 5651, "\u062d\u0635\u064a\u0644": 5652, "\u064a\u062a\u062e\u0630": 5653, "\u064a\u0646\u062a\u0647\u064a": 5654, "\u062a\u062a\u0639\u0631\u0636": 5655, "\u0628\u0648\u062a\u064a\u0646": 5656, "\u0645\u064a\u062b": 5657, "\u0639\u0644\u0627\u0648": 5658, "\u0648\u0635": 5659, "\u0648\u0641\u064a": 5660, "\u0627\u0633\u062a\u0647\u062f\u0627\u0641": 5661, "\u0627\u0628\u062a\u0639\u0627\u062f": 5662, "\u0642\u0635\u0648\u0631": 5663, "##\u062a\u0646\u064a": 5664, "\u0627\u0644\u0623": 5665, "\u062f\u0627\u064a": 5666, "\u0639\u0641\u0648": 5667, "\u062a\u0637\u0644\u0628": 5668, "##\u062a\u0641\u0644": 5669, "\u062a\u0648\u0627\u0641\u0631": 5670, "\u0645\u0631\u0633\u064a": 5671, "\u062a\u0639\u0637\u064a": 5672, "\u0636\u0631\u064a\u0628": 5673, "\u0634\u062a\u0649": 5674, "##is": 5675, "\u062e\u0632\u0627\u0646": 5676, "\u062a\u0641\u0631\u0636": 5677, "\u0645\u0646\u062a\u0634\u0631": 5678, "\u062a\u0647\u0646\u0626": 5679, "\u062d\u0631\u0627\u0645": 5680, "\u0645\u0635\u062f": 5681, "##\u0627\u062b\u064a": 5682, "\u0647\u062f\u0645": 5683, "\u0634\u0628\u0627\u0646": 5684, "120": 5685, "\u0634\u062c\u0627\u0639": 5686, "\u0646\u0632\u0648\u0644": 5687, "01": 5688, "\u0644\u062d\u0648\u0645": 5689, "\u0637\u0627\u0647\u0631": 5690, "##\u062f\u064a\u0633": 5691, "\u0645\u0628\u0639": 5692, "\u064a\u062b\u064a\u0631": 5693, "\u0645\u0648\u0635\u0644": 5694, "\u0623\u0642\u0628\u0627\u0637": 5695, "##\u062f\u0627\u0646": 5696, "\u062a\u0631\u0641\u064a\u0647\u064a": 5697, "##\u0631\u0627\u062f": 5698, "\u0625\u0642\u0646\u0627\u0639": 5699, "\u0645\u0648\u0627\u0647\u0628": 5700, "\u062a\u0634\u062e\u064a\u0635": 5701, "\u0647\u0646\u062f\u0633\u064a": 5702, "\u0646\u0639\u0645\u0644": 5703, "##\u0627\u0648\u064a\u0646": 5704, "\u0628\u0644\u0648\u063a": 5705, "\u0628\u0635\u0631": 5706, "\u0646\u0648\u0647": 5707, "\u0639\u0627\u0637\u0644": 5708, "\u0645\u0639\u0644\u0642": 5709, "\u0641\u0642\u0631\u0627\u0621": 5710, "\u0630\u0645": 5711, "\u062a\u0634\u0643\u064a\u0644\u064a": 5712, "\u064a\u0641\u064a\u062f": 5713, "1998": 5714, "\u0645\u0646\u0634\u0648\u0631": 5715, "\u0631\u062c\u0628": 5716, "##\u0645\u0627\u062c": 5717, "\u062a\u0639\u0637\u064a\u0644": 5718, "\u0627\u0642\u062a\u062d\u0627\u0645": 5719, "\u0633\u0627\u0628": 5720, "\u0623\u062d\u0627\u062f\u064a": 5721, "\u062a\u0648\u064a\u062a\u0631": 5722, "\u064a\u062a\u0641": 5723, "\u0646\u0628\u0627\u062a": 5724, "\u062a\u0633\u0627\u0621\u0644": 5725, "\u0637\u0644\u0639": 5726, "##\u0627\u062d\u0638": 5727, "##\u0642\u0630": 5728, "\u0645\u0641\u0643\u0631": 5729, "\u064a\u0627\u0646": 5730, "\u062a\u0645\u0646\u0639": 5731, "\u0647\u0631\u0628": 5732, "\u0644\u062d\u0645": 5733, "\u0633\u062a\u0627\u0631": 5734, "\u064a\u0633\u064a\u0631": 5735, "\u0645\u0642\u0635": 5736, "\u0627\u0646\u0646\u064a": 5737, "##\u0647\u0645\u0627\u0644": 5738, "\u0631\u0628\u0627\u0639\u064a": 5739, "\u0634\u062c\u0631": 5740, "\u062a\u0643\u0634\u0641": 5741, "\u062d\u0633\u0646\u064a": 5742, "\u0628\u0644\u0627": 5743, "\u062a\u0631\u0628\u0637": 5744, "\u0646\u0633\u062a\u0637\u064a\u0639": 5745, "\u062d\u0633\u0627\u0633\u064a": 5746, "##\u0648\u0634\u064a": 5747, "\u0625\u0646\u0627\u062b": 5748, "\u0642\u0646\u0628\u0644": 5749, "\u062a\u0631\u0633\u064a": 5750, "\u0628\u0636": 5751, "\u0646\u0638\u0627\u0645\u064a": 5752, "\u0625\u064a\u0641": 5753, "\u0631\u0648\u0627\u062f": 5754, "##\u0628\u0627": 5755, "\u062d\u0630": 5756, "\u062a\u0646\u062a\u0638\u0631": 5757, "\u064a\u0627\u0633\u064a\u0646": 5758, "71": 5759, "\u0639\u0631\u064a\u0642": 5760, "\u0631\u0641\u0642": 5761, "\u0628\u0627\u0637\u0646": 5762, "\u0645\u0646\u0627\u0648\u0631": 5763, "\u0623\u062c\u0645\u0644": 5764, "##\u0648\u062f\u0639": 5765, "\u062c\u0644\u064a": 5766, "\u0625\u062c\u0645\u0627\u0639": 5767, "\u0645\u0642\u062f\u0631": 5768, "\u064a\u062a\u062d\u0645\u0644": 5769, "\u0645\u0633\u062a\u0642\u0631": 5770, "##\u0633\u0639\u064a\u062f": 5771, "\u062f\u0645\u0627\u0631": 5772, "\u0639\u062b\u0645\u0627\u0646\u064a": 5773, "\u0623\u062e\u0648": 5774, "\u0645\u062a\u0636\u0631\u0631": 5775, "\u062a\u062f\u062e\u064a\u0646": 5776, "##\u0642\u0635": 5777, "##\u0648\u063a\u0627\u0646": 5778, "143": 5779, "\u0634\u0631\u064a\u062d": 5780, "\u0642\u064a\u0644": 5781, "\u0628\u0636\u0627\u0626\u0639": 5782, "\u062a\u0637\u0631\u062d": 5783, "\u0646\u0627\u062f": 5784, "\u062d\u0645\u064a": 5785, "\u0645\u062c\u0645\u0644": 5786, "\u0639\u0645\u0627\u0644\u064a": 5787, "\u062a\u0642\u0648\u062f": 5788, "73": 5789, "\u062c\u0646\u0628": 5790, "\u064a\u0642\u0627\u0631\u0628": 5791, "\u0646\u0645\u0627\u0630\u062c": 5792, "\u0645\u062c\u064a\u062f": 5793, "\u062f\u0645\u062c": 5794, "\u0645\u062a\u0648\u0627\u062c\u062f": 5795, "74": 5796, "\u0625\u062d\u064a": 5797, "##it": 5798, "##\u0641\u0641": 5799, "\u0633\u062d": 5800, "\u062a\u0642\u064a\u0645": 5801, "\u064a\u062a\u0639\u064a\u0646": 5802, "\u0625\u0633\u062a\u0627\u062f": 5803, "\u062a\u0641\u064a\u062f": 5804, "\u062c\u0646\u0627\u064a": 5805, "\u0642\u0627\u0633\u064a": 5806, "\u0647\u0627\u0634\u0645": 5807, "\u0641\u0642\u064a\u0631": 5808, "\u0645\u0645\u0644": 5809, "\u0641\u0636\u064a\u0644": 5810, "\u062d\u064a\u062f\u0631": 5811, "\u0628\u0648\u0631\u0633\u0639\u064a\u062f": 5812, "\u0645\u062d\u0627\u0644": 5813, "\u0623\u0641\u0639\u0627\u0644": 5814, "\u0645\u062e\u062a\u0628\u0631": 5815, "\u0623\u0639\u0642\u0627\u0628": 5816, "\u0644\u064a\u0648\u0646": 5817, "\u0641\u064a\u0646": 5818, "\u0645\u0648\u0627\u0643\u0628": 5819, "\u0645\u0647\u062f": 5820, "\u0644\u0627\u062a": 5821, "\u062d\u0631\u0642": 5822, "\u0632\u0647\u0631\u0627\u0646\u064a": 5823, "\u063a\u0646\u0627\u0621": 5824, "\u0625\u0628\u0644\u0627\u063a": 5825, "\u062a\u0647\u062f\u0626": 5826, "\u0644\u0642\u064a": 5827, "\u0638\u0646": 5828, "##\u0644\u0632\u0645": 5829, "\u0625\u062d\u0635\u0627\u0626\u064a": 5830, "\u0645\u062a\u063a\u064a\u0631": 5831, "##\u0634\u0648\u0641": 5832, "\u0632\u0639\u0645\u0627\u0621": 5833, "\u0645\u0639\u062a\u062f": 5834, "##\u0628\u0631\u0627": 5835, "\u0627\u062c\u062a\u0645\u0639": 5836, "\u062a\u0641\u0627\u0624\u0644": 5837, "\u0645\u0644\u0627\u0643": 5838, "\u0642\u0635\u0627\u0626\u062f": 5839, "\u0623\u0642\u0644\u064a": 5840, "##\u0645\u0648\u0644": 5841, "\u0628\u0636\u0639": 5842, "\u0625\u062e\u0644\u0627\u0621": 5843, "\u0643\u0627\u062a": 5844, "##ra": 5845, "\u064a\u062a\u0648\u0642\u0641": 5846, "\u062a\u0642\u0644\u064a\u0635": 5847, "\u064a\u062a\u064a\u062d": 5848, "\u064a\u0623\u062a\u0649": 5849, "\u0645\u062a\u0628\u0627\u062f\u0644": 5850, "\u0646\u0623\u0645\u0644": 5851, "\u0628\u0646\u062f\u0631": 5852, "\u062a\u0633\u062a\u0636\u064a\u0641": 5853, "\u062a\u0638\u0644": 5854, "\u0627\u0628\u062a\u062f\u0627\u0621": 5855, "##\u0644\u0646\u062f\u064a": 5856, "##\u062c\u0649": 5857, "\u0631\u0648\u062a": 5858, "\u0625\u062e\u0628": 5859, "##\u0648\u0633\u062a": 5860, "\u0625\u062d\u0631\u0627\u0632": 5861, "\u0627\u0646\u062a\u062d\u0627\u0631\u064a": 5862, "\u0625\u0628\u0639\u0627\u062f": 5863, "##\u0648\u064a\u0647": 5864, "\u062a\u0648\u0644": 5865, "\u0623\u0646\u0641": 5866, "\u062b\u0648": 5867, "\u0635\u0631\u064a\u062d": 5868, "\u062a\u0639\u0643\u0633": 5869, "##\u0637\u0641\u0627\u0621": 5870, "\u0625\u0628\u0642\u0627\u0621": 5871, "\u064a\u0641\u062a\u062d": 5872, "\u062e\u0636\u0631\u0627\u0621": 5873, "\u0623\u063a\u0631\u0627\u0636": 5874, "\u0628\u0637\u0631\u064a\u0631\u0643": 5875, "\u0634\u0627\u0637\u0626": 5876, "78": 5877, "\u062a\u0648\u062c": 5878, "\u0645\u0648\u0627\u0639\u064a\u062f": 5879, "##\u0628\u0627\u0628": 5880, "\u062a\u0623\u0644\u0642": 5881, "\u0627\u0648\u0628": 5882, "\u062a\u0623\u0634\u064a\u0631": 5883, "\u0645\u062c\u0627\u0646\u064a": 5884, "\u0635\u062d\u0641\u0649": 5885, "\u0646\u0639\u064a\u0634": 5886, "\u062a\u0631\u0645\u064a\u0645": 5887, "\u0623\u0637\u0644\u0633\u064a": 5888, "\u0645\u0633\u0645": 5889, "\u0645\u0631\u064a\u0645": 5890, "\u0627\u0633\u062a\u0628\u0639\u0627\u062f": 5891, "\u062f\u0645\u0648\u064a": 5892, "\u064a\u062d\u0631": 5893, "\u0631\u0627\u0628": 5894, "\u0632\u064a\u062a\u0648\u0646": 5895, "\u0627\u0633\u062a\u0642\u0637\u0627\u0628": 5896, "\u0639\u0637\u064a": 5897, "\u062d\u0635\u0627\u0646": 5898, "\u0639\u0645\u064a\u0644": 5899, "\u0641\u0631\u0627\u0646\u0643": 5900, "\u064a\u0631\u062c\u0639": 5901, "\u064a\u062a\u0642": 5902, "\u064a\u062a\u062f": 5903, "\u062a\u0639\u0628\u0631": 5904, "\u062a\u0631\u0641\u0639": 5905, "\u0623\u0642\u0648\u0627\u0644": 5906, "\u0647\u0627\u062c": 5907, "\u0627\u062e\u062a\u0631\u0627\u0642": 5908, "\u062d\u0631\u064a\u0635": 5909, "##\u0633\u064a\u062f": 5910, "\u0646\u0627\u0641\u0630": 5911, "##\u0627\u0632\u0631": 5912, "\u0623\u0645\u062b\u0627\u0644": 5913, "\u0647\u062a": 5914, "\u0625\u0639\u0627\u0642": 5915, "\u062a\u0631\u0648\u064a": 5916, "\u0647\u062f\u062f": 5917, "\u062c\u0627\u0632\u0627\u0646": 5918, "\u0627\u0644\u0645\u0627\u0646\u064a": 5919, "\u0625\u0647\u0645\u0627\u0644": 5920, "600": 5921, "##\u0643\u0627\u0631\u064a": 5922, "\u062a\u0628\u0648\u0643": 5923, "##\u062f\u064a\u0639": 5924, "\u0645\u062b\u0627\u0644\u064a": 5925, "\u062a\u062a\u062d\u062f\u062b": 5926, "\u062f\u0639\u0627\u064a": 5927, "\u0627\u0633\u062a\u0645\u0627\u0639": 5928, "\u0634\u0631\u0627\u0626\u062d": 5929, "\u0643\u0631\u0628": 5930, "\u0639\u0627\u0626\u0644\u064a": 5931, "\u062d\u0642\u0644": 5932, "\u0633\u0627\u062e": 5933, "\u0625\u0637": 5934, "\u0623\u0633\u0645\u0627\u0643": 5935, "\u0645\u0631\u0627\u0631": 5936, "\u0625\u064a\u0627\u0628": 5937, "\u0631\u0643\u0632": 5938, "\u062a\u062a\u0645\u064a\u0632": 5939, "\u062c\u0631\u0627\u062d\u064a": 5940, "\u0631\u0648\u0646\u0627\u0644\u062f": 5941, "\u0627\u0633\u062a\u0639\u0631\u0636": 5942, "\u0647\u0627\u062c\u0645": 5943, "\u062e\u064a\u0627\u0644": 5944, "\u0632\u0646": 5945, "\u0627\u0633\u062a\u0645\u0639": 5946, "\u0647\u062f\u064a": 5947, "\u0623\u063a\u0630\u064a": 5948, "\u0647\u062f\u0627\u0641": 5949, "\u0645\u0633\u062a\u0648\u0631\u062f": 5950, "\u0631\u0627\u062f": 5951, "##\u0627\u0631\u064a\u0641": 5952, "\u064a\u0648\u0636\u062d": 5953, "\u0645\u0644\u0627\u0626\u0645": 5954, "\u0633\u0648\u0644": 5955, "\u064a\u0633\u064a": 5956, "\u062f\u0645\u0648\u0639": 5957, "\u0627\u0642\u062a\u0631\u0627\u0628": 5958, "1996": 5959, "\u0627\u0637\u0644\u0639": 5960, "\u0639\u062f\u0627": 5961, "\u0645\u0644\u062d\u0642": 5962, "\u0625\u0644\u062d": 5963, "\u064a\u062e\u0636\u0639": 5964, "##\u062b\u064a\u0648\u0628\u064a": 5965, "\u0622\u0644\u0627\u0645": 5966, "\u0623\u0631\u062f\u0648\u063a\u0627\u0646": 5967, "\u062a\u062f\u0631\u064a\u062c\u064a": 5968, "\u0628\u0627\u062d": 5969, "\u0644\u0627\u0639\u0628\u0648": 5970, "\u062a\u0631\u0627\u062e": 5971, "\u0645\u0646\u0632\u0644\u064a": 5972, "\u0623\u0636\u0639": 5973, "\u0634\u0643\u0627\u0648\u0649": 5974, "\u0627\u0643\u062a\u062a\u0627\u0628": 5975, "\u064a\u0648\u0646\u0633": 5976, "\u0625\u062d\u062f\u0627\u062b": 5977, "##\u0644\u0643\u064a": 5978, "\u0627\u0646\u062a\u0634\u0631": 5979, "\u0625\u0633\u0644\u0627\u0645\u0649": 5980, "\u064a\u062a\u062d\u0648\u0644": 5981, "\u0627\u0633\u062a\u064a\u0639\u0627\u0628": 5982, "##\u0637\u0648\u0631": 5983, "\u0631\u0636": 5984, "\u062a\u0645\u0627\u0631\u0633": 5985, "##\u0633\u0628\u0642": 5986, "\u0627\u0644\u0628\u0631": 5987, "\u0625\u0646\u062f\u0648\u0646\u064a\u0633\u064a": 5988, "\u0645\u0638": 5989, "##\u0637\u0627\u0641": 5990, "##\u063a\u0627": 5991, "\u0646\u0646\u062a": 5992, "\u0625\u062d\u0628\u0627\u0637": 5993, "\u064a\u0631\u0628": 5994, "\u062a\u0647\u062f\u062f": 5995, "\u0645\u0644\u0627": 5996, "##\u0627\u0644\u0644\u0647": 5997, "\u0623\u0639\u0645\u0627\u0631": 5998, "\u0645\u0633\u0627\u0643\u0646": 5999, "\u0645\u064a\u0644\u064a\u0634\u064a": 6000, "98": 6001, "\u0627\u0644\u064a\u0627\u0633": 6002, "\u0645\u0631\u0627\u0639": 6003, "\u0633\u0644\u0648\u0643\u064a": 6004, "\u0623\u0646\u0642\u0631": 6005, "\u0633\u0627\u0644": 6006, "\u0641\u0637\u0631": 6007, "\u062a\u0639\u0645\u064a\u0645": 6008, "\u062a\u0642\u0627\u0639\u062f": 6009, "\u062d\u0633\u0646\u0649": 6010, "\u0625\u0633\u0627\u0621": 6011, "\u0635\u063a\u0631": 6012, "\u0623\u0648\u0633\u0639": 6013, "\u064a\u0639\u0627\u062f\u0644": 6014, "##\u0643\u0648\u0643": 6015, "82": 6016, "\u0643\u0627\u062b\u0648\u0644\u064a": 6017, "\u0627\u0648\u0631": 6018, "\u062a\u0637\u0631\u0641": 6019, "\u062a\u062a\u062d\u0648\u0644": 6020, "\u0645\u0635\u0645\u0645": 6021, "\u0645\u0643\u062a\u0648\u0628": 6022, "\u0623\u0634\u0631": 6023, "##\u0631\u064a\u0628\u064a": 6024, "\u0642\u0631\u0623": 6025, "\u0623\u062f\u0627\u0626": 6026, "69": 6027, "\u0645\u0634\u064a": 6028, "\u062a\u062a\u0648\u0644\u0649": 6029, "\u064a\u0641\u0636\u0644": 6030, "\u0645\u0645\u062a\u0644\u0643": 6031, "\u0645\u0642\u0648\u0645": 6032, "\u062a\u062f\u0627\u0628\u064a\u0631": 6033, "\u062d\u0627\u062c\u0632": 6034, "\u062e\u0627\u0644\u064a": 6035, "##\u063a\u0631\u0642": 6036, "\u0642\u0645\u062d": 6037, "\u0627\u0646\u0634": 6038, "\u0634\u0631\u0643\u0627\u0621": 6039, "\u0627\u062a\u0628\u0627\u0639": 6040, "\u0628\u0627\u0634": 6041, "\u0631\u0633\u0645\u0649": 6042, "\u0627\u0633\u062a\u0628\u062f\u0627\u0644": 6043, "\u0645\u062d\u0633": 6044, "\u0641\u0627\u064a\u0632": 6045, "##\u0627\u0644\u064a\u0645": 6046, "\u0625\u062d\u0633\u0627\u0633": 6047, "\u0646\u0645\u0637": 6048, "\u062f\u0645\u0631": 6049, "\u0645\u0633\u062a\u062d\u064a\u0644": 6050, "\u0627\u0646\u0641\u062a\u0627\u062d": 6051, "\u0643\u0648\u0643\u0628": 6052, "\u0647\u0627\u0631\u0628": 6053, "\u0627\u0633\u062a\u0646\u0627\u062f": 6054, "\u0636\u062e": 6055, "##\u0639\u0643\u0633": 6056, "\u062a\u062d\u0635\u064a\u0644": 6057, "\u062f\u0628\u0627\u0628": 6058, "\u0645\u0631\u0627\u0639\u0627": 6059, "\u0639\u0642\u0648\u0644": 6060, "\u062c\u0644\u0628": 6061, "\u062c\u064a\u0645": 6062, "\u0645\u0624\u0627\u0645\u0631": 6063, "\u0635\u0627\u0646\u0639": 6064, "\u062e\u0648\u0631\u064a": 6065, "\u0633\u0627\u0626\u0644": 6066, "\u062a\u0631\u062d": 6067, "\u064a\u0641\u0631\u0636": 6068, "##\u0628\u0627\u0646": 6069, "##\u063a\u0627\u0645": 6070, "\u0645\u0633\u0628\u0648\u0642": 6071, "\u0623\u0636\u062d": 6072, "\u0628\u0644\u064a": 6073, "\u0645\u0633\u062a\u062f\u0627\u0645": 6074, "\u064a\u062f\u0631\u0633": 6075, "\u0627\u0632\u062f\u0647\u0627\u0631": 6076, "##\u0644\u062d\u0642": 6077, "\u0646\u062c\u0644": 6078, "\u0623\u062a\u0631": 6079, "\u0641\u0627\u0636\u0644": 6080, "\u062a\u062c\u0646\u064a": 6081, "88": 6082, "\u0625\u0639\u062c\u0627\u0628": 6083, "\u0645\u0635\u062f\u0627\u0642\u064a": 6084, "\u0623\u0635\u064a\u0644": 6085, "\u0625\u062d\u064a\u0627\u0621": 6086, "\u0631\u0648\u0645\u0627\u0646\u064a": 6087, "\u064a\u062d\u0642": 6088, "\u064a\u062f\u0648\u0631": 6089, "\u0633\u0627\u062d\u0644\u064a": 6090, "\u064a\u0633\u062a\u0639": 6091, "\u0623\u0645\u0633\u064a": 6092, "81": 6093, "\u064a\u0624\u0645\u0646": 6094, "\u0627\u0646\u062d": 6095, "\u062d\u062c\u0627\u0631": 6096, "\u0623\u062e\u0635": 6097, "\u062f\u0627\u0646\u064a": 6098, "##\u0627\u062f\u064a\u0646": 6099, "\u0623\u062f\u064a\u0628": 6100, "\u062b\u0645\u0627\u0646": 6101, "\u0645\u0628\u0646\u064a": 6102, "\u062a\u0644\u0645\u064a": 6103, "\u063a\u0631\u0627\u0631": 6104, "\u0625\u0642\u0627\u0644": 6105, "\u0646\u0627\u062c\u0645": 6106, "##\u0627\u0646\u0648": 6107, "\u0623\u0644\u064a": 6108, "\u0633\u0643\u0631\u064a": 6109, "##\u062b\u064a\u0641": 6110, "\u062a\u0636\u064a": 6111, "\u064a\u062d\u062a\u0644": 6112, "\u0645\u062f\u0646\u0649": 6113, "\u062a\u0639\u062f\u062f": 6114, "\u0623\u0635\u063a\u0631": 6115, "\u062a\u0637\u0644\u0642": 6116, "\u062a\u0643\u062b\u064a\u0641": 6117, "\u0637\u064a\u0644": 6118, "\u0633\u0628\u0627\u062d": 6119, "\u0644\u0642": 6120, "##\u0642\u0627\u0639": 6121, "\u0646\u062c\u0627": 6122, "\u0623\u0645\u0647": 6123, "\u0631\u0627\u0641\u0636": 6124, "\u0648\u0633\u0639": 6125, "\u0643\u0628\u062f": 6126, "84": 6127, "\u064a\u0633\u062a\u0642\u0628\u0644": 6128, "96": 6129, "\u0645\u0632\u0627\u064a\u0627": 6130, "##\u0636\u0627\u0626": 6131, "\u0625\u0646\u062a": 6132, "\u062f\u0641\u0646": 6133, "\u0631\u0642\u0645\u064a": 6134, "\u062a\u062c\u0631\u0649": 6135, "\u0643\u0627\u0631\u064a": 6136, "\u0645\u0639\u0631\u0648\u0636": 6137, "\u0647\u064a\u0645\u0646": 6138, "\u0642\u0648\u0627\u0626\u0645": 6139, "\u0645\u0648\u0644\u062f": 6140, "\u062d\u0645\u0632": 6141, "\u0623\u0646\u0647\u0649": 6142, "\u062a\u0647\u064a\u0626": 6143, "\u0637\u0648\u0631": 6144, "##\u0636\u0646": 6145, "\u062a\u0635\u0627\u0639\u062f": 6146, "\u0647\u0648\u0644\u0646\u062f\u0627": 6147, "\u0645\u0635\u0646\u0641": 6148, "##\u0627\u064a\u062a": 6149, "\u0645\u0648\u0627\u0644\u064a\u062f": 6150, "\u0623\u0633\u064a\u0648\u0637": 6151, "\u0645\u0639\u0627\u0634": 6152, "\u0625\u0646\u062c\u0627\u062d": 6153, "\u0637\u0644\u0627\u0642": 6154, "\u0633\u0627\u0626\u062d": 6155, "\u0645\u062d\u0627\u0645\u0649": 6156, "\u0625\u0641\u0631\u064a\u0642\u064a": 6157, "##\u0643\u0643": 6158, "##\u0639\u0646": 6159, "##\u064a\u0644\u0627\u0621": 6160, "\u0645\u062c\u0631\u0645": 6161, "\u0641\u0627\u0644": 6162, "\u0633\u0631\u0648\u0631": 6163, "\u0643\u062a\u0627\u0626\u0628": 6164, "\u062e\u062a\u0645": 6165, "86": 6166, "\u064a\u0641\u0643\u0631": 6167, "\u062a\u0627\u064a\u0644": 6168, "\u064a\u0648\u0641": 6169, "\u062a\u0646\u062a\u062c": 6170, "##\u0642\u064a\u062f": 6171, "\u0645\u0641\u0642\u0648\u062f": 6172, "\u0627\u062a\u0635\u0644": 6173, "\u064a\u062a\u0628\u0639": 6174, "\u064a\u0646\u062a\u062c": 6175, "\u0639\u0642\u0627\u0628": 6176, "\u0635\u0644\u064a\u0628": 6177, "##\u0636\u0628": 6178, "\u0623\u062f\u0627": 6179, "\u0633\u0627\u062e\u0646": 6180, "##\u062b\u0645": 6181, "\u062a\u0641\u062a\u062d": 6182, "\u062a\u0623\u0645\u0644": 6183, "##\u0643\u0627\u0644\u064a": 6184, "\u0645\u0627\u062c": 6185, "##\u0648\u0646\u064a\u0627": 6186, "\u0634\u062a\u0627\u0621": 6187, "\u062d\u0645\u0635": 6188, "\u064a\u062a\u0647\u0645": 6189, "\u0628\u0631\u0648\u0646": 6190, "\u0623\u0646\u0648\u0631": 6191, "\u0631\u0645\u0632\u064a": 6192, "\u0641\u0635\u0648\u0644": 6193, "\u0631\u062a\u0628": 6194, "\u0623\u0643\u062b\u0631\u064a": 6195, "\u064a\u062b\u0628\u062a": 6196, "\u062a\u062c\u0645\u064a": 6197, "\u064a\u062d\u0638\u0649": 6198, "\u0639\u0627\u0628\u062f": 6199, "\u0645\u062f\u0639\u0648\u0645": 6200, "\u0639\u0630": 6201, "\u0628\u0633": 6202, "\u062e\u0631\u064a\u0637": 6203, "\u062e\u0644\u0627\u0635": 6204, "\u0625\u063a\u0627\u062b": 6205, "\u0625\u064a\u0635\u0627\u0644": 6206, "\u0643\u0648\u0645\u064a": 6207, "\u0628\u0631\u062f": 6208, "\u062d\u0648\u0636": 6209, "\u0630\u0627": 6210, "##\u063a\u0631\u0633": 6211, "\u0639\u0636\u0644": 6212, "##\u0635\u0628": 6213, "\u062a\u0645\u062a\u062f": 6214, "\u0643\u0641\u064a\u0644": 6215, "\u0627\u064a\u0631": 6216, "\u0625\u0639\u0644\u0627\u0645\u0649": 6217, "\u062a\u0644\u064a\u0641\u0632\u064a\u0648\u0646": 6218, "\u064a\u0634\u0628\u0647": 6219, "\u0623\u0646\u0638\u0627\u0631": 6220, "\u062a\u0645\u0631\u062f": 6221, "\u0627\u0645\u062a\u0644\u0627\u0643": 6222, "\u0645\u062d\u0641": 6223, "##\u0633\u0631\u0627": 6224, "\u0645\u0628\u0639\u0648\u062b": 6225, "\u064a\u0623\u0645\u0644": 6226, "05": 6227, "\u062a\u062a\u0648\u064a\u062c": 6228, "\u064a\u0639\u0632\u0632": 6229, "\u062f\u0627\u0631\u0641\u0648\u0631": 6230, "\u0631\u0648\u0636": 6231, "##\u062e\u064a": 6232, "\u0645\u0633\u062a\u0647\u062f\u0641": 6233, "##\u0638\u0647\u0627\u0631": 6234, "\u0645\u062e\u0637": 6235, "\u0627\u0646\u0639\u0643\u0627\u0633": 6236, "\u062d\u0633\u0628\u0645\u0627": 6237, "\u0623\u0646\u0633": 6238, "\u064a\u0631\u0623\u0633": 6239, "##\u0639\u0627\u0634": 6240, "##\u0627\u0642\u0645": 6241, "\u064a\u0639\u0642": 6242, "##\u0633\u0627\u0621\u0644": 6243, "\u0648\u0639\u0648\u062f": 6244, "\u0625\u0635\u0644\u0627\u062d\u064a": 6245, "97": 6246, "\u064a\u0633\u0628\u0628": 6247, "\u062d\u0631\u0645\u0627\u0646": 6248, "\u062a\u0631\u0627\u062b\u064a": 6249, "\u0637\u0648\u0627\u0626\u0641": 6250, "##\u0628\u0648": 6251, "\u0632\u0645\u0644\u0627\u0621": 6252, "\u064a\u0634\u063a\u0644": 6253, "\u0627\u062d\u062a\u062c\u0627\u062c\u064a": 6254, "\u0645\u0631\u0648\u0627\u0646": 6255, "\u0645\u0639\u0642\u062f": 6256, "\u0628\u0644\u0637": 6257, "\u0634\u0631\u0637\u064a": 6258, "\u0632\u0644\u0632\u0627\u0644": 6259, "##\u0639\u0627": 6260, "\u0644\u064a\u0628\u0631\u0627\u0644\u064a": 6261, "\u062a\u0636\u062d\u064a": 6262, "##\u0633\u062a\u064a\u0631": 6263, "\u0628\u0631\u0632": 6264,
[...]
