{"version": "1.0", "truncation": null, "padding": null, "added_tokens": [{"id": 0, "special": true, "content": "[PAD]", "single_word": false, "lstrip": false, "rstrip": false, "normalized": false}, {"id": 1, "special": true, "content": "[UNK]", "single_word": false, "lstrip": false, "rstrip": false, "normalized": false}, {"id": 2, "special": true, "content": "[CLS]", "single_word": false, "lstrip": false, "rstrip": false, "normalized": false}, {"id": 3, "special": true, "content": "[SEP]", "single_word": false, "lstrip": false, "rstrip": false, "normalized": false}, {"id": 4, "special": true, "content": "[MASK]", "single_word": false, "lstrip": false, "rstrip": false, "normalized": false}, {"id": 6, "special": true, "content": "[\u0628\u0631\u064a\u062f]", "single_word": true, "lstrip": false, "rstrip": false, "normalized": true}, {"id": 7, "special": true, "content": "[\u0645\u0633\u062a\u062e\u062f\u0645]", "single_word": true, "lstrip": false, "rstrip": false, "normalized": true}, {"id": 5, "special": true, "content": "[\u0631\u0627\u0628\u0637]", "single_word": true, "lstrip": false, "rstrip": false, "normalized": true}], "normalizer": {"type": "BertNormalizer", "clean_text": true, "handle_chinese_chars": true, "strip_accents": null, "lowercase": true}, "pre_tokenizer": {"type": "BertPreTokenizer"}, "post_processor": {"type": "TemplateProcessing", "single": [{"SpecialToken": {"id": "[CLS]", "type_id": 0}}, {"Sequence": {"id": "A", "type_id": 0}}, {"SpecialToken": {"id": "[SEP]", "type_id": 0}}], "pair": [{"SpecialToken": {"id": "[CLS]", "type_id": 0}}, {"Sequence": {"id": "A", "type_id": 0}}, {"SpecialToken": {"id": "[SEP]", "type_id": 0}}, {"Sequence": {"id": "B", "type_id": 1}}, {"SpecialToken": {"id": "[SEP]", "type_id": 1}}], "special_tokens": {"[CLS]": {"id": "[CLS]", "ids": [2], "tokens": ["[CLS]"]}, "[SEP]": {"id": "[SEP]", "ids": [3], "tokens": ["[SEP]"]}}}, "decoder": {"type": "WordPiece", "prefix": "##", "cleanup": true}, "model": {"unk_token": "[UNK]", "continuing_subword_prefix": "##", "max_input_chars_per_word": 100, "vocab": {"[PAD]": 0, "[UNK]": 1, "[CLS]": 2, "[SEP]": 3, "[MASK]": 4, "[\u0631\u0627\u0628\u0637]": 5, "[\u0628\u0631\u064a\u062f]": 6, "[\u0645\u0633\u062a\u062e\u062f\u0645]": 7, "!": 8, "\"": 9, "#": 10, "$": 11, "%": 12, "'": 13, "(": 14, ")": 15, "*": 16, "+": 17, ",": 18, "-": 19, ".": 20, "0": 21, "1": 22, "2": 23, "3": 24, "4": 25, "5": 26, "6": 27, "7": 28, "8": 29, "9": 30, ":": 31, ";": 32, "<": 33, "=": 34, ">": 35, "?": 36, "@": 37, "A": 38, "B": 39, "C": 40, "D": 41, "E": 42, "F": 43, "G": 44, "H": 45, "I": 46, "J": 47, "K": 48, "L": 49, "M": 50, "N": 51, "O": 52, "P": 53, "Q": 54, "R": 55, "S": 56, "T": 57, "U": 58, "V": 59, "W": 60, "X": 61, "Y": 62, "Z": 63, "[": 64, "\\": 65, "]": 66, "^": 67, "_": 68, "`": 69, "a": 70, "b": 71, "c": 72, "d": 73, "e": 74, "f": 75, "g": 76, "h": 77, "i": 78, "j": 79, "k": 80, "l": 81, "m": 82, "n": 83, "o": 84, "p": 85, "q": 86, "r": 87, "s": 88, "t": 89, "u": 90, "v": 91, "w": 92, "x": 93, "y": 94, "z": 95, "{": 96, "|": 97, "}": 98, "~": 99, "\u00ab": 100, "\u00b7": 101, "\u00bb": 102, "\u060c": 103, "\u061b": 104, "\u061f": 105, "\u0621": 106, "\u0622": 107, "\u0623": 108, "\u0624": 109, "\u0625": 110, "\u0626": 111, "\u0627": 112, "\u0628": 113, "\u0629": 114, "\u062a": 115, "\u062b": 116, "\u062c": 117, "\u062d": 118, "\u062e": 119, "\u062f": 120, "\u0630": 121, "\u0631": 122, "\u0632": 123, "\u0633": 124, "\u0634": 125, "\u0635": 126, "\u0636": 127, "\u0637": 128, "\u0638": 129, "\u0639": 130, "\u063a": 131, "\u0641": 132, "\u0642": 133, "\u0643": 134, "\u0644": 135, "\u0645": 136, "\u0646": 137, "\u0647": 138, "\u0648": 139, "\u0649": 140, "\u064a": 141, "\u0653": 142, "\u0654": 143, "\u0655": 144, "\u0656": 145, "\u0657": 146, "\u0659": 147, "\u065a": 148, "\u065c": 149, "\u065d": 150, "\u065e": 151, "\u0660": 152, "\u0661": 153, "\u0662": 154, "\u0663": 155, "\u0664": 156, "\u0665": 157, "\u0666": 158, "\u0667": 159, "\u0668": 160, "\u0669": 161, "\u066a": 162, "\u066b": 163, "\u066c": 164, "\u0671": 165, "\u0672": 166, "\u0673": 167, "\u0674": 168, "\u06da": 169, "\u2013": 170, "\u2014": 171, "\u2018": 172, "\u2019": 173, "\u201c": 174, "\u201d": 175, "\u2026": 176, "##a": 177, "##p": 178, "##n": 179, "##d": 180, "##\u0627": 181, "##\u0644": 182, "##\u0631": 183, "##\u062c": 184, "##\u0648": 185, "##\u0646": 186, "##7": 187, "##0": 188, "##1": 189, "##4": 190, "##8": 191, "##\u0637": 192, "##\u064a": 193, "##\u062d": 194, "##\u0647": 195, "##\u062f": 196, "##\u0629": 197, "##\u0641": 198, "##\u0642": 199, "##\u062e": 200, "##\u0645": 201, "##f": 202, "##r": 203, "##i": 204, "##c": 205, "##\u0635": 206, "##\u063a": 207, "##\u0634": 208, "##\u0643": 209, "##h": 210, "##g": 211, "##\u0632": 212, "##\u0633": 213, "##6": 214, "##5": 215, "##9": 216, "##e": 217, "##u": 218, "##o": 219, "##l": 220, "##t": 221, "##q": 222, "##s": 223, "##\u0621": 224, "##\u0628": 225, "##j": 226, "##3": 227, "##\u062a": 228, "##\u0649": 229, "##\u0623": 230, "##\u0638": 231, "##\u0639": 232, "##\u0626": 233, "##2": 234, "##\u0636": 235, "##v": 236, "##\u062b": 237, "##\u0630": 238, "##V": 239, "##X": 240, "##M": 241, "##T": 242, "##S": 243, "##F": 244, "##I": 245, "##L": 246, "##O": 247, "##A": 248, "##b": 249, "##m": 250, "##C": 251, "##Z": 252, "##\u0625": 253, "##y": 254, "##R": 255, "##E": 256, "##\u0624": 257, "##k": 258, "##\u0622": 259, "##N": 260, "##H": 261, "##D": 262, "##x": 263, "##w": 264, "##G": 265, "##z": 266, "##J": 267, "##B": 268, "##\u0655": 269, "##U": 270, "##Y": 271, "##K": 272, "##P": 273, "##W": 274, "##Q": 275, "##\u0660": 276, "##\u0669": 277, "##\u0663": 278, "##\u0665": 279, "##\u0668": 280, "##\u0666": 281, "##\u0654": 282, "##\u0662": 283, "##\u0664": 284, "##\u0672": 285, "##\u0667": 286, "##\u0671": 287, "##\u0661": 288, "##\u0673": 289, "##\u0653": 290, "##\u0657": 291, "##\u0659": 292, "##\u065a": 293, "##\u0656": 294, "##\u065e": 295, "##\u065c": 296, "##\u065d": 297, "\u0627\u0644": 298, "##\u0627\u0644": 299, "##\u064a\u0629": 300, "\u0627\u0644\u0645": 301, "##\u0627\u062a": 302, "##\u0627\u0646": 303, "##\u0627\u0631": 304, "\u0641\u064a": 305, "\u0645\u0646": 306, "##\u064a\u0646": 307, "##\u0627\u0645": 308, "##\u0644\u0649": 309, "##\u0647\u0627": 310, "##\u064a\u0631": 311, "\u0648\u0627\u0644": 312, "\u0627\u0644\u062a": 313, "##\u0648\u0644": 314, "##\u0627\u062f": 315, "##\u0631\u0627": 316, "\u0627\u0644\u0639": 317, "##\u0631\u064a": 318, "##\u0648\u0646": 319, "\u0627\u0644\u0623": 320, "##\u0645\u0627": 321, "##\u0633\u062a": 322, "\u0639\u0644\u0649": 323, "##\u0627\u0628": 324, "##\u0646\u0627": 325, "##\u0644\u0627": 326, "##\u0644\u064a": 327, "##\u0648\u0631": 328, "\u0644\u0644": 329, "##\u0648\u0627": 330, "\u0623\u0646": 331, "\u0627\u0644\u0633": 332, "##\u064a\u0627": 333, "##\u064a\u062f": 334, "\u0627\u0644\u0627": 335, "##\u0647\u0645": 336, "\u0627\u0644\u062d": 337, "\u0627\u0646": 338, "##\u0639\u062f": 339, "\u0627\u0644\u0642": 340, "\u0628\u0627\u0644": 341, "##\u0648\u0645": 342, "\u0627\u0644\u062f": 343, "##\u0627\u0626": 344, "##\u0627\u0621": 345, "\u0627\u0644\u062c": 346, "\u0627\u0644\u0634": 347, "##\u0631\u0628": 348, "##\u064a\u0644": 349, "##\u0627\u0641": 350, "\u0627\u0644\u0628": 351, "\u0639\u0646": 352, "##\u0644\u0643": 353, "\u0645\u0639": 354, "##\u0648\u062f": 355, "##\u0631\u0629": 356, "\u0627\u0644\u0641": 357, "##\u064a\u0633": 358, "##\u0639\u0629": 359, "\u0625\u0644\u0649": 360, "##\u0645\u0646": 361, "##\u062d\u062f": 362, "##\u0631\u0643": 363, "##\u0642\u062f": 364, "\u0627\u0644\u0646": 365, "\u0648\u062a": 366, "\u0647\u0630": 367, "##\u0645\u0629": 368, "\u0627\u0644\u0625": 369, "##\u0642\u0629": 370, "##\u0645\u0644": 371, "##\u0627\u0639": 372, "##\u0648\u0642": 373, "\u0648\u0623": 374, "\u0627\u0644\u0630": 375, "\u0627\u0644\u062a\u064a": 376, "\u0627\u0644\u062e": 377, "##\u0633\u0628": 378, "##\u062a\u0645": 379, "\u0627\u0644\u0643": 380, "##\u064a\u0645": 381, "##\u0631\u0648": 382, "##\u0644\u0629": 383, "##\u0639\u0644": 384, "\u0627\u0644\u0635": 385, "\u0641\u0649": 386, "##\u0628\u0631": 387, "##\u0627\u0631\u0629": 388, "##\u0641\u064a": 389, "##\u0628\u064a": 390, "\u0644\u0627": 391, "##\u0645\u062f": 392, "\u0627\u0644\u0648": 393, "\u0645\u0627": 394, "##\u0628\u0644": 395, "##\u062d\u062a": 396, "\u0627\u0644\u0631": 397, "##\u0642\u064a": 398, "##\u0647\u062f": 399, "##\u0628\u062f": 400, "\u0627\u0644\u0649": 401, "\u0645\u062d": 402, "\u0627\u0644\u0644": 403, "##\u062a\u0647": 404, "\u0648\u0627": 405, "##\u0633\u064a": 406, "\u0644\u0645": 407, "##\u0648\u064a": 408, "##\u062c\u0644": 409, "##\u0643\u0646": 410, "##\u0644\u0645": 411, "##\u0635\u0631": 412, "##\u0628\u0627": 413, "##\u064a\u0639": 414, "\u0648\u0642": 415, "##\u0626\u064a\u0633": 416, "##\u0644\u0627\u0644": 417, "\u0643\u0627\u0646": 418, "##\u0641\u0627": 419, "##\u0645\u0631": 420, "##\u0646\u064a": 421, "##\u062a\u064a": 422, "##\u0633\u0645": 423, "\u0648\u0645": 424, "\u0627\u0644\u0630\u064a": 425, "\u0627\u0644\u0645\u062a": 426, "\u0627\u0644\u062b": 427, "##\u062d\u0629": 428, "##\u0633\u0627": 429, "\u0627\u0633\u062a": 430, "##\u0627\u0646\u064a": 431, "\u0627\u0644\u0637": 432, "\u0628\u064a\u0646": 433, "\u0647\u0630\u0627": 434, "##\u0643\u0631": 435, "##\u062e\u0631": 436, "##\u062c\u0645": 437, "##\u0633\u0629": 438, "##\u0635\u0644": 439, "\u0623\u0648": 440, "##\u0631\u0641": 441, "##\u0639\u0628": 442, "##\u0639\u062a": 443, "##\u0643\u0644": 444, "##\u0642\u062a": 445, "\u0628\u0639\u062f": 446, "##\u0639\u0627": 447, "##\u064a\u0641": 448, "##\u064a\u0627\u062a": 449, "\u0647\u0630\u0647": 450, "##\u0634\u0627\u0631": 451, "##\u0647\u0631": 452, "##\u0631\u0636": 453, "##\u0633\u0644": 454, "##\u0646\u062a": 455, "\u0648\u0647": 456, "##\u0627\u0636": 457, "##\u062f\u064a": 458, "\u0643\u0644": 459, "##\u0623\u0646": 460, "\u0623\u0645": 461, "##\u0643\u062a": 462, "\u0628\u0646": 463, "##\u0648\u0628": 464, "##\u062f\u0627": 465, "##\u0646\u0629": 466, "##\u062c\u0647": 467, "\u0648\u0627\u0644\u0645": 468, "##\u0630\u0627": 469, "\u0627\u0644\u0639\u0627\u0645": 470, "##\u062f\u0645": 471, "##\u0627\u0635": 472, "##\u0648\u0644\u0629": 473, "##\u0637\u0629": 474, "##\u064a\u0631\u0629": 475, "\u0625\u0646": 476, "##\u062f\u064a\u062f": 477, "##\u0631\u062a": 478, "##\u0631\u0627\u0621": 479, "##\u0632\u064a": 480, "##\u0644\u0641": 481, "##\u0639\u0645": 482, "##\u0642\u0627": 483, "##\u0627\u062f\u0629": 484, "\u0639\u0644\u064a": 485, "##\u0627\u0646\u064a\u0629": 486, "\u0627\u0644\u064a": 487, "##\u0648\u0636": 488, "##\u062c\u0627": 489, "\u0645\u062f": 490, "\u0648\u0628": 491, "\u062e\u0644\u0627\u0644": 492, "##\u0648\u0633": 493, "##\u0628\u0627\u0631": 494, "\u0648\u0643": 495, "##\u0631\u064a\u0642": 496, "##\u0634\u0631": 497, "##\u0643\u0648\u0646": 498, "\u0645\u062a": 499, "##\u0627\u0644\u0645": 500, "20": 501, "\u0639\u0628\u062f": 502, "\u064a\u062a": 503, "\u0644\u062a": 504, "##\u0628\u0646": 505, "##\u0639\u0636": 506, "\u0648\u064a": 507, "##\u0642\u0644": 508, "##\u0648\u0641": 509, "##\u0648\u0639": 510, "##\u0628\u0629": 511, "##\u0627\u0646\u062a": 512, "\u062a\u0645": 513, "##\u062f\u0631": 514, "\u0639\u0627\u0645": 515, "##\u0648\u062c": 516, "##\u0627\u0644\u064a": 517, "##\u0648\u0632": 518, "##\u064a\u062b": 519, "##\u062e\u0644": 520, "##\u0648\u0631\u0629": 521, "##\u062f\u0629": 522, "##\u0637\u0646": 523, "##\u0637\u0644": 524, "\u062a\u0639": 525, "\u0648\u0627\u0644\u062a": 526, "##\u062b\u0631": 527, "\u0627\u0644\u0623\u0645": 528, "\u0628\u0645": 529, "##\u0631\u0643\u0629": 530, "##\u062e\u062a": 531, "##\u0627\u0631\u0627\u062a": 532, "\u0645\u0634": 533, "\u0627\u0644\u0645\u062d": 534, "##\u0633\u064a\u0629": 535, "\u062a\u062d": 536, "##\u0648\u0627\u062a": 537, "##\u062c\u0644\u0633": 538, "##\u0642\u0631": 539, "\u0627\u0644\u0645\u0646": 540, "##\u0627\u0631\u064a": 541, "\u0633\u064a": 542, "##\u0631\u062d": 543, "##\u0626\u0629": 544, "\u0648\u0632": 545, "##\u062e\u0635": 546, "\u0643\u0645\u0627": 547, "##\u0631\u0642": 548, "\u0628\u0644": 549, "\u0631\u0626\u064a\u0633": 550, "##\u062a\u0647\u0627": 551, "##\u0648\u0631\u064a": 552, "##\u0648\u0649": 553, "##\u0631\u0627\u0626": 554, "\u0645\u0633": 555, "##\u062f\u062f": 556, "##\u0646\u062f": 557, "##\u0627\u0644\u0629": 558, "\u0623\u064a": 559, "\u0648\u0639": 560, "##\u0639\u064a\u0629": 561, "##\u0627\u062c": 562, "\u0630\u0644\u0643": 563, "##\u0636\u0627\u0641": 564, "\u0644\u0644\u0645": 565, "\u0627\u0644\u0639\u0631\u0628": 566, "##\u0648\u064a\u0629": 567, "##\u0641\u062a": 568, "\u0623\u0643": 569, "\u0648\u0642\u0627\u0644": 570, "##\u0627\u062d": 571, "\u062d\u064a\u062b": 572, "##\u0648\u062a": 573, "##\u0643\u0648\u0645": 574, "##\u0630\u0644\u0643": 575, "##\u0633\u0637": 576, "##\u0627\u0644\u064a\u0629": 577, "##\u0639\u064a": 578, "\u0628\u062a": 579, "\u0627\u0644\u063a": 580, "\u0627\u0644\u0647": 581, "\u0645\u062d\u0645\u062f": 582, "\u0647\u0648": 583, "##\u0639\u0648\u062f": 584, "\u0628\u062f": 585, "##\u062b\u0644": 586, "\u0645\u0633\u062a": 587, "##\u0641\u0631": 588, "\u062a\u062a": 589, "##\u0627\u062f\u064a": 590, "\u0627\u0644\u0645\u062f": 591, "\u0627\u0644\u0645\u0633\u062a": 592, "##\u0643\u0645": 593, "##\u0641\u0633": 594, "\u0644\u0647": 595, "\u062a\u0646": 596, "\u0627\u0644\u0627\u0633\u062a": 597, "\u062c\u0645": 598, "##\u062d\u062f\u0629": 599, "\u0642\u0628\u0644": 600, "##\u0636\u0627": 601, "\u0642\u062f": 602, "\u0628\u0631": 603, "##\u062a\u0649": 604, "\u0627\u0644\u062f\u0648\u0644": 605, "\u0627\u0644\u064a\u0648\u0645": 606, "##\u0644\u064a\u0645": 607, "\u0628\u062d": 608, "\u0627\u0644\u0645\u0633": 609, "##\u0637\u0642\u0629": 610, "\u0648\u0644": 611, "##\u0643\u064a": 612, "##\u0648\u0627\u0646": 613, "##\u064a\u0646\u0629": 614, "\u0648\u062d": 615, "\u0648\u062c": 616, "##\u0642\u0628": 617, "\u0648\u0625": 618, "\u0627\u0644\u0639\u0627\u0644\u0645": 619, "\u0627\u0644\u0645\u0639": 620, "\u0645\u0624": 621, "##\u0632\u0629": 622, "\u0648\u0645\u0646": 623, "\u0627\u0644\u062c\u0645": 624, "##\u0646\u0627\u0621": 625, "\u0628\u0627": 626, "\u0648\u0646": 627, "##\u0633\u0628\u0629": 628, "\u0627\u0644\u0627\u062a": 629, "\u0639\u0628\u062f\u0627\u0644": 630, "##\u0648\u0629": 631, "##\u0644\u0628": 632, "\u0627\u0644\u0627\u0645": 633, "\u0647\u064a": 634, "\u0628\u0634": 635, "##\u062c\u062a": 636, "\u0627\u0644\u0622": 637, "##\u0633\u0631\u0627\u0626": 638, "##\u0623\u0633": 639, "\u064a\u0639": 640, "##\u0641\u0629": 641, "\u064a\u0645": 642, "##\u064a\u062a": 643, "\u0627\u0645": 644, "##\u0642\u0627\u062a": 645, "\u0627\u0644\u0645\u0634": 646, "\u0627\u0644\u0644\u0647": 647, "##\u064a\u0631\u0627": 648, "\u0627\u0644\u0632": 649, "\u063a\u064a\u0631": 650, "##\u0635\u0627\u062f": 651, "##\u062c\u0629": 652, "##\u0627\u0628\u0629": 653, "\u0627\u0644\u0631\u0626\u064a\u0633": 654, "\u062d\u062a\u0649": 655, "\u0627\u0644\u0633\u064a\u0627": 656, "\u0633\u062a": 657, "##\u0641\u0636": 658, "##\u062d\u0627": 659, "\u0648\u0641\u064a": 660, "##\u0648\u0627\u0631": 661, "\u0648\u0644\u0627": 662, "##\u0642\u0637": 663, "19": 664, "##\u0631\u062f": 665, "##\u0645\u0648": 666, "\u0648\u0633": 667, "##\u0642\u062f\u0645": 668, "\u0628\u0639\u0636": 669, "##\u062b\u0629": 670, "##\u064a\u0627\u0646": 671, "##\u0643\u0629": 672, "##\u062c\u0627\u0644": 673, "\u0644\u064a": 674, "##\u0641\u0639": 675, "##\u0646\u064a\u0629": 676, "\u062a\u0634": 677, "\u0643\u0627\u0646\u062a": 678, "##\u0631\u0643\u0632": 679, "\u0628\u0647": 680, "\u062a\u0642": 681, "\u0627\u062a": 682, "\u0623\u0646\u0647": 683, "\u0647\u0646\u0627": 684, "##\u064a\u064a\u0646": 685, "\u0627\u0644\u0646\u0627": 686, "\u0627\u0644\u0628\u0644": 687, "##\u0627\u0635\u0629": 688, "##\u0639\u0627\u062a": 689, "\u0639\u0646\u062f": 690, "##\u062d\u0627\u062f": 691, "\u0623\u0633": 692, "##\u0643\u0648\u0645\u0629": 693, "\u0645\u0644\u064a": 694, "##\u0633\u0644\u0627\u0645": 695, "##\u0628\u062a": 696, "##\u0644\u0647": 697, "\u0623\u0628": 698, "##\u062e\u0631\u0649": 699, "\u0627\u0644\u0639\u0645\u0644": 700, "##\u0643\u062f": 701, "\u0644\u0644\u062a": 702, "##\u0631\u0627\u062a": 703, "##\u0642\u064a\u0642": 704, "##\u0635\u0641": 705, "\u064a\u0642": 706, "\u0627\u0644\u0627\u0646\u062a": 707, "##\u0643\u0627\u0646": 708, "##\u062c\u062f": 709, "##\u0627\u0631\u062c": 710, "##\u0627\u0645\u0644": 711, "##\u0648\u0631\u064a\u0629": 712, "##\u0627\u0641\u0629": 713, "\u0645\u062c\u0644\u0633": 714, "##\u062c\u062a\u0645\u0627": 715, "##\u064a\u0632": 716, "\u0648\u0641": 717, "##\u0637\u0631": 718, "##\u0631\u0627\u0642": 719, "##\u0635\u0628": 720, "\u062f\u0648\u0644": 721, "\u0628\u0623\u0646": 722, "\u0627\u0644\u0648\u0632": 723, "##\u062d\u0631": 724, "##\u062d\u0645\u062f": 725, "##\u0631\u0646": 726, "##\u0633\u0627\u062a": 727, "\u0643\u0628": 728, "##\u0642\u0628\u0644": 729, "##\u0648\u0627\u0642": 730, "##\u0627\u0628\u0627\u062a": 731, "\u0644\u0643\u0646": 732, "\u0639\u0645\u0644": 733, "##\u0636\u0639": 734, "##\u0644\u0627\u0645": 735, "##\u0648\u0643": 736, "##\u062f\u0627\u0631\u0629": 737, "##\u0637\u0627\u0644": 738, "##\u064a\u0628": 739, "\u0627\u0646\u062a": 740, "\u0627\u0644\u0645\u0624": 741, "\u0627\u0644\u0645\u0627\u0636": 742, "##\u064a\u0634": 743, "##\u0627\u0641\u0638": 744, "##\u0648\u0644\u0627": 745, "##\u062d\u0648": 746, "\u0648\u0647\u0648": 747, "##\u0641\u0627\u0639": 748, "##\u0648\u0644\u0649": 749, "\u0639\u062f\u062f": 750, "200": 751, "##\u0627\u0647": 752, "\u0648\u0642\u062f": 753, "\u0642\u0627\u0644": 754, "##\u0628\u064a\u0629": 755, "##\u0628\u0647": 756, "##\u062c\u0646\u0629": 757, "##\u062f\u064a\u062f\u0629": 758, "\u064a\u0648\u0645": 759, "##\u062d\u064a": 760, "##\u0627\u0629": 761, "##\u0642\u0627\u0621": 762, "##\u0627\u0646\u0648\u0646": 763, "\u0641\u064a\u0647\u0627": 764, "##\u0643\u064a\u0629": 765, "\u0627\u0644\u0645\u0635": 766, "\u0628\u0627\u0644\u0645": 767, "\u0642\u0631": 768, "\u0627\u0644\u0631\u064a": 769, "\u062d\u0633": 770, "\u0627\u0644\u0627\u0646": 771, "##\u0644\u0627\u062d": 772, "\u0627\u0644\u0639\u0631\u0628\u064a\u0629": 773, "##\u064a\u062c": 774, "\u0639\u0645": 775, "##\u0627\u062e\u0644": 776, "##\u0635\u0629": 777, "##\u0639\u064a\u062f": 778, "##\u0627\u0637": 779, "\u0647\u0646\u0627\u0643": 780, "\u062a\u0623": 781, "##\u0637\u0627\u0639": 782, "##\u0635\u062f": 783, "##\u0639\u0645\u0627\u0644": 784, "\u0627\u0644\u062a\u0649": 785, "\u0645\u0635\u0631": 786, "##\u0627\u0632": 787, "\u0646\u0638": 788, "##\u0627\u0631\u064a\u0629": 789, "##\u0625\u0646": 790, "##\u0633\u0637\u064a\u0646": 791, "\u0627\u0644\u0636": 792, "##\u0644\u0633\u0637\u064a\u0646": 793, "\u0645\u0646\u0630": 794, "\u062d\u0648\u0644": 795, "##\u0648\u064a\u062a": 796, "##\u062b\u064a\u0631": 797, "\u0627\u0644\u0645\u0631": 798, "\u064a\u0646": 799, "\u0645\u0635": 800, "\u0644\u0623": 801, "##\u0628\u0627\u062a": 802, "##\u062f\u0649": 803, "\u0648\u0627\u0644\u0623": 804, "##\u062d\u062f\u062b": 805, "\u0633\u0628": 806, "##\u0648\u0642\u0639": 807, "\u0648\u0644\u0643": 808, "##\u0633\u0631\u0627\u0626\u064a\u0644": 809, "\u0627\u0644\u0623\u0648\u0644": 810, "##\u0627\u0645\u062c": 811, "\u0645\u0642": 812, "\u0644\u0646": 813, "\u0628\u0623": 814, "##\u0630\u0647": 815, "\u0628\u0647\u0627": 816, "\u062b\u0645": 817, "##\u0648\u0635": 818, "##\u0642\u0649": 819, "##\u0644\u062a": 820, "\u0641\u062a": 821, "\u0627\u0644\u0633\u0639\u0648\u062f": 822, "\u0627\u0644\u0645\u0646\u0627": 823, "##\u0647\u0645\u0627": 824, "\u0627\u0644\u0623\u0633": 825, "##\u0631\u0648\u0639": 826, "##\u0628\u0646\u0627\u0646": 827, "\u0648\u0631": 828, "\u062a\u0633": 829, "\u062e\u0637": 830, "\u062a\u062f": 831, "\u0627\u0644\u0633\u0627\u0628": 832, "201": 833, "##\u0632\u0628": 834, "\u064a\u062c": 835, "##\u0648\u0639\u0629": 836, "##\u0627\u0626\u0644": 837, "\u0645\u0631": 838, "##\u0634\u0641": 839, "\u0627\u0644\u062a\u0639": 840, "\u0628\u0627\u0644\u062a": 841, "##\u0632\u064a\u0632": 842, "##\u0631\u0627\u062c": 843, "\u0644\u062d": 844, "##\u0643\u0627": 845, "##\u0631\u0627\u0641": 846, "\u0648\u0644\u0643\u0646": 847, "\u0627\u0644\u0645\u062a\u062d\u062f\u0629": 848, "\u062a\u0635": 849, "\u0627\u0644\u062a\u0646": 850, "##\u0631\u0649": 851, "##\u0624\u0648\u0644": 852, "\u0623\u0643\u062b\u0631": 853, "##\u0627\u0645\u0629": 854, "\u0633\u0646": 855, "##\u0627\u0631\u064a\u062e": 856, "\u0627\u0644\u0635\u062d": 857, "\u0627\u0644\u0645\u0648\u0627": 858, "\u0627\u0644\u0645\u0645": 859, "\u0627\u0644\u0630\u064a\u0646": 860, "\u064a\u062d": 861, "##\u0641\u0627\u0642": 862, "##\u0637\u0641": 863, "##\u062e\u062a\u0644\u0641": 864, "##\u064a\u0644\u0629": 865, "\u0648\u062f": 866, "##\u0628\u0639": 867, "\u0644\u0623\u0646": 868, "\u0639\u0644\u064a\u0647": 869, "\u0646\u0641\u0633": 870, "\u0645\u062b\u0644": 871, "##\u0633\u0628\u0628": 872, "\u062f\u0648\u0646": 873, "##\u0636\u0631": 874, "\u064a\u0645\u0643\u0646": 875, "\u0627\u0644\u0631\u064a\u0627\u0636": 876, "##\u062e\u0628": 877, "\u0627\u0644\u0644\u0627": 878, "##\u062c\u062a\u0645": 879, "##\u064a\u0646\u0627": 880, "\u0627\u0644\u0639\u0645": 881, "##\u0627\u0631\u0633": 882, "##\u064a\u0648": 883, "\u0644\u0647\u0627": 884, "\u064a\u0633\u062a": 885, "\u062d\u0642": 886, "\u064a\u0643\u0648\u0646": 887, "\u0627\u0644\u062d\u0643\u0648\u0645\u0629": 888, "\u0627\u0646\u0647": 889, "##\u0639\u0644\u0627\u0645": 890, "##\u0642\u062a\u0635\u0627\u062f": 891, "##\u0635\u0648\u0644": 892, "\u0627\u0648": 893, "##\u0627\u0644\u0627\u062a": 894, "##\u0637\u0627\u0631": 895, "##\u062b\u0645": 896, "\u0627\u064a": 897, "##\u0648\u0627\u0621": 898, "##\u0627\u0646\u0628": 899, "\u0627\u0644\u0645\u0648": 900, "##\u0647\u0644": 901, "\u0648\u0632\u064a\u0631": 902, "\u0641\u064a\u0647": 903, "##\u0643\u062a\u0648\u0631": 904, "\u0627\u0639\u062a": 905, "\u062c\u0645\u064a\u0639": 906, "##\u0628\u0627\u0628": 907, "\u0648\u0634": 908, "\u0623\u062d\u062f": 909, "##\u0631\u0643\u0627\u062a": 910, "\u0644\u0628\u0646\u0627\u0646": 911, "\u0641\u0631": 912, "\u0627\u0644\u062d\u0631": 913, "##\u0648\u0637": 914, "##\u063a\u064a\u0631": 915, "##\u0626\u0627": 916, "\u0627\u0644\u0648\u0637\u0646": 917, "\u062a\u062d\u062a": 918, "##\u0648\u064a\u0631": 919, "\u0648\u0627\u0644\u0639": 920, "\u0623\u0645\u0633": 921, "\u0627\u0644\u062a\u062d": 922, "\u062a\u062c": 923, "##\u0645\u064a\u0646": 924, "##\u0641\u0644": 925, "\u0627\u0644\u0639\u0627\u0645\u0629": 926, "##\u063a\u0645": 927, "\u0645\u0648": 928, "\u0645\u0628\u0627\u0631": 929, "##00": 930, "##\u0638\u0631": 931, "##\u0647\u062f\u0641": 932, "##\u0644\u0627\u0642": 933, "\u064a\u062a\u0645": 934, "##\u0633\u0627\u0639\u062f": 935, "\u0648\u0630\u0644\u0643": 936, "##\u0646\u0649": 937, "##\u0631\u0628\u064a\u0629": 938, "##\u0638\u0645": 939, "##\u0628\u0631\u0627": 940, "##\u0644\u0627\u0621": 941, "##\u0636\u0629": 942, "##\u064a\u062e": 943, "##\u0644\u0627\u0641": 944, "\u0648\u0627\u0646": 945, "\u062a\u0637": 946, "\u0645\u0644\u064a\u0648\u0646": 947, "\u0627\u0644\u0627\u062a\u062d\u0627\u062f": 948, "\u0627\u0644\u0648\u0642": 949, "\u0623\u0645\u0627\u0645": 950, "\u0645\u0648\u0627": 951, "##\u0631\u064a\u062f": 952, "\u0628\u0625": 953, "##\u0641\u064a\u0630": 954, "##\u0627\u0645\u0639\u0629": 955, "##\u062e\u0637": 956, "\u0648\u0643\u0627\u0646": 957, "\u0648\u0623\u0646": 958, "\u064a\u062f": 959, "##\u0639\u0627\u0648\u0646": 960, "\u0622\u062e\u0631": 961, "##\u0648\u062f\u0629": 962, "\u062d\u062f": 963, "##\u0631\u062c": 964, "\u0644\u0625": 965, "##\u0636\u064a": 966, "##\u0627\u0644\u062d": 967, "\u062a\u0644\u0643": 968, "##\u0628\u0637": 969, "##\u0648\u0642\u0641": 970, "\u0648\u0627\u0644\u0627": 971, "##\u062d\u062b": 972, "##\u064a\u0631\u0627\u0646": 973, "##\u0630\u0643\u0631": 974, "\u0627\u0644\u062f\u0648\u0644\u0629": 975, "\u0627\u0644\u0623\u0645\u064a\u0631": 976, "\u0627\u0644\u0633\u0644": 977, "##\u0643\u0631\u0629": 978, "##\u0627\u0644\u062a": 979, "\u0628\u0634\u0643\u0644": 980, "\u0625\u0644\u0627": 981, "##\u0636\u0645": 982, "##\u0639\u0631": 983, "##\u0644\u0627\u062b": 984, "\u0627\u0644\u0644\u0628\u0646": 985, "##\u062c\u0645\u0648\u0639\u0629": 986, "##\u0636\u0627\u0641\u0629": 987, "\u0627\u0644\u0623\u0645\u0646": 988, "##\u0639\u0627\u0631": 989, "\u0627\u0644\u0631\u0627": 990, "\u0627\u0644\u062a\u062c": 991, "##\u0627\u062a\u0647": 992, "\u0646\u0642": 993, "##\u062c\u0631": 994, "\u0645\u0646\u0647\u0627": 995, "##\u062c\u062a\u0645\u0639": 996, "##\u0633\u0627\u0646": 997, "\u0627\u0644\u0645\u0646\u062a": 998, "\u0627\u0644\u062f\u0643\u062a\u0648\u0631": 999, "##\u062f\u064a\u0629": 1000, "\u0627\u0644\u0645\u0627\u0636\u064a": 1001, "##\u0628\u0644\u063a": 1002, "##\u0644\u064a\u0629": 1003, "##\u064a\u0647": 1004, "##\u0648\u0627\u0626": 1005, "##\u0627\u0633": 1006, "##\u0627\u0634": 1007, "\u0627\u0644\u0645\u0646\u0637\u0642\u0629": 1008, "##\u062e\u0627\u0628\u0627\u062a": 1009, "\u0627\u0644\u0623\u062e": 1010, "##\u0648\u0631\u0648": 1011, "\u0627\u0644\u0627\u062c\u062a\u0645\u0627": 1012, "\u0627\u0644\u0645\u0635\u0631": 1013, "\u0648\u0632\u0627\u0631\u0629": 1014, "##\u064a\u0626\u0629": 1015, "\u064a\u0634": 1016, "##\u0648\u0627\u0644": 1017, "\u0628\u0637": 1018, "##\u064a\u0641\u0629": 1019, "##\u064a\u0644\u064a": 1020, "\u0644\u0644\u0627": 1021, "\u0641\u0625\u0646": 1022, "\u0627\u0644\u0625\u0646": 1023, "##\u062c\u0646": 1024, "\u0627\u0644\u062c\u0646": 1025, "\u0627\u0644\u0634\u0639\u0628": 1026, "\u0627\u062d\u062a": 1027, "\u0648\u0627\u0644\u062f": 1028, "##\u062e\u062f": 1029, "##\u0627\u0626\u064a\u0629": 1030, "\u0639\u0644\u064a\u0647\u0627": 1031, "\u0627\u0644\u062e\u0627\u0631\u062c": 1032, "\u0648\u0644\u064a": 1033, "\u0648\u0647\u064a": 1034, "\u0627\u0644\u0642\u0631": 1035, "##\u064a\u0637": 1036, "##\u0632\u0645": 1037, "\u0627\u0644\u0641\u0644\u0633\u0637\u064a\u0646": 1038, "##\u0639\u0649": 1039, "\u0645\u0645": 1040, "\u0648\u0623\u0636\u0627\u0641": 1041, "##\u0633\u0627\u0621": 1042, "##\u0627\u0631\u062a": 1043, "##\u062c\u0631\u0627\u0621": 1044, "\u0623\u0648\u0644": 1045, "##\u0645\u064a\u0629": 1046, "##\u0645\u0627\u0621": 1047, "##\u0634\u0627\u0631\u0643\u0629": 1048, "##\u0644\u064a\u0627\u062a": 1049, "\u062d\u0627\u0644": 1050, "\u0627\u0644\u0641\u0631\u064a\u0642": 1051, "##\u0643\u0645\u0629": 1052, "##\u0628\u0627\u062f": 1053, "\u0643\u062a": 1054, "\u062c\u0646": 1055, "##\u0644\u0643\u0629": 1056, "\u0634\u062e\u0635": 1057, "##\u0639\u062f\u0627\u062f": 1058, "\u0641\u064a\u0645\u0627": 1059, "##\u0645\u0627\u0644": 1060, "##\u0632\u0645\u0629": 1061, "\u0642\u064a": 1062, "##\u064a\u062f\u0629": 1063, "##\u0648\u062d": 1064, "\u0627\u0644\u0645\u062c\u0644\u0633": 1065, "\u0648\u0627\u0633\u062a": 1066, "\u0623\u0634": 1067, "\u0633\u064a\u0627": 1068, "##\u0643\u0633": 1069, "\u0627\u0644\u0634\u0631": 1070, "##\u0627\u0646\u064a\u0627": 1071, "\u062c\u0647": 1072, "##\u0627\u0641\u0638\u0629": 1073, "##\u0641\u0636\u0644": 1074, "\u0645\u062f\u064a\u0631": 1075, "\u0623\u064a\u0636\u0627": 1076, "##\u062f\u0627\u0621": 1077, "\u0628\u0639": 1078, "\u0623\u062e\u0631\u0649": 1079, "##\u0638\u0645\u0629": 1080, "##\u062e\u062f\u0645": 1081, "##\u0648\u0627\u0628": 1082, "\u062e\u0627\u0635\u0629": 1083, "##\u0638\u0627\u0645": 1084, "##\u0643\u0631\u064a": 1085, "\u0646\u062a": 1086, "\u0627\u0644\u0630\u0649": 1087, "\u0645\u0645\u0627": 1088, "\u0627\u0644\u0645\u0644\u0643": 1089, "\u062a\u0633\u062a": 1090, "\u0627\u0644\u0639\u0631\u0627\u0642": 1091, "\u0636\u062f": 1092, "##\u0638\u064a\u0645": 1093, "\u0633\u0644": 1094, "\u0623\u0639": 1095, "\u0625\u0644\u064a": 1096, "\u0627\u0631\u062a": 1097, "\u0639\u0628\u062f\u0627\u0644\u0644\u0647": 1098, "##\u0641\u0642": 1099, "##\u0627\u0645\u0627": 1100, "##\u0637\u0646\u064a": 1101, "##\u0627\u0642": 1102, "##\u0631\u064a\u0628": 1103, "##\u0644\u064a\u0644": 1104, "##\u0627\u0628\u0644": 1105, "##\u0623\u0629": 1106, "##\u0648\u0631\u064a\u0627": 1107, "\u062a\u0631": 1108, "\u0628\u0633\u0628\u0628": 1109, "\u0632\u064a": 1110, "\u0645\u0646\u0637\u0642\u0629": 1111, "##\u064a\u0631\u064a": 1112, "\u0627\u0644\u0641\u062a": 1113, "\u0639\u062f\u0645": 1114, "\u0639\u0628\u0631": 1115, "\u0642\u0627\u0626": 1116, "\u0644\u064a\u0633": 1117, "##\u062e\u0630": 1118, "##\u0643\u062b\u0631": 1119, "##\u0639\u0627\u062f\u0629": 1120, "\u062f\u0648\u0644\u0627\u0631": 1121, "\u0648\u0627\u0644\u062a\u064a": 1122, "##\u062c\u0647\u0629": 1123, "##\u0635\u062d": 1124, "\u0634\u0631\u0643\u0629": 1125, "\u0627\u0644\u0625\u0633\u0644\u0627\u0645": 1126, "##\u0631\u0628\u0639": 1127, "##\u0632\u0644": 1128, "\u0644\u0644\u0623": 1129, "\u0635\u062d": 1130, "##\u062a\u0645\u0631": 1131, "\u0627\u0644\u0645\u0628\u0627\u0631": 1132, "\u062a\u0643\u0648\u0646": 1133, "##\u0634\u0631\u0629": 1134, "##\u063a\u064a": 1135, "##\u0646\u0627\u0626": 1136, "##\u0636\u064a\u0629": 1137, "##\u062c\u0627\u0646": 1138, "\u062f\u0627\u062e\u0644": 1139, "\u0623\u062d\u0645\u062f": 1140, "\u0648\u062e": 1141, "\u0627\u0644\u0643\u0648\u064a\u062a": 1142, "##\u0633\u064a\u0627": 1143, "##\u0634\u062a": 1144, "##\u062d\u0646": 1145, "\u0646\u062d\u0648": 1146, "##\u0627\u0639\u062a": 1147, "\u0627\u0644\u0648\u0642\u062a": 1148, "##\u0644\u0642": 1149, "\u062f\u0648\u0631": 1150, "\u0627\u0644\u0627\u062d\u062a": 1151, "##\u0643\u0648": 1152, "\u0639\u0646\u062f\u0645\u0627": 1153, "##\u0633\u0643\u0631": 1154, "\u0641\u0642\u0637": 1155, "\u0648\u0627\u0644\u0625": 1156, "##\u0633\u0631": 1157, "\u0627\u0644\u0634\u064a\u062e": 1158, "##\u062d\u0627\u062a": 1159, "\u0627\u0644\u0633\u0639\u0648\u062f\u064a\u0629": 1160, "\u0627\u0644\u062b\u0627\u0646\u064a": 1161, "##\u0639\u0644\u0646": 1162, "\u0627\u0644\u0623\u0648\u0644\u0649": 1163, "\u0627\u0644\u0639\u0644\u0627": 1164, "##\u062c\u0632": 1165, "\u0641\u0642\u062f": 1166, "\u0645\u0646\u062a": 1167, "##\u0627\u0630": 1168, "\u0627\u0644\u0622\u0646": 1169, "##\u0648\u0645\u0627\u062a": 1170, "\u0645\u062f\u064a\u0646\u0629": 1171, "##\u064a\u0627\u0629": 1172, "\u062d\u064a\u0646": 1173, "\u0648\u0644\u0645": 1174, "\u0646\u0647\u0627": 1175, "##\u064a\u0627\u0644": 1176, "\u0648\u0645\u0627": 1177, "\u0642\u0627\u0645": 1178, "10": 1179, "##\u0627\u0639\u0629": 1180, "\u0627\u0644\u0639\u0642": 1181, "##\u0631\u0641\u0629": 1182, "##\u0642\u062f\u064a\u0645": 1183, "\u0627\u0644\u0628\u0631": 1184, "##\u0647\u0645\u0629": 1185, "\u0648\u062c\u0648\u062f": 1186, "##\u0639\u0636\u0627\u0621": 1187, "##\u0627\u0644\u062f": 1188, "##\u0636\u0627\u0621": 1189, "##\u0642\u0627\u0644": 1190, "##\u0642\u064a\u0642\u0629": 1191, "##\u0639\u0632\u064a\u0632": 1192, "##\u0633\u064a\u0646": 1193, "##\u063a\u0629": 1194, "\u0623\u0628\u0648": 1195, "##\u0633\u0646": 1196, "##\u0642\u0627\u0641": 1197, "\u0641\u0631\u064a\u0642": 1198, "\u0628\u0645\u0627": 1199, "##\u0627\u0647\u0631\u0629": 1200, "\u0623\u0645\u0627": 1201, "##\u0631\u0627\u0643": 1202, "\u0627\u0644\u0645\u0631\u0643\u0632": 1203, "\u0627\u0644\u0648\u0632\u0631\u0627\u0621": 1204, "##\u0648\u0645\u0627": 1205, "\u0648\u0627\u0644\u062d": 1206, "##\u0633\u0628\u0648\u0639": 1207, "\u0627\u0644\u0627\u0642\u062a\u0635\u0627\u062f": 1208, "##\u0635\u0628\u062d": 1209, "\u0627\u0644\u0645\u0647": 1210, "\u0628\u0642": 1211, "\u0627\u0644\u0644\u062c\u0646\u0629": 1212, "\u0627\u0644\u0634\u0631\u0642": 1213, "##\u0627\u062a\u0647\u0627": 1214, "\u0623\u0643\u062f": 1215, "##\u0641\u0631\u064a\u0642": 1216, "\u0625\u0630\u0627": 1217, "##\u0637\u064a": 1218, "##\u0637\u0627\u0644\u0628": 1219, "\u0627\u0644\u062f\u064a\u0646": 1220, "\u0648\u0627\u0644\u0630": 1221, "##\u064a\u0627\u0647": 1222, "\u0648\u0627\u0644\u0646": 1223, "##\u0634\u0627\u0631\u0643": 1224, "##\u0646\u0627\u0646": 1225, "##\u0643\u062a\u0628": 1226, "##\u0648\u0644\u0627\u064a\u0627\u062a": 1227, "\u062a\u0641": 1228, "\u0623\u0642": 1229, "\u0644\u0644\u062d": 1230, "##\u0648\u0627\u0642\u0639": 1231, "##\u0644\u0627\u062b\u0629": 1232, "##\u0627\u0628\u0639": 1233, "\u0627\u0644\u0648\u0637\u0646\u064a": 1234, "##\u0627\u062f\u0631": 1235, "##\u0632\u064a\u062f": 1236, "\u0644\u0627\u0639": 1237, "\u0628\u0627\u0644\u0625": 1238, "\u0648\u0635": 1239, "\u0644\u062f": 1240, "##\u0648\u0647": 1241, "##\u0631\u064a\u0637": 1242, "##\u0632\u0627": 1243, "##\u0631\u0627\u0636": 1244, "\u0628\u0627\u0644\u0646": 1245, "##\u0631\u064a\u0641": 1246, "14": 1247, "15": 1248, "##\u0637\u0642": 1249, "\u0627\u0644\u0623\u0645\u0631\u064a": 1250, "\u0627\u0644\u0633\u0627\u0628\u0642": 1251, "\u062c\u062f\u064a\u062f\u0629": 1252, "\u0627\u0644\u062f\u0648\u0644\u064a\u0629": 1253, "\u0627\u0644\u0639\u0631\u0628\u064a": 1254, "##\u0645\u0644\u0629": 1255, "##\u0647\u0648\u0631": 1256, "##\u0627\u062b": 1257, "##\u0644\u064a\u062c": 1258, "\u0645\u062e\u062a\u0644\u0641": 1259, "##\u0627\u0628\u0639\u0629": 1260, "\u0641\u0647": 1261, "\u0627\u0644\u062e\u0627\u0631\u062c\u064a\u0629": 1262, "##\u0642\u0627\u0637": 1263, "##\u0648\u0633\u0637": 1264, "\u0627\u0644\u0642\u0627\u0646\u0648\u0646": 1265, "\u0627\u0644\u062e\u0637": 1266, "\u0639\u0627\u0645\u0627": 1267, "\u0628\u064a": 1268, "##\u062d\u0644": 1269, "##\u0631\u062d\u0644\u0629": 1270, "##\u0627\u0626\u0631": 1271, "##\u0631\u0648\u0641": 1272, "\u0643\u062b": 1273, "##\u0623\u062a": 1274, "\u062a\u0648": 1275, "\u0623\u0644\u0641": 1276, "##\u0646\u064a\u0646": 1277, "\u0637\u0631\u064a\u0642": 1278, "\u0627\u0644\u0645\u062e": 1279, "\u0627\u0644\u062c\u0632": 1280, "##\u062d\u064a\u0629": 1281, "\u0627\u0644\u0645\u0645\u0644\u0643\u0629": 1282, "\u0633\u0646\u0629": 1283, "##\u0627\u0628\u064a\u0629": 1284, "\u0627\u0644\u0627\u0631": 1285, "12": 1286, "\u064a\u0633": 1287, "##\u062c\u0645\u0639": 1288, "\u062a\u0628": 1289, "##\u0634\u064a": 1290, "##\u0637\u064a\u0629": 1291, "\u0639\u0634\u0631": 1292, "\u0627\u0644\u0634\u0631\u0643\u0629": 1293, "##\u0648\u0636\u0648\u0639": 1294, "##\u062a\u064a\u0646": 1295, "##\u0636\u0648\u0631": 1296, "\u0627\u0644\u0645\u0642\u0628\u0644": 1297, "\u0625\u062f\u0627\u0631\u0629": 1298, "##\u0639\u0644\u0645": 1299, "##\u0648\u064a\u0644": 1300, "##\u0647\u0627\u0628": 1301, "\u0643\u0628\u064a\u0631": 1302, "\u0627\u0644\u0645\u062c\u062a\u0645\u0639": 1303, "##\u0637\u0644\u0627\u0642": 1304, "\u0648\u0639\u0644\u0649": 1305, "\u0627\u0644\u0623\u0645\u0631": 1306, "\u0627\u0644\u062f\u0648\u0644\u064a": 1307, "##\u062e\u062f\u0627\u0645": 1308, "\u0644\u062f\u0649": 1309, "\u0639\u0645\u0644\u064a\u0629": 1310, "\u0627\u0644\u062c\u0647": 1311, "##\u0637\u0644\u0642": 1312, "\u0636\u0645\u0646": 1313, "##\u0648\u0646\u064a": 1314, "##\u0645\u0627\u0646": 1315, "##\u0637\u0627\u062a": 1316, "##\u0626\u0627\u0633\u0629": 1317, "\u0648\u0627\u0644\u0634": 1318, "\u0627\u0633": 1319, "##\u0648\u0636\u062d": 1320, "\u0627\u0644\u0644\u0627\u0639\u0628": 1321, "\u0627\u0644\u0645\u0648\u0627\u0637\u0646": 1322, "\u0627\u0644\u0634\u0628\u0627\u0628": 1323, "\u0627\u0644\u0633\u064a\u0627\u0633\u064a\u0629": 1324, "\u0623\u062c\u0644": 1325, "##\u0631\u0627\u0633\u0629": 1326, "##\u0627\u062f\u0627\u062a": 1327, "\u0623\u062d": 1328, "##\u064a\u0627\u0621": 1329, "\u0648\u0642\u062a": 1330, "##\u0648\u0645\u0629": 1331, "\u0648\u0623\u0643\u062f": 1332, "\u0627\u0644\u0645\u0627\u0644\u064a\u0629": 1333, "\u0623\u062b": 1334, "\u0627\u0644\u0631\u0648": 1335, "\u0645\u062c\u0627\u0644": 1336, "##\u064a\u062f\u0627": 1337, "\u0643\u0628\u064a\u0631\u0629": 1338, "\u062a\u0644": 1339, "\u0644\u0644\u0639": 1340, "\u0628\u0635": 1341, "\u0645\u0631\u0643\u0632": 1342, "\u0627\u062e\u062a": 1343, "\u0627\u0644\u062b\u0627\u0644": 1344, "##\u0627\u0647\u0631": 1345, "\u0627\u0644\u062a\u062f": 1346, "\u0644\u0644\u0634": 1347, "##\u063a\u0644": 1348, "\u0623\u062f": 1349, "\u0645\u062e": 1350, "\u064a\u062c\u0628": 1351, "\u0645\u0633\u062a\u0648\u0649": 1352, "\u0639\u0642\u062f": 1353, "\u0627\u0644\u0645\u0642": 1354, "##\u062d\u0642": 1355, "\u0628\u062c": 1356, "\u0627\u0644\u0625\u0645": 1357, "\u0639\u0644": 1358, "\u0644\u062c\u0646\u0629": 1359, "\u0627\u0644\u062d\u062f": 1360, "\u062d\u0644": 1361, "##\u062c\u0627\u0632": 1362, "\u0623\u0647\u0645": 1363, "\u0645\u062d\u0627": 1364, "\u0627\u0644\u0642\u064a": 1365, "\u062a\u0631\u0643": 1366, "\u0627\u0644\u062f\u0627\u062e\u0644": 1367, "##\u0647\u064a\u0645": 1368, "##\u0642\u0631\u0627\u0631": 1369, "##\u0627\u062d\u0628": 1370, "\u062c\u0627\u0621": 1371, "##\u062a\u0631": 1372, "##\u0627\u0626\u0631\u0629": 1373, "\u0648\u0647\u0630\u0627": 1374, "\u0634\u064a": 1375, "##\u0648\u0627\u0635\u0644": 1376, "\u0627\u0644\u062e\u0627\u0635\u0629": 1377, "##\u0638\u0647\u0631": 1378, "\u0627\u0644\u0646\u0641": 1379, "\u064a\u0624": 1380, "##\u0637\u0628": 1381, "\u0645\u0644": 1382, "\u0648\u0639\u062f": 1383, "\u0623\u0646\u0647\u0627": 1384, "##\u062c\u0627\u062a": 1385, "##\u0627\u0642\u0629": 1386, "\u0637\u0627\u0644": 1387, "\u0645\u0646\u0647": 1388, "\u0642\u0631\u0627\u0631": 1389, "##\u0632\u0627\u0644": 1390, "##\u0635\u0627\u0631": 1391, "##\u0628\u062f\u0623": 1392, "\u0627\u0644\u0628\u0644\u0627\u062f": 1393, "\u0627\u0628": 1394, "##\u0637\u0641\u0627\u0644": 1395, "\u0634\u0631": 1396, "##\u062a\u064a\u062c\u0629": 1397, "\u0648\u0636\u0639": 1398, "\u0627\u062c\u062a\u0645\u0627": 1399, "\u0627\u0644\u0628\u0646": 1400, "##\u0631\u0628\u0629": 1401, "\u0628\u0648": 1402, "##\u0639\u062a\u0628\u0631": 1403, "##\u0648\u0621": 1404, "\u0627\u0644\u0648\u0644\u0627\u064a\u0627\u062a": 1405, "\u0646\u0634": 1406, "\u0627\u0644\u0642\u0637\u0627\u0639": 1407, "##\u064a\u0646\u064a": 1408, "\u0627\u0644\u0628\u0644\u062f": 1409, "\u062c\u0627\u0646\u0628": 1410, "\u0648\u0627\u062d\u062f": 1411, "##\u0633\u0649": 1412, "##\u0635\u0648\u0635": 1413, "\u0627\u0644\u0648\u0637\u0646\u064a\u0629": 1414, "\u0627\u0644\u0639\u062f\u064a\u062f": 1415, "\u0627\u0645\u0633": 1416, "\u0648\u062a\u0645": 1417, "\u0627\u0644\u062c\u064a\u0634": 1418, "##\u062c\u0627\u0647": 1419, "\u0639\u0644\u0627": 1420, "##\u0637\u0644\u0628": 1421, "\u0644\u0648": 1422, "\u0645\u0634\u064a\u0631\u0627": 1423, "\u0633\u0646\u0648\u0627\u062a": 1424, "##\u0633\u0631\u0627\u0626\u064a\u0644\u064a": 1425, "\u062f\u0631": 1426, "\u0635\u0641": 1427, "\u0627\u0644\u062b\u0627\u0646\u064a\u0629": 1428, "##\u0627\u0647\u062f": 1429, "##\u0646\u0627\u0645\u062c": 1430, "##\u0633\u0633\u0629": 1431, "##\u062c\u0648\u0645": 1432, "\u0642\u062f\u0645": 1433, "\u0627\u0644\u0628\u062d\u0631": 1434, "\u0628\u0644\u063a": 1435, "\u0627\u0644\u0642\u0627\u062f": 1436, "##\u0627\u0639\u062f": 1437, "##\u0634\u0629": 1438, "\u0644\u0645\u0627": 1439, "##\u0643\u0627\u062a": 1440, "##\u0647\u062f\u0627\u0641": 1441, "\u0627\u0644\u062a\u0639\u0644\u064a\u0645": 1442, "##\u0633\u0633\u0627\u062a": 1443, "\u0627\u0644\u062c\u062f\u064a\u062f": 1444, "\u062d\u0631": 1445, "##\u062a\u0647\u0645": 1446, "\u0646\u0641\u0633\u0647": 1447, "\u0646\u0641": 1448, "\u0627\u0644\u0627\u0646\u062a\u062e\u0627\u0628\u0627\u062a": 1449, "\u0644\u0634": 1450, "\u0639\u0628\u062f\u0627\u0644\u0639\u0632\u064a\u0632": 1451, "##\u0628\u064a\u0631": 1452, "\u062c\u0632": 1453, "\u062d\u0627\u0644\u0629": 1454, "##\u0647\u062a\u0645": 1455, "##\u062f\u0627\u062f": 1456, "\u0645\u062c\u0645\u0648\u0639\u0629": 1457, "\u0645\u0634\u0631\u0648\u0639": 1458, "##\u0627\u0626\u0628": 1459, "\u062d\u0632\u0628": 1460, "##\u0634\u062d": 1461, "\u0644\u0644\u062f": 1462, "\u062c\u062f\u064a\u062f": 1463, "##\u0626\u064a": 1464, "\u0627\u0644\u062a\u0635": 1465, "##\u0627\u0644\u0649": 1466, "\u0627\u0644\u0628\u0637": 1467, "##\u0648\u0628\u0629": 1468, "\u0627\u0644\u0633\u064a": 1469, "\u0627\u0644\u0646\u0638\u0627\u0645": 1470, "\u0628\u064a\u0627\u0646": 1471, "##\u0627\u062f\u062b": 1472, "##\u0627\u0626\u0642": 1473, "##\u0627\u0645\u064a": 1474, "\u0628\u062f\u0627": 1475, "\u0648\u0643\u0627\u0646\u062a": 1476, "\u0648\u0645\u0639": 1477, "\u0627\u0644\u0641\u0631\u0646": 1478, "\u0627\u0644\u0623\u062d": 1479, "##\u0642\u0648\u0644": 1480, "\u0627\u0644\u0639\u062f": 1481, "##\u0627\u0643": 1482, "##\u0645\u0633": 1483, "##\u0645\u064a": 1484, "\u0627\u0644\u062a\u0623": 1485, "\u0627\u0644\u0625\u0639\u0644\u0627\u0645": 1486, "\u0627\u0644\u0627\u0645\u064a\u0631": 1487, "\u0627\u0644\u062a\u0642": 1488, "##\u0642\u0631\u064a\u0631": 1489, "##\u0627\u0646\u0629": 1490, "\u0645\u0633\u0624\u0648\u0644": 1491, "##\u0647\u0646": 1492, "\u0644\u0647\u0645": 1493, "11": 1494, "##\u0644\u064a\u0627": 1495, "\u0627\u0644\u0644\u0628\u0646\u0627\u0646\u064a": 1496, "\u0627\u0644\u062d\u0631\u0628": 1497, "\u0644\u0639": 1498, "\u0627\u0644\u0648\u0627": 1499, "\u0634\u0647\u0631": 1500, "\u0627\u0644\u062e\u0644\u064a\u062c": 1501, "##\u0645\u0648\u062f": 1502, "##\u0633\u0644\u062d\u0629": 1503, "##\u0636\u0645\u0646": 1504, "\u062f\u0648\u0644\u0629": 1505, "##\u0646\u0641": 1506, "\u0627\u0644\u0643\u062a": 1507, "\u0639\u0631\u0636": 1508, "\u0627\u0644\u0627\u0648\u0644": 1509, "##\u0635\u0627\u062f\u0631": 1510, "##\u0624\u0648\u0646": 1511, "\u0627\u0644\u0633\u0641": 1512, "##\u0627\u0626\u062c": 1513, "\u0625\u0633\u0631\u0627\u0626\u064a\u0644": 1514, "\u0639\u0636": 1515, "\u0645\u062c": 1516, "\u0627\u0644\u0639\u0627\u0644\u0645\u064a\u0629": 1517, "##\u0648\u0628\u064a\u0629": 1518, "\u0642\u0637\u0627\u0639": 1519, "##\u0639\u0644\u0627\u0646": 1520, "##\u0627\u0644\u0641": 1521, "\u0627\u0644\u0641\u062a\u0631\u0629": 1522, "\u0627\u0644\u0643\u062b\u064a\u0631": 1523, "\u0648\u0623\u0634\u0627\u0631": 1524, "##\u062c\u064a\u0644": 1525, "##\u0634\u0627\u0631\u064a\u0639": 1526, "\u0627\u0644\u0645\u0628\u0627\u0631\u0627\u0629": 1527, "\u0627\u0644\u062a\u0634": 1528, "\u0639\u062f": 1529, "\u0647\u0644": 1530, "\u0641\u0639": 1531, "\u0644\u062f\u064a": 1532, "\u0627\u0644\u0641\u0631": 1533, "##\u0641\u0638": 1534, "\u0627\u0639": 1535, "\u0627\u0644\u0639\u0644\u0645": 1536, "\u0627\u0644\u062b\u0644\u0627\u062b": 1537, "##\u064a\u0648\u0646": 1538, "##\u0646\u0639": 1539, "25": 1540, "\u062a\u0642\u062f\u0645": 1541, "\u0627\u0644\u062f\u0627\u062e\u0644\u064a\u0629": 1542, "##\u0639\u0644\u0642": 1543, "\u0648\u0627\u0644\u0642": 1544, "##\u0636\u062d": 1545, "##\u0632\u0627\u0645": 1546, "18": 1547, "\u0647\u062f": 1548, "##\u064a\u0643": 1549, "##\u0644\u0627\u062a": 1550, "\u0627\u0644\u0645\u063a": 1551, "##\u0627\u0628\u062a": 1552, "\u0633\u0648\u0631\u064a\u0627": 1553, "\u062a\u062d\u0642\u064a\u0642": 1554, "\u0646\u0642\u0637\u0629": 1555, "\u062d\u0633\u0646": 1556, "\u0639\u062f\u0629": 1557, "##\u0628\u0627\u062d": 1558, "##\u062f\u0645\u0627\u062a": 1559, "##\u0648\u0644\u0627\u062a": 1560, "##\u0644\u0645\u0627\u0646": 1561, "\u0648\u063a\u064a\u0631": 1562, "\u0628\u0627\u0631": 1563, "\u0627\u0644\u0623\u0646": 1564, "##\u0647\u0648\u0631\u064a\u0629": 1565, "\u0628\u064a\u0631": 1566, "##\u0628\u0627\u0637": 1567, "\u0627\u0644\u0645\u0635\u0631\u064a": 1568, "\u0627\u0644\u0633\u0646": 1569, "\u0646\u0627": 1570, "\u0627\u0644\u0646\u0627\u0633": 1571, "\u0627\u0644\u062a\u0639\u0627\u0648\u0646": 1572, "\u0648\u0627\u0644\u0633": 1573, "\u0627\u0644\u0645\u0633\u0624\u0648\u0644": 1574, "\u0642\u0627\u0646\u0648\u0646": 1575, "##\u0643\u0644\u0629": 1576, "##\u0626\u064a\u0629": 1577, "##\u0634\u0627\u0621": 1578, "\u0627\u0644\u0645\u0639\u0644": 1579, "\u062a\u0627\u0631\u064a\u062e": 1580, "##\u0627\u0631\u0628": 1581, "\u0627\u0644\u0646\u0647\u0627": 1582, "##\u0648\u062c\u062f": 1583, "##\u062e\u0631\u062c": 1584, "\u0628\u0627\u0633\u0645": 1585, "\u0641\u0627\u0644": 1586, "##\u0628\u0631\u0627\u0647\u064a\u0645": 1587, "##\u0647\u0627\u0632": 1588, "\u0627\u0644\u062f\u0641\u0627\u0639": 1589, "\u0646\u0647\u0627\u064a\u0629": 1590, "##\u0627\u062f\u0644": 1591, "\u0623\u0635": 1592, "\u0627\u0644\u0638": 1593, "\u0627\u0644\u062c\u062f\u064a\u062f\u0629": 1594, "##\u0642\u0645": 1595, "##\u062f\u064a\u062b": 1596, "\u0630\u0627\u062a": 1597, "##\u0648\u062b": 1598, "##\u062a\u0644": 1599, "\u0623\u0641": 1600, "##\u062e\u0648\u0644": 1601, "\u0627\u0644\u0642\u062f": 1602, "\u0623\u062c": 1603, "##\u0642\u0627\u0641\u0629": 1604, "\u0645\u0643": 1605, "\u0648\u062c\u0647": 1606, "\u0628\u0643": 1607, "\u0645\u0644\u064a\u0627\u0631": 1608, "\u0631\u064a\u0627\u0644": 1609, "\u0645\u0633\u0627\u0621": 1610, "\u0623\u0644": 1611, "\u0634\u0627\u0631": 1612, "\u0648\u0625\u0646": 1613, "##\u062c\u0628": 1614, "\u0635\u0627\u062d\u0628": 1615, "##\u0643\u064a\u0644": 1616, "\u062a\u0648\u0627": 1617, "##\u0648\u0631\u0627": 1618, "\u0648\u0627\u0644\u0630\u064a": 1619, "\u062a\u0643": 1620, "\u0627\u0644\u0645\u0635\u0631\u064a\u0629": 1621, "\u0627\u0644\u0642\u062f\u0645": 1622, "30": 1623, "\u0627\u0644\u0633\u0644\u0627\u0645": 1624, "\u062a\u0639\u062f": 1625, "\u062c\u062f\u0627": 1626, "##\u062c\u0631\u0627\u0621\u0627\u062a": 1627, "##\u063a\u064a\u064a\u0631": 1628, "\u0627\u0644\u0627\u062e": 1629, "\u0628\u0627\u0633\u062a": 1630, "##\u0639\u0627\u064a\u0629": 1631, "##\u0631\u0633": 1632, "\u0627\u0644\u062e\u0645": 1633, "##\u0637\u0627\u0646": 1634, "##\u0642\u064a\u0629": 1635, "\u0627\u0644\u062a\u0631\u0643": 1636, "##\u062c\u0627\u062d": 1637, "\u0630\u0643\u0631": 1638, "\u0628\u064a\u0646\u0645\u0627": 1639, "##\u0647\u064a\u0631": 1640, "##\u062b\u0645\u0627\u0631": 1641, "##\u0627\u0645\u0644\u0629": 1642, "\u062b\u0644\u0627\u062b\u0629": 1643, "\u0645\u0631\u0629": 1644, "\u062e\u0627\u0644\u062f": 1645, "\u0627\u0644\u0637\u0628\u064a": 1646, "\u062e\u0627\u0631\u062c": 1647, "13": 1648, "##\u0645\u062a": 1649, "\u062a\u062d\u062f": 1650, "\u0627\u0644\u062d\u0643\u0648\u0645": 1651, "##\u0639\u064a\u0646": 1652, "##\u0631\u064a\u0642\u0629": 1653, "\u0627\u0644\u0627\u062f": 1654, "##\u0644\u064a\u0646": 1655, "##\u0633\u0643\u0631\u064a\u0629": 1656, "##\u0636\u0627\u064a\u0627": 1657, "##\u062b\u0646\u064a\u0646": 1658, "##\u0634\u0641\u0649": 1659, "##\u0647\u0631\u0628": 1660, "##\u0627\u062f\u064a\u0629": 1661, "##\u062c\u0627\u0648\u0632": 1662, "\u0627\u0644\u0645\u0639\u0627\u0631": 1663, "\u062d\u0645\u0627": 1664, "\u0627\u0644\u0645\u062f\u064a\u0646\u0629": 1665, "\u0627\u0644\u0634\u0631\u0637\u0629": 1666, "\u0637\u0644\u0628": 1667, "\u0648\u0642\u0627\u0644\u062a": 1668, "\u0648\u064a\u062a": 1669, "\u0633\u0627\u0628": 1670, "\u0628\u0631\u0646\u0627\u0645\u062c": 1671, "\u0648\u0627\u0644\u0641": 1672, "##\u0627\u0646\u0649": 1673, "\u0627\u0644\u0634\u0631\u0643\u0627\u062a": 1674, "##\u0638\u0627\u0647\u0631": 1675, "##\u0627\u062d\u0629": 1676, "\u0627\u0644\u0627\u0633": 1677, "##\u0644\u0627\u0628": 1678, "##\u062c\u0647\u0632\u0629": 1679, "\u0627\u062d\u062f": 1680, "\u0633\u0645": 1681, "##\u0641\u0627\u0621": 1682, "\u064a\u0641": 1683, "##\u0643\u0627\u0631": 1684, "\u0627\u0644\u062a\u0637": 1685, "\u0639\u0645\u0631": 1686, "##\u0626\u0627\u062a": 1687, "\u0627\u0644\u0633\u0648\u0642": 1688, "\u0628\u0627\u0644\u0623": 1689, "##\u064a\u062f\u064a": 1690, "\u0645\u0628\u0627": 1691, "\u0627\u0644\u0646\u0627\u0626": 1692, "\u0648\u0628\u0639\u062f": 1693, "\u0623\u063a": 1694, "\u0648\u0633\u064a": 1695, "\u0646\u0633\u0628\u0629": 1696, "\u0644\u0644\u0646": 1697, "\u0627\u0644\u0647\u064a\u0626\u0629": 1698, "\u0627\u0644\u0644\u0628\u0646\u0627\u0646\u064a\u0629": 1699, "\u0633\u0645\u0648": 1700, "##\u0646\u062a\u0627\u062c": 1701, "##\u064a\u0627\u0631": 1702, "\u0623\u0639\u0645\u0627\u0644": 1703, "\u062d\u0627\u0644\u064a\u0627": 1704, "\u062a\u062e": 1705, "##\u0645\u062f\u0629": 1706, "\u0646\u0642\u0644": 1707, "\u0623\u0645\u0646": 1708, "\u0627\u0644\u0644\u0642\u0627\u0621": 1709, "\u0643\u0645": 1710, "\u062c\u0646\u064a": 1711, "\u0627\u0644\u0633\u0648\u0631\u064a": 1712, "\u0644\u0643\u0644": 1713, "##\u062f\u0645\u0629": 1714, "\u0628\u0646\u0633\u0628\u0629": 1715, "\u062d\u0631\u0643\u0629": 1716, "\u0623\u062e": 1717, "##\u0627\u062e": 1718, "##\u0641\u064a\u0629": 1719, "##\u0635\u0627\u0644": 1720, "\u064a\u0642\u0648\u0644": 1721, "\u0631\u063a\u0645": 1722, "##\u0633\u0627\u0633": 1723, "##\u0635\u0627\u0628\u0629": 1724, "\u0627\u0644\u062d\u064a\u0627\u0629": 1725, "\u0644\u0627\u0646": 1726, "##\u0631\u0627\u0639": 1727, "\u0648\u0627\u0644\u062b": 1728, "\u0627\u0644\u0644\u064a": 1729, "\u0627\u0644\u0645\u0646\u062a\u062e\u0628": 1730, "\u0627\u0644\u0645\u062c\u0627\u0644": 1731, "\u0643\u064a\u0641": 1732, "\u0628\u0627\u0646": 1733, "\u0645\u0624\u0643": 1734, "\u0627\u0644\u062a\u0648": 1735, "\u0627\u0644\u062f\u0648\u0631": 1736, "\u0639\u0642": 1737, "\u0627\u0644\u0642\u0627\u0647\u0631\u0629": 1738, "\u0627\u0644\u0633\u064a\u0627\u0633\u064a": 1739, "\u0631\u0633": 1740, "\u0627\u062e": 1741, "##\u0631\u064a\u0645": 1742, "\u0627\u0644\u0623\u062e\u064a\u0631\u0629": 1743, "\u0644\u0644\u0625": 1744, "\u0628\u0646\u0627\u0621": 1745, "\u0645\u0647": 1746, "\u0627\u0644\u0631\u0633\u0645": 1747, "\u0648\u0627\u0644\u0628": 1748, "\u0625\u0646\u0647": 1749, "\u0648\u0627\u0644\u0635": 1750, "\u0627\u0644\u0622\u062e\u0631": 1751, "\u0627\u0644\u062f\u0633\u062a": 1752, "##\u063a\u0627": 1753, "##\u0631\u0628\u064a": 1754, "##\u0631\u0627\u0645": 1755, "\u0648\u0635\u0644": 1756, "\u0645\u0642\u0627\u0628\u0644": 1757, "\u0627\u0644\u0635\u0646\u0627": 1758, "\u0623\u0643\u0628\u0631": 1759, "\u0627\u0644\u062d\u0632\u0628": 1760, "\u0648\u0644\u064a\u0633": 1761, "##\u0642\u0627\u0645\u0629": 1762, "\u0627\u0642\u062a": 1763, "\u062c\u0644": 1764, "\u0627\u0644\u0646\u0627\u0626\u0628": 1765, "\u0648\u062b": 1766, "##\u062c\u064a": 1767, "##\u0642\u0644\u064a\u0645": 1768, "##\u0627\u062f\u062a": 1769, "\u0646\u0627\u0626\u0628": 1770, "\u0642\u0648\u0627\u062a": 1771, "\u0628\u0627\u062a": 1772, "\u0627\u0644\u0642\u0648\u0627\u062a": 1773, "\u0627\u0644\u0642\u0628": 1774, "\u0628\u0643\u0644": 1775, "\u0627\u0644\u0627\u0642\u062a": 1776, "##\u0634\u0631\u064a\u0646": 1777, "\u0633\u0631": 1778, "\u0645\u0648\u0642\u0639": 1779, "199": 1780, "\u0643\u0627\u0641\u0629": 1781, "##\u0637\u064a\u0639": 1782, "16": 1783, "\u0644\u0627\u0639\u0628": 1784, "##\u0645\u0627\u0639": 1785, "##\u064a\u0627\u0628": 1786, "\u0644\u0645\u0646": 1787, "\u0648\u0627\u062d\u062f\u0629": 1788, "##\u0648\u064a\u0627\u062a": 1789, "\u0648\u0643\u0630\u0644\u0643": 1790, "##\u0645\u0631\u0627\u0631": 1791, "\u0627\u0644\u0634\u062e\u0635": 1792, "\u0645\u0643\u0627\u0646": 1793, "\u0639\u0628": 1794, "##\u0631\u0627\u0628": 1795, "\u0627\u0644\u062f\u064a\u0645": 1796, "##\u062e\u0627\u0635": 1797, "\u0627\u0644\u0642\u0631\u0627\u0631": 1798, "\u062a\u0646\u0641\u064a\u0630": 1799, "##\u062a\u0627": 1800, "\u0634\u0647\u062f": 1801, "##\u0627\u0635\u0645\u0629": 1802, "##\u0647\u0631\u062c\u0627\u0646": 1803, "##\u0648\u0636\u0639": 1804, "\u0639\u0644\u0645": 1805, "\u0645\u0628\u0627\u0631\u0627\u0629": 1806, "\u064a\u062d\u062a": 1807, "\u0627\u0644\u0627\u0639\u062a": 1808, "\u062a\u0642\u062f\u064a\u0645": 1809, "\u0631\u0645": 1810, "\u062f\u0639\u0645": 1811, "\u0627\u0644\u062c\u0645\u0627": 1812, "\u0648\u0628\u064a\u0646": 1813, "##\u0633\u0631\u0627\u0626\u064a\u0644\u064a\u0629": 1814, "##\u0648\u0646\u064a\u0629": 1815, "\u0646\u0638\u0627\u0645": 1816, "\u0631\u062d": 1817, "\u0628\u0642\u064a": 1818, "\u0641\u062a\u0631\u0629": 1819, "\u0644\u0642": 1820, "\u0636\u0631": 1821, "##\u0641\u0627\u0648\u0636": 1822, "\u0627\u0644\u0645\u062d\u062a": 1823, "##\u0627\u0639\u0627\u062a": 1824, "##\u0631\u0627\u062a\u064a\u062c": 1825, "\u062a\u0624": 1826, "\u0627\u0644\u0645\u0631\u062d\u0644\u0629": 1827, "##\u0627\u062c\u0629": 1828, "\u0633\u0639\u0648\u062f": 1829, "\u0635\u0627\u0644\u062d": 1830, "##\u0633\u062a\u0627\u0646": 1831, "\u062a\u0635\u0631\u064a": 1832, "\u0631\u0633\u0645": 1833, "\u0646\u0627\u062f\u064a": 1834, "\u0627\u0644\u0623\u062d\u062f": 1835, "\u0645\u0631\u062a": 1836, "\u0627\u0644\u062a\u0633": 1837, "##\u0642\u0642": 1838, "\u062f\u0645": 1839, "##\u062e\u0635\u0635": 1840, "\u0628\u0633": 1841, "\u0628\u063a": 1842, "\u0627\u0644\u0634\u0645": 1843, "\u0638\u0644": 1844, "\u0648\u064a\u0639": 1845, "\u0648\u0633\u0637": 1846, "##\u0627\u0626\u062f": 1847, "\u0627\u0644\u062e\u0627\u0635": 1848, "##\u0628\u064a\u0642": 1849, "##\u0648\u0646\u0629": 1850, "##\u0635\u0648\u0631": 1851, "\u0627\u0644\u0627\u0642\u062a\u0635\u0627\u062f\u064a\u0629": 1852, "\u0627\u0644\u0625\u0645\u0627\u0631\u0627\u062a": 1853, "\u062d\u0633\u064a\u0646": 1854, "##\u0646\u0627\u0648\u0644": 1855, "\u0627\u0633\u0645": 1856, "\u0628\u0641": 1857, "17": 1858, "##\u0634\u062f": 1859, "\u0647\u064a\u0626\u0629": 1860, "##\u0634\u0646": 1861, "\u0646\u064a": 1862, "##\u0646\u0627\u0642": 1863, "\u0627\u0644\u0633\u0639\u0648\u062f\u064a": 1864, "##\u0648\u0641\u064a\u0631": 1865, "##\u0623\u064a": 1866, "##\u0627\u062f\u0647": 1867, "\u0644\u0627\u0633\u062a": 1868, "\u0627\u0644\u0645\u0634\u0631\u0648\u0639": 1869, "\u0645\u0641": 1870, "##\u0630\u0631": 1871, "\u0628\u062f\u0627\u064a\u0629": 1872, "\u0644\u0644\u0642": 1873, "\u0631\u0641\u0636": 1874, "##\u0633\u0628\u0627\u0628": 1875, "\u062d\u0645": 1876, "\u0644\u0633": 1877, "\u0627\u0644\u062a\u0646\u0641\u064a\u0630": 1878, "##\u062c\u0627\u0631": 1879, "\u0627\u0644\u0641\u0644\u0633\u0637\u064a\u0646\u064a\u0629": 1880, "##\u062d\u0642\u064a\u0642": 1881, "\u0644\u0643": 1882, "\u0628\u0634\u0623\u0646": 1883, "\u0639\u0627\u0644\u0645": 1884, "\u0622\u0644": 1885, "\u0627\u0644\u062c\u0627\u0645\u0639\u0629": 1886, "\u0627\u0644\u0645\u0648\u0627\u0637\u0646\u064a\u0646": 1887, "\u062d\u0642\u0648\u0642": 1888, "\u0627\u062d": 1889, "##\u0627\u062f\u0649": 1890, "\u0647\u0645": 1891, "##\u062c\u0645\u064a\u0639": 1892, "##\u0631\u0645": 1893, "\u062c\u0627\u0645\u0639\u0629": 1894, "##\u0635\u0644\u0627\u062d": 1895, "\u0644\u0628": 1896, "##\u0634\u0642": 1897, "\u0627\u0633\u062a\u062e\u062f\u0627\u0645": 1898, "##\u0637\u0644\u0627": 1899, "\u0645\u0646\u0647\u0645": 1900, "##\u0639\u0631\u0636": 1901, "##\u0631\u0627\u062c\u0639": 1902, "##\u0627\u0626\u0632\u0629": 1903, "\u0627\u0644\u0623\u0639\u0645\u0627\u0644": 1904, "##\u0647\u062a\u0645\u0627\u0645": 1905, "##\u0631\u0648\u062c": 1906, "##\u0639\u0628\u0629": 1907, "\u0648\u0627\u0644\u0627\u0633\u062a": 1908, "\u0641\u0636": 1909, "\u0625\u0630": 1910, "\u062f\u064a\u0646": 1911, "\u0645\u0644\u0627": 1912, "\u0628\u0627\u0644\u0646\u0633\u0628\u0629": 1913, "\u0627\u0644\u0645\u0637": 1914, "##\u0631\u0647\u0627": 1915, "\u0627\u0644\u0645\u0633\u0644\u0645": 1916, "\u0627\u0644\u0645\u0642\u0628": 1917, "\u064a\u0628": 1918, "\u062d\u0633\u0628": 1919, "\u0627\u0644\u062c\u0645\u0639\u064a\u0629": 1920, "##\u0624\u0644\u0627\u0621": 1921, "##\u0648\u0644\u064a": 1922, "##\u064a\u0631\u064a\u0629": 1923, "##\u062a\u064a\u0627\u0631": 1924, "##\u0635\u0627\u0644\u0627\u062a": 1925, "\u0627\u0644\u062d\u0643\u0645": 1926, "\u0627\u0644\u062d\u0627\u0644\u064a": 1927, "\u0631\u0623\u0633": 1928, "\u0623\u064a\u0627\u0645": 1929, "##\u0639\u0648": 1930, "##\u0641\u0631\u0627\u062f": 1931, "\u064a\u0623": 1932, "\u0627\u0634": 1933, "\u0627\u0644\u0633\u0648": 1934, "##\u0641\u062a\u062a": 1935, "##\u0631\u0628\u0639\u0629": 1936, "\u0635\u062f": 1937, "\u0627\u0644\u0646\u0642": 1938, "##\u0647\u0627\u062f": 1939, "##\u0646\u0627\u0635\u0631": 1940, "\u062a\u0639\u0631\u0636": 1941, "##\u0647\u064a": 1942, "\u0627\u0644\u0645\u0634\u062a": 1943, "\u0627\u0644\u062e\u0627\u0645": 1944, "\u0633\u0639\u062f": 1945, "\u0627\u0644\u062d\u0642": 1946, "\u0623\u0641\u0636\u0644": 1947, "\u0627\u0646\u0647\u0627": 1948, "\u0627\u0644\u0634\u0639": 1949, "##\u0627\u0626\u064a": 1950, "##\u0648\u0631\u0627\u062a": 1951, "##\u0628\u0631\u0632": 1952, "\u0627\u0644\u0623\u0645\u0631\u064a\u0643\u064a\u0629": 1953, "\u0648\u0627\u0644\u062e": 1954, "\u064a\u0627": 1955, "\u0627\u0644\u0625\u0633\u0644\u0627\u0645\u064a\u0629": 1956, "##\u0642\u0631\u0627": 1957, "\u062c\u062f": 1958, "##\u0628\u0627\u0621": 1959, "\u0627\u062f": 1960, "\u0641\u0631\u0646": 1961, "\u0627\u0644\u0648\u0632\u0627\u0631\u0629": 1962, "##\u0639\u0644\u0646\u062a": 1963, "\u062a\u0646\u0638\u064a\u0645": 1964, "##\u0635\u062d\u0627\u0628": 1965, "##\u0638\u0641": 1966, "\u0627\u0644\u0645\u0624\u062a\u0645\u0631": 1967, "\u0646\u062c": 1968, "\u0648\u0623\u0648\u0636\u062d": 1969, "\u0646\u062a\u064a\u062c\u0629": 1970, "\u0627\u0644\u0639\u0644\u0627\u0642\u0627\u062a": 1971, "\u0627\u0644\u0623\u0634": 1972, "\u0645\u0628": 1973, "##\u0627\u0644\u064a\u0627\u062a": 1974, "\u0645\u0624\u0643\u062f\u0627": 1975, "\u0644\u0631": 1976, "\u0627\u0644\u062a\u0627\u0631\u064a\u062e": 1977, "\u062e\u0635\u0648\u0635": 1978, "\u0627\u062d\u0645\u062f": 1979, "\u0644\u0642\u062f": 1980, "\u0628\u0627\u0644\u0625\u0636\u0627\u0641\u0629": 1981, "##\u0637\u0639": 1982, "\u0627\u0644\u0646\u0627\u062f\u064a": 1983, "\u062c\u0647\u0629": 1984, "\u0641\u0644": 1985, "##\u0642\u062a\u0644": 1986, "##\u0645\u0628\u0631": 1987, "\u0633\u0644\u064a\u0645": 1988, "\u0625\u0645": 1989, "\u0627\u0631\u062a\u0641\u0627\u0639": 1990, "##\u0627\u064a": 1991, "\u0627\u0644\u062b\u0627\u0644\u062b": 1992, "##\u0645\u0646\u0637\u0642\u0629": 1993, "\u0631\u062c\u0627\u0644": 1994, "\u0627\u0644\u062c\u0645\u064a\u0639": 1995, "\u062b\u0644\u0627\u062b": 1996, "##\u064a\u0627\u0645": 1997, "\u0627\u0644\u064a\u0645\u0646": 1998, "##\u062a\u0645\u062f": 1999, "##\u064a\u0635": 2000, "\u0632\u064a\u0627\u062f\u0629": 2001, "\u0627\u0644\u0633\u064a\u062f": 2002, "\u0627\u0644\u0634\u0647\u0631": 2003, "\u064a\u0642\u0648\u0645": 2004, "\u0627\u0644\u062c\u0645\u0639\u0629": 2005, "\u0646\u062d\u0646": 2006, "\u0643\u0648\u0646": 2007, "\u0648\u062a\u0646": 2008, "##\u0634\u0644": 2009, "\u0648\u0627\u0644\u062c": 2010, "\u0627\u0644\u0645\u0627\u0636\u064a\u0629": 2011, "\u0641\u0647\u062f": 2012, "##\u0635\u064a\u0644": 2013, "\u0639\u0646\u0647": 2014, "\u0645\u0628\u0627\u0631\u0643": 2015, "##\u0627\u062a\u0647\u0645": 2016, "##\u0639\u0644\u064a\u0645": 2017, "##\u0636\u064a\u0641": 2018, "\u0627\u0644\u0633\u0644\u0637\u0629": 2019, "##\u0648\u0644\u0648\u062c": 2020, "\u0645\u0633\u0627\u0639\u062f": 2021, "\u0627\u0644\u0627\u062c\u062a\u0645\u0627\u0639\u064a\u0629": 2022, "\u0642\u062f\u0631": 2023, "##\u0648\u0627\u062c": 2024, "##\u0644\u064a\u0641": 2025, "\u0627\u0645\u0627\u0645": 2026, "##\u0643\u0627\u0645": 2027, "##\u0646\u0627\u0629": 2028, "##\u0648\u062c\u0648\u062f": 2029, "##\u0648\u0633\u0641": 2030, "##\u0631\u0641\u0639": 2031, "##\u0648\u0631\u0648\u0628\u064a": 2032, "\u0623\u0645\u064a\u0631": 2033, "\u0623\u062b\u0646\u0627\u0621": 2034, "\u0627\u0644\u0625\u062f\u0627\u0631\u0629": 2035, "\u0641\u0644\u0633\u0637\u064a\u0646": 2036, "\u0627\u0644\u0645\u0644": 2037, "\u062f\u0627\u0626": 2038, "##\u0627\u0641\u064a": 2039, "##\u0628\u062f\u0648": 2040, "##\u0647\u0648\u062f": 2041, "\u064a\u0648\u0646": 2042, "##\u0639\u0648\u0629": 2043, "\u0633\u0648\u0627\u0621": 2044, "\u0627\u0644\u0625\u0646\u0633\u0627\u0646": 2045, "\u062d\u0635\u0644": 2046, "\u0623\u0639\u0636\u0627\u0621": 2047, "\u0631\u0628": 2048, "\u0644\u0642\u0627\u0621": 2049, "\u0627\u0644\u0634\u0631\u0642\u064a\u0629": 2050, "##\u0628\u0631\u0649": 2051, "\u0645\u062b": 2052, "##\u0631\u0627\u0642\u064a": 2053, "\u0627\u0644\u062e\u0645\u064a\u0633": 2054, "##\u0633\u0643\u0631\u064a": 2055, "\u0627\u0644\u0627\u062a\u0641\u0627\u0642": 2056, "##\u0647\u0628": 2057, "\u0623\u0639\u0644\u0646": 2058, "\u0627\u0644\u0645\u0634\u0627\u0631\u0643\u0629": 2059, "\u0627\u0644\u0645\u0631\u0623\u0629": 2060, "\u0627\u0644\u062b\u0642\u0627\u0641": 2061, "\u0645\u0633\u0627": 2062, "\u0627\u0644\u0645\u062f\u0631": 2063, "##\u0642\u0628\u0627\u0644": 2064, "\u0642\u0628": 2065, "\u0644\u064a\u0633\u062a": 2066, "\u0627\u0644\u062f\u0645": 2067, "##\u0631\u0627\u0643\u0632": 2068, "\u0627\u0644\u062c\u0645\u0647\u0648\u0631\u064a\u0629": 2069, "\u0627\u0644\u0623\u0647": 2070, "\u062c\u0646\u0648\u0628": 2071, "\u0627\u0644\u0623\u062e\u0631\u0649": 2072, "\u0627\u0644\u0648\u0636\u0639": 2073, "\u064a\u0631": 2074, "\u0637\u0628\u064a": 2075, "\u062f\u0628\u064a": 2076, "\u0648\u0637": 2077, "\u062d\u0627": 2078, "\u0628\u064a\u0631\u0648\u062a": 2079, "\u0644\u0635": 2080, "\u0646\u0633": 2081, "\u0639\u0645\u0644\u064a\u0627\u062a": 2082, "\u0627\u0644\u0627\u0633\u0644\u0627\u0645": 2083, "\u0627\u0644\u0635\u062d\u0629": 2084, "\u062c\u0627\u0646": 2085, "##\u0646\u062f\u0648\u0642": 2086, "\u0627\u0644\u0628\u0631\u064a\u0637": 2087, "\u0645\u0639\u0644": 2088, "\u0628\u0644\u0627": 2089, "\u0633\u062c\u0644": 2090, "\u0627\u0644\u0633\u0628\u062a": 2091, "##\u0642\u0631\u0631": 2092, "\u0627\u0644\u0645\u0639\u0644\u0648\u0645\u0627\u062a": 2093, "\u064a\u0644": 2094, "\u0627\u0644\u0645\u0648\u0633\u0645": 2095, "\u0636\u0631\u0648\u0631\u0629": 2096, "\u0627\u0644\u0645\u0642\u0627": 2097, "##\u0647\u064a\u0644": 2098, "\u062c\u0645\u0627": 2099, "##\u0635\u0631\u0641": 2100, "\u0627\u0644\u0645\u0642\u0628\u0644\u0629": 2101, "\u0623\u0649": 2102, "\u062a\u0642\u0648\u0645": 2103, "\u0627\u0644\u0623\u062f": 2104, "\u064a\u0643\u0646": 2105, "##\u0635\u0627\u062f\u064a": 2106, "##\u064a\u0642": 2107, "\u0644\u0643\u0631\u0629": 2108, "\u0643\u0623\u0633": 2109, "\u0623\u0631": 2110, "\u062d\u0643\u0648\u0645\u0629": 2111, "\u062a\u062a\u0645": 2112, "\u0627\u0644\u0639\u0627\u0635\u0645\u0629": 2113, "##\u0639\u064a\u0634": 2114, "\u0627\u0644\u062d\u062f\u0648\u062f": 2115, "\u0627\u0643\u062b\u0631": 2116, "\u0648\u0627\u0639\u062a": 2117, "\u064a\u0646\u0627": 2118, "##\u0635\u0644\u062d\u0629": 2119, "\u0627\u062c\u062a\u0645\u0627\u0639": 2120, "\u0627\u0644\u0643\u0628\u064a\u0631": 2121, "\u0641\u0623": 2122, "\u0644\u0647\u0630\u0627": 2123, "\u0627\u0644\u0645\u062d\u0643\u0645\u0629": 2124, "##\u0627\u0639\u0631": 2125, "##\u0632\u0646": 2126, "\u0627\u0644\u062d\u0644": 2127, "##\u063a\u0628": 2128, "##\u0641\u064a\u0642": 2129, "\u0644\u0644\u0633": 2130, "##\u0642\u0627\u0645": 2131, "\u0646\u0648\u0639": 2132, "\u0627\u0644\u0633\u0648\u0631\u064a\u0629": 2133, "\u0648\u0648": 2134, "\u0627\u0644\u0623\u0633\u0628\u0648\u0639": 2135, "\u0627\u0644\u0645\u0646\u0627\u0637\u0642": 2136, "##\u062d\u0628": 2137, "##\u0633\u0627\u0633\u064a\u0629": 2138, "##\u0627\u0628\u064a": 2139, "\u0633\u0639\u064a\u062f": 2140, "\u0625\u062f": 2141, "##\u0648\u063a": 2142, "\u0648\u0636": 2143, "##\u0637\u0644\u0639": 2144, "\u0631\u0624": 2145, "\u064a\u0639\u062f": 2146, "\u0627\u0644\u0623\u0631\u0636": 2147, "##\u0643\u0628\u0631": 2148, "\u0627\u0644\u0645\u0627\u0644": 2149, "##\u0638\u0629": 2150, "##\u0627\u0639\u062f\u0629": 2151, "\u062a\u063a": 2152, "\u0627\u0644\u0632\u064a": 2153, "\u0645\u0646\u0627": 2154, "##\u0648\u0628\u0631": 2155, "\u0628\u0627\u0644\u0639": 2156, "\u0627\u0644\u0633\u0648\u062f": 2157, "\u0645\u0635\u0627\u062f\u0631": 2158, "\u0628\u0647\u062f\u0641": 2159, "\u0627\u0644\u0633\u0627\u0639\u0629": 2160, "##\u0627\u0628\u0647": 2161, "\u0645\u062d\u0645\u0648\u062f": 2162, "##\u0644\u0628\u064a\u0629": 2163, "##\u0641\u0649": 2164, "\u0641\u062a\u062d": 2165, "\u062e\u0635\u0648\u0635\u0627": 2166, "\u0641\u0627\u0646": 2167, "\u0634\u064a\u0621": 2168, "\u0627\u0644\u0645\u0635\u0631\u0649": 2169, "##\u0631\u064a\u0629": 2170, "\u0628\u062f\u0623\u062a": 2171, "##\u0631\u0648\u0636": 2172, "\u062e\u0645": 2173, "##\u0641\u064a\u0627\u062a": 2174, "\u0628\u0623\u0646\u0647": 2175, "##\u0624\u0627\u0644": 2176, "##\u0631\u0641\u0636": 2177, "##\u0641\u0642\u0629": 2178, "\u0646\u0634\u0631": 2179, "##\u0647\u0627\u0621": 2180, "\u0627\u0644\u0644\u0627\u0639\u0628\u064a\u0646": 2181, "50": 2182, "\u0627\u0630\u0627": 2183, "\u0648\u0630\u0643\u0631": 2184, "\u0647\u0624\u0644\u0627\u0621": 2185, "\u064a\u062e": 2186, "\u0639\u0636\u0648": 2187, "\u0645\u0648\u0633": 2188, "##\u064a\u0631\u0627\u062a": 2189, "\u0648\u062a\u0639": 2190, "\u0627\u0644\u0645\u0633\u062a\u0642\u0628\u0644": 2191, "##\u0648\u0631\u0648\u0628\u0627": 2192, "\u0642\u0635": 2193, "##\u064a\u0646\u064a\u0629": 2194, "\u0627\u0644\u0632\u0631\u0627": 2195, "\u062c\u0646\u064a\u0647": 2196, "##\u0627\u0626\u0641": 2197, "\u0625\u0636\u0627\u0641\u0629": 2198, "\u0627\u0644\u0628\u064a": 2199, "\u0627\u0644\u062b\u0644\u0627\u062b\u0627\u0621": 2200, "##\u0631\u0627\u062d": 2201, "\u0645\u0639\u0647": 2202, "\u0644\u0627\u0641": 2203, "\u0645\u0639\u062f": 2204, "\u0642\u0636\u064a\u0629": 2205, "\u0648\u062a\u0634": 2206, "##\u0646\u0627\u0639\u0629": 2207, "##\u064a\u0632\u0629": 2208, "\u0644\u0646\u0627": 2209, "\u0628\u0639\u064a\u062f": 2210, "\u0637\u0627\u0644\u0628": 2211, "##\u0642\u0635": 2212, "\u0634\u0628": 2213, "##\u063a\u0637": 2214, "\u0627\u0644\u0648\u0632\u064a\u0631": 2215, "\u062d\u0648": 2216, "##\u062e\u0631\u0627": 2217, "\u0648\u0628\u0627\u0644\u062a": 2218, "\u0648\u0645\u062f": 2219, "\u0633\u064a\u0643\u0648\u0646": 2220, "\u0628\u062f\u0623": 2221, "\u0642\u062a\u0644": 2222, "##\u0636\u0627\u0646": 2223, "##\u062f\u062a": 2224, "##\u0648\u0641\u0631": 2225, "\u062a\u0637\u0648\u064a\u0631": 2226, "\u0627\u0644\u0628\u0639\u0636": 2227, "\u0627\u0644\u0625\u062e": 2228, "\u0627\u062a\u0641\u0627\u0642": 2229, "##\u0639\u062a\u0642\u062f": 2230, "##\u062b\u0627\u0631": 2231, "\u0627\u0644\u0634\u0631\u064a\u0641": 2232, "##\u0628\u0646\u0649": 2233, "\u0639\u0646\u0647\u0627": 2234, "\u063a\u0632\u0629": 2235, "\u0645\u062d\u0627\u0641\u0638\u0629": 2236, "\u0627\u0644\u0645\u0633\u0627": 2237, "\u0641\u0646": 2238, "\u062d\u0645\u062f": 2239, "##\u0647\u0627\u0645": 2240, "##\u0648\u0632\u064a\u0639": 2241, "##\u0627\u062f\u0631\u0629": 2242, "\u0633\u064a\u0646": 2243, "##\u0648\u0631\u0649": 2244, "\u0631\u0642\u0645": 2245, "##\u0627\u0643\u0644": 2246, "\u0627\u0644\u0645\u062d\u0644\u064a\u0629": 2247, "24": 2248, "\u0623\u062a": 2249, "##\u0637\u0627\u0621": 2250, "\u0645\u0631\u0627": 2251, "\u0627\u0644\u0645\u064a\u0627\u0647": 2252, "##\u0627\u0631\u0642": 2253, "\u0644\u0644\u0627\u0633\u062a": 2254, "\u0647\u062f\u0641": 2255, "\u0628\u0644\u062f": 2256, "\u0627\u0644\u062b\u0648\u0631\u0629": 2257, "##\u062d\u0635": 2258, "\u0627\u0644\u0645\u062f\u064a\u0631": 2259, "\u0644\u0645\u062f\u0629": 2260, "##\u0627\u0631\u0639": 2261, "\u0628\u0627\u0644\u062f": 2262, "##\u062d\u0627\u0641\u0638\u0629": 2263, "\u0635\u062d\u064a\u0641\u0629": 2264, "\u0634\u0645\u0627\u0644": 2265, "##\u0643\u064a\u062f": 2266, "##\u0637\u0648\u064a\u0631": 2267, "\u0627\u0644\u0642\u0627\u0626": 2268, "\u0627\u0644\u0637\u0631\u064a\u0642": 2269, "##\u062d\u062f\u0649": 2270, "\u0627\u0644\u0627\u062b\u0646\u064a\u0646": 2271, "\u062d\u062f\u062b": 2272, "\u0627\u0644\u062e\u062f\u0645\u0627\u062a": 2273, "\u062a\u0648\u0642": 2274, "\u0627\u0644\u0628\u0637\u0648\u0644\u0629": 2275, "##\u0627\u0628\u0627": 2276, "\u0627\u0644\u0646\u064a": 2277, "##\u0633\u0627\u0645": 2278, "\u0623\u0645\u0631": 2279, "\u0645\u0642\u0631": 2280, "\u0648\u062d\u062f": 2281, "\u062f\u064a": 2282, "\u0648\u062a\u062a": 2283, "\u0627\u0644\u0625\u0633": 2284, "\u0627\u064a\u0636\u0627": 2285, "##\u0648\u0644\u0647": 2286, "\u0644\u0644\u0631": 2287, "##\u0647\u0627\u0631": 2288, "\u062e\u0644\u0641": 2289, "\u0638\u0647\u0631": 2290, "\u0633\u0648\u0642": 2291, "\u0644\u0630\u0644\u0643": 2292, "\u0645\u0639\u0638\u0645": 2293, "\u0627\u0644\u0639\u0645\u0631": 2294, "\u0646\u0635": 2295, "##\u0639\u0627\u062f": 2296, "\u0628\u0637\u0648\u0644\u0629": 2297, "\u0627\u0628\u0646": 2298, "##\u064a\u062f\u0627\u0646": 2299, "##\u0631\u064a\u0628\u0627": 2300, "##\u0627\u0628\u0637": 2301, "\u0648\u0643\u0644": 2302, "##\u0633\u0627\u0646\u064a\u0629": 2303, "##\u0627\u062f\u0645": 2304, "\u0627\u0644\u0645\u062c\u0645\u0648\u0639\u0629": 2305, "##\u0632\u064a\u0629": 2306, "\u0648\u0627\u0633": 2307, "\u0643\u062b\u064a\u0631\u0627": 2308, "\u0627\u0644\u0631\u062d": 2309, "\u0627\u0644\u0646\u0648": 2310, "\u0633\u0648\u0641": 2311, "##\u0639\u064a\u0645": 2312, "\u0627\u0644\u062a\u0631\u0628\u064a\u0629": 2313, "\u0627\u0644\u0633\u0645\u0648": 2314, "\u0635\u0628\u0627\u062d": 2315, "\u0627\u0644\u062c\u0627\u0645": 2316, "\u0645\u0624\u062a\u0645\u0631": 2317, "\u0627\u0644\u062a\u0631": 2318, "\u0627\u0644\u062f\u0648\u0631\u064a": 2319, "\u0627\u0644\u0646\u0638\u0631": 2320, "##\u0648\u062c\u064a\u0647": 2321, "\u0633\u0641": 2322, "\u0627\u0644\u0628\u064a\u0627\u0646": 2323, "\u0627\u0644\u062c\u0627\u0646\u0628": 2324, "##\u0627\u0626\u0644\u0629": 2325, "\u0627\u0643\u062a": 2326, "\u0627\u0644\u0645\u0641": 2327, "\u064a\u0648\u0633\u0641": 2328, "\u0627\u0644\u0639\u0644": 2329, "\u0628\u0627\u0644\u062d": 2330, "##\u0627\u0645\u0646": 2331, "##\u0641\u0627\u0638": 2332, "\u0627\u0644\u0623\u0631\u0628\u0639": 2333, "\u0627\u0644\u0628\u0631\u0646": 2334, "22": 2335, "\u0627\u0644\u0628\u062d\u062b": 2336, "\u0627\u0644\u0635\u062d\u064a\u0629": 2337, "##\u062b\u0645\u0631": 2338, "\u0648\u0647\u0646\u0627": 2339, "##\u0627\u062a\u0628": 2340, "##\u0631\u064a\u0627\u062a": 2341, "\u0634\u0639": 2342, "\u0631\u0641\u0639": 2343, "\u0625\u0644\u064a\u0647": 2344, "\u0627\u0644\u0623\u0639": 2345, "##\u0631\u0627\u0633\u0627\u062a": 2346, "\u0645\u0635\u062f\u0631": 2347, "##\u0627\u0645\u064a\u0629": 2348, "\u0644\u0644\u0641": 2349, "\u062a\u0645\u062a": 2350, "##\u0627\u0628\u0642\u0629": 2351, "##\u0648\u064a\u0627": 2352, "\u0627\u0644\u0639\u0633\u0643\u0631\u064a\u0629": 2353, "##\u0645\u064a\u0644": 2354, "\u0627\u0644\u0645\u0632": 2355, "\u0639\u0634\u0631\u0629": 2356, "\u0627\u0644\u0623\u0645\u064a\u0631\u0643\u064a\u0629": 2357, "##\u0646\u062f\u0633": 2358, "\u0628\u0627\u0644\u0641": 2359, "\u0628\u0627\u0644\u0642": 2360, "\u0644\u0647\u0630\u0647": 2361, "\u0648\u0627\u0636\u0627\u0641": 2362, "\u0627\u0644\u062c\u0644": 2363, "##\u0638\u0628\u064a": 2364, "\u0627\u0644\u0628\u0631\u0646\u0627\u0645\u062c": 2365, "21": 2366, "##\u0627\u0646\u0627": 2367, "\u0627\u0644\u062d\u0648\u0627\u0631": 2368, "\u064a\u0635": 2369, "\u0623\u0647\u0645\u064a\u0629": 2370, "\u0632\u0648\u062c": 2371, "\u0645\u0643\u062a\u0628": 2372, "\u0627\u0644\u0645\u0628": 2373, "##\u0631\u064a\u0645\u0629": 2374, "##\u0648\u0628\u0627\u062a": 2375, "##\u063a\u064a\u0631\u0629": 2376, "##\u0627\u0628\u0631": 2377, "\u0642\u0627\u0626\u0644\u0627": 2378, "\u0627\u0644\u0639\u0646": 2379, "\u0627\u0644\u0646\u0641\u0637": 2380, "\u0627\u0644\u0627\u0648\u0644\u0649": 2381, "\u0634\u0631\u0643\u0627\u062a": 2382, "##\u062d\u062a\u0649": 2383, "\u0627\u0644\u0628\u062f": 2384, "##\u0645\u062f\u064a\u0646\u0629": 2385, "\u0645\u0632": 2386, "\u0644\u062c": 2387, "\u0627\u0644\u0639\u0631\u0627\u0642\u064a": 2388, "##\u0642\u0647": 2389, "\u0627\u0644\u0639\u0645\u0644\u064a\u0629": 2390, "##\u0644\u0641\u0632\u064a": 2391, "\u0645\u0648\u0636\u0648\u0639": 2392, "##\u0637\u0627": 2393, "##\u0642\u062f\u0631": 2394, "##\u0648\u064a\u062a\u064a": 2395, "\u0627\u0644\u0645\u0633\u0644\u0645\u064a\u0646": 2396, "\u0628\u0647\u0630\u0627": 2397, "\u0627\u0644\u0639\u0644\u064a\u0627": 2398, "\u0627\u0644\u0642\u0635": 2399, "\u0645\u0627\u0631": 2400, "\u0634\u0639\u0628": 2401, "\u0646\u062a\u0627\u0626\u062c": 2402, "\u0641\u0648\u0632": 2403, "##\u0645\u0646\u062a": 2404, "\u0623\u0646\u0627": 2405, "\u0625\u0637\u0627\u0631": 2406, "##\u0633\u062a\u0631": 2407, "##\u0642\u062f\u0645\u0629": 2408, "##\u062a\u0646\u0627": 2409, "\u0644\u0644\u062c": 2410, "\u0628\u064a\u062a": 2411, "\u0627\u063a": 2412, "\u064a\u0639\u0645\u0644": 2413, "\u0627\u0644\u0627\u062c\u062a\u0645\u0627\u0639": 2414, "\u0645\u0636": 2415, "##\u0627\u0626\u0639": 2416, "\u0648\u062a\u062d": 2417, "\u0627\u0644\u062d\u0643\u0648\u0645\u064a\u0629": 2418, "\u062d\u064a\u0627\u062a": 2419, "\u0648\u0633\u062a": 2420, "\u0627\u0644\u0645\u0639\u0627\u0631\u0636\u0629": 2421, "\u0631\u0623": 2422, "##\u0627\u0646\u062f": 2423, "##\u0627\u0637\u0642": 2424, "##\u064a\u0631\u0647": 2425, "\u0627\u0644\u0645\u0648\u0636\u0648\u0639": 2426, "##\u062c\u0645\u0648\u0639": 2427, "\u0627\u062a\u062d\u0627\u062f": 2428, "\u0627\u0644\u0641\u0631\u0646\u0633\u064a": 2429, "##\u0634\u0646\u0637\u0646": 2430, "\u0627\u0644\u0645\u0631\u062a": 2431, "\u0627\u0644\u062c\u0647\u0627\u062a": 2432, "\u0648\u0633\u0627\u0626\u0644": 2433, "\u0637\u0628": 2434, "##\u0648\u064a\u0644\u0629": 2435, "\u064a\u0639\u0631\u0641": 2436, "##\u064a\u062a\u0647": 2437, "##\u0641\u062f": 2438, "\u0643\u0630\u0644\u0643": 2439, "\u0622\u0644\u0627\u0641": 2440, "\u062d\u0643\u0645": 2441, "##\u0641\u0631\u064a\u0642\u064a\u0627": 2442, "\u0645\u062f\u0649": 2443, "##\u0631\u0627\u0636\u064a": 2444, "\u0648\u062a\u0623": 2445, "\u0643\u0644\u0645\u0629": 2446, "\u0642\u0627\u0645\u062a": 2447, "\u0648\u062d\u062a\u0649": 2448, "##\u0635\u0628\u062d\u062a": 2449, "\u0631\u0648\u0633": 2450, "\u0648\u0627\u0644\u0643": 2451, "\u062d\u0631\u0628": 2452, "\u0627\u0644\u062d\u0645": 2453, "\u0627\u0644\u0633\u0644\u0637\u0627\u062a": 2454, "\u0627\u0644\u0639\u0627\u0644\u0645\u064a": 2455, "\u0627\u0644\u0627\u0646\u062a\u062e": 2456, "##\u0648\u0642\u0631\u0627": 2457, "##\u0648\u0646\u0633": 2458, "\u0627\u0644\u0623\u0644\u0645": 2459, "\u0643\u0631\u0629": 2460, "\u0625\u0633": 2461, "\u0627\u0644\u0645\u062a\u0647\u0645": 2462, "##\u0631\u0627\u0632": 2463, "\u0648\u0627\u0644\u0645\u062a": 2464, "\u0628\u0627\u0644\u0633": 2465, "\u0627\u0644\u0625\u062f": 2466, "##\u0646\u0627\u0641": 2467, "##\u0630\u0627\u0631": 2468, "\u062c\u0632\u0621": 2469, "##\u0623\u0633\u064a\u0633": 2470, "##\u062d\u064a\u062d": 2471, "\u0623\u0631\u0636": 2472, "\u0627\u0644\u062a\u0646\u0645\u064a\u0629": 2473, "23": 2474, "\u064a\u0631\u064a\u062f": 2475, "\u0643\u0627\u0646\u0648\u0627": 2476, "\u0627\u0644\u0641\u0648\u0632": 2477, "\u0648\u0645\u062a": 2478, "##\u0627\u0644\u063a": 2479, "##\u062d\u0631\u064a\u0631": 2480, "##\u0646\u062f\u064a\u0629": 2481, "##\u0633\u064a\u0642": 2482, "\u0627\u0644\u0628\u0646\u0643": 2483, "\u064a\u0630\u0643\u0631": 2484, "\u0645\u0648\u0642\u0641": 2485, "\u064a\u0639\u062a\u0628\u0631": 2486, "\u0648\u064a\u0646": 2487, "\u0628\u0628": 2488, "##\u0628\u064a\u0639": 2489, "\u062a\u0642\u0631\u064a\u0631": 2490, "##\u0627\u0641\u064a\u0629": 2491, "##\u062e\u0627\u0630": 2492, "\u062d\u062c\u0645": 2493, "\u0643\u0628\u064a\u0631\u0627": 2494, "##\u062c\u0627\u062c": 2495, "\u0642\u064a\u0645\u0629": 2496, "\u0645\u0639\u062a": 2497, "##\u0644\u0627\u0643": 2498, "\u064a\u0646\u0627\u064a\u0631": 2499, "\u0645\u0646\u0627\u0637\u0642": 2500, "##\u0633\u0644\u0633\u0644": 2501, "##\u0628\u0639\u0629": 2502, "\u0648\u0639\u062f\u0645": 2503, "\u064a\u0646\u062a": 2504, "\u0648\u0641\u0642": 2505, "\u0648\u0639\u0646": 2506, "##\u0648\u0632\u0627\u0631\u0629": 2507, "##\u0641\u0627\u0648\u0636\u0627\u062a": 2508, "\u0627\u0645\u062a": 2509, "##\u062b\u0644\u0629": 2510, "\u0641\u0648\u0642": 2511, "\u0648\u0647\u0645": 2512, "##\u0626\u0648\u0644": 2513, "\u0625\u0644": 2514, "\u062a\u062d\u062f\u062b": 2515, "\u0627\u0644\u062a\u0641": 2516, "\u0627\u0644\u0643\u0647\u0631\u0628": 2517, "\u0627\u0644\u0648\u062d": 2518, "\u064a\u0633\u0645": 2519, "##\u0648\u0627\u0642\u0641": 2520, "\u0627\u0644\u0642\u0636\u064a\u0629": 2521, "\u0648\u0627\u0644\u0631": 2522, "\u0627\u0644\u0623\u0637\u0641\u0627\u0644": 2523, "\u0627\u0644\u0645\u0639\u0627": 2524, "##\u0631\u0646\u062a": 2525, "\u0627\u0644\u0641\u0644\u0633\u0637\u064a\u0646\u064a": 2526, "\u0627\u0644\u0645\u062c": 2527, "##\u0631\u0627\u062a\u064a\u062c\u064a\u0629": 2528, "##\u0631\u0627\u062b": 2529, "\u064a\u0639\u0646\u064a": 2530, "\u0627\u0644\u0645\u062f\u0646\u064a": 2531, "##\u0648\u0628\u064a": 2532, "\u0627\u0644\u0642\u0648\u0645": 2533, "\u0646\u0641\u0633\u0647\u0627": 2534, "\u0648\u0622": 2535, "\u0625\u064a\u0631\u0627\u0646": 2536, "\u0627\u0634\u062a": 2537, "##\u0645\u0627\u064a\u0629": 2538, "##\u0628\u064a\u0627": 2539, "\u0627\u0644\u0623\u0645\u0646\u064a\u0629": 2540, "\u0645\u062e\u062a\u0644\u0641\u0629": 2541, "\u0628\u062e": 2542, "\u0627\u0644\u0645\u062b": 2543, "\u0639\u0642\u0628": 2544, "##\u0628\u0627\u0633": 2545, "##\u0648\u0631\u0648\u0628\u064a\u0629": 2546, "##\u0627\u062a\u062d\u0627\u062f": 2547, "\u0627\u0644\u0641\u0646\u0627\u0646": 2548, "\u0627\u0644\u0623\u0645\u0645": 2549, "##\u0648\u0631\u062f": 2550, "\u0627\u0644\u0642\u0636\u0627\u0621": 2551, "##\u0630\u0628": 2552, "\u0627\u062e\u0631\u0649": 2553, "##\u0627\u0631\u0646\u0629": 2554, "\u0648\u0627\u0641": 2555, "##\u0648\u0627\u062c\u0647": 2556, "##\u0639\u0648\u0646": 2557, "\u0645\u0646\u0638\u0645\u0629": 2558, "##\u0642\u0641": 2559, "\u0625\u0639\u0627\u062f\u0629": 2560, "\u062e\u0627\u0635": 2561, "\u064a\u0643": 2562, "##\u0627\u0626\u062f\u0629": 2563, "\u0628\u0644\u063a\u062a": 2564, "\u0628\u0639\u062f\u0645\u0627": 2565, "##\u0648\u0627\u0646\u064a\u0646": 2566, "\u0627\u0644\u0643\u0631\u0629": 2567, "\u0642\u0633\u0645": 2568, "\u0627\u0644\u0645\u0637\u0644": 2569, "\u0627\u0644\u0648\u0627\u0642\u0639": 2570, "##\u062b\u0646\u0627\u0621": 2571, "##\u0646\u0627\u0626\u064a\u0629": 2572, "\u0627\u0644\u062d\u0631\u064a\u0631\u064a": 2573, "\u0648\u063a": 2574, "\u0628\u0647\u0630\u0647": 2575, "\u0627\u0644\u063a\u0631\u0628\u064a\u0629": 2576, "##\u0627\u0641\u062d\u0629": 2577, "\u0627\u0635": 2578, "\u0627\u0644\u0637\u0627\u0642\u0629": 2579, "##\u062a\u0645\u0627\u062f": 2580, "\u062f\u0641\u0639": 2581, "##\u0627\u0628\u062f": 2582, "##\u0648\u062d\u0629": 2583, "\u0625\u064a": 2584, "\u0627\u0644\u062d\u0627": 2585, "\u0627\u062f\u0627\u0631\u0629": 2586, "##\u0635\u0644\u0629": 2587, "2010": 2588, "\u0627\u0644\u0633\u0627\u0628\u0642\u0629": 2589, "\u0623\u0633\u0639\u0627\u0631": 2590, "\u0623\u0628\u0648\u0638\u0628\u064a": 2591, "\u0633\u064a\u062a\u0645": 2592, "\u0633\u0644\u064a\u0645\u0627\u0646": 2593, "##\u0628\u0627\u062f\u0631\u0629": 2594, "\u0642\u0627\u0644\u062a": 2595, "\u0627\u0644\u062a\u062c\u0627\u0631\u064a\u0629": 2596, "##\u0627\u0636\u064a": 2597, "##\u0630\u0643": 2598, "\u0644\u0623\u0646\u0647": 2599, "\u0645\u0627\u0631\u0633": 2600, "\u0627\u0644\u0627\u0642\u062a\u0635\u0627\u062f\u064a": 2601, "\u0627\u0644\u0631\u0633": 2602, "##\u0632\u064a\u0646": 2603, "##\u0627\u0626\u0647": 2604, "\u0623\u0645\u0631\u064a": 2605, "\u0623\u0639\u0644\u0646\u062a": 2606, "\u0627\u0644\u0645\u0624\u0633\u0633\u0627\u062a": 2607, "40": 2608, "\u0648\u0628\u0627\u0644": 2609, "##\u0643\u0627\u0644": 2610, "##\u0631\u0632": 2611, "\u064a\u062a\u0639\u0644\u0642": 2612, "\u0627\u0644\u0645\u062e\u062a\u0644\u0641": 2613, "\u0627\u0644\u0623\u0628": 2614, "##\u0633\u062a\u0627\u0630": 2615, "\u0623\u0644\u0645": 2616, "\u0627\u0644\u0642\u0648\u0649": 2617, "\u0625\u0628\u0631\u0627\u0647\u064a\u0645": 2618, "\u062c\u0639\u0644": 2619, "##\u0627\u0631\u062f": 2620, "\u0627\u0644\u062d\u0631\u0643\u0629": 2621, "\u0634\u0643\u0644": 2622, "\u0627\u0644\u062d\u064a": 2623, "##\u0645\u0627\u0626\u0629": 2624, "\u0627\u0644\u062a\u0645": 2625, "\u062f\u0627\u0639": 2626, "##\u0643\u0627\u0646\u064a\u0629": 2627, "\u0627\u0644\u0623\u0632\u0645\u0629": 2628, "\u0627\u0644\u0645\u0633\u0627\u0639\u062f": 2629, "\u062f\u0627\u0631": 2630, "\u0627\u0644\u0623\u0645\u064a\u0631\u0643\u064a": 2631, "\u0628\u0627\u0644\u0634": 2632, "##\u0646\u062f\u0627": 2633, "\u0639\u0644\u064a\u0647\u0645": 2634, "\u0646\u0627\u0635\u0631": 2635, "\u062a\u0634\u0643\u064a\u0644": 2636, "##\u0631\u064a\u0644": 2637, "100": 2638, "##\u0631\u0648\u062d": 2639, "##\u0627\u0645\u062a": 2640, "##\u0631\u0633\u0629": 2641, "##\u0631\u064a\u062f\u0629": 2642, "\u062d\u062f\u064a\u062b": 2643, "\u0631\u062f": 2644, "\u0627\u0633\u0631\u0627\u0626\u064a\u0644": 2645, "\u0648\u0627\u0634\u0646\u0637\u0646": 2646, "##\u062e\u0629": 2647, "\u0641\u0647\u0648": 2648, "\u0627\u0644\u0631\u063a\u0645": 2649, "\u0627\u0644\u062b\u0627\u0644\u062b\u0629": 2650, "\u0627\u0644\u0634\u0647": 2651, "\u0627\u0644\u0633\u0641\u064a\u0631": 2652, "\u0628\u0648\u0631": 2653, "\u0627\u0644\u062a\u062d\u0642\u064a\u0642": 2654, "##\u0638\u064a\u0641": 2655, "##\u0632\u0627\u0628": 2656, "\u0627\u0644\u0645\u0644\u0643\u064a": 2657, "\u0627\u0644\u062f\u0633\u062a\u0648\u0631": 2658, "\u0648\u0627\u0639": 2659, "\u0627\u0644\u0623\u0648\u0633\u0637": 2660, "\u0627\u0644\u0625\u0633\u0631\u0627\u0626\u064a\u0644\u064a": 2661, "\u0627\u0644\u0645\u062d\u0627\u0641\u0638\u0629": 2662, "\u0644\u062a\u0646": 2663, "\u0645\u0646\u062a\u062e\u0628": 2664, "##\u0648\u062c\u0647": 2665, "##\u0648\u0627\u0645": 2666, "\u0648\u0627\u0636": 2667, "\u062f\u0627\u0626\u0645\u0627": 2668, "##\u0628\u0627\u062f\u0644": 2669, "\u0639\u0628\u062f\u0627\u0644\u0631\u062d": 2670, "\u0628\u0630\u0644\u0643": 2671, "\u0627\u0644\u0641\u0646\u064a": 2672, "\u0645\u0628\u0627\u0634\u0631\u0629": 2673, "##\u064a\u0644\u0645": 2674, "##\u0635\u0627\u0635": 2675, "##\u0634\u0637\u0629": 2676, "\u0644\u0641": 2677, "\u062a\u0637\u0628\u064a\u0642": 2678, "\u0627\u0644\u0623\u0641": 2679, "\u0645\u062d\u062f": 2680, "\u0648\u0637\u0646": 2681, "##\u0631\u064a\u0627\u0636": 2682, "##\u064a\u0631\u0627\u0646\u064a": 2683, "##\u0634\u0627\u0631\u0629": 2684, "\u0641\u0639\u0644": 2685, "198": 2686, "\u0645\u0644\u0627\u064a\u064a\u0646": 2687, "\u0633\u0648\u0649": 2688, "\u0627\u0644\u0639\u0632\u064a\u0632": 2689, "##\u0645\u0631\u062a": 2690, "##\u0631\u0641\u064a\u0646": 2691, "\u0627\u0644\u0645\u062e\u062a\u0644\u0641\u0629": 2692, "\u0644\u0643\u0646\u0647": 2693, "\u0627\u0644\u0631\u0628": 2694, "##\u0647\u0645\u064a\u0629": 2695, "\u0627\u0644\u0645\u0631\u0643": 2696, "\u0645\u0646\u0627\u0641": 2697, "\u064a\u0642\u062f\u0645": 2698, "\u0623\u0634\u0647\u0631": 2699, "\u0645\u063a": 2700, "\u0645\u0624\u062e\u0631\u0627": 2701, "##\u0627\u0631\u0649": 2702, "\u0645\u0624\u0633\u0633\u0629": 2703, "\u0627\u0644\u0645\u062d\u0627": 2704, "\u0627\u0648\u0644": 2705, "\u0648\u0627\u0642": 2706, "\u0634\u0643": 2707, "\u0623\u0635\u0628\u062d": 2708, "\u0627\u0644\u0627\u062d\u062a\u0644\u0627\u0644": 2709, "\u0641\u0631\u0635\u0629": 2710, "26": 2711, "\u0633\u0627": 2712, "##\u0644\u0627\u0626": 2713, "\u0627\u0644\u0645\u0628\u0627": 2714, "##\u0638\u0627\u0631": 2715, "\u062a\u0645\u0643\u0646": 2716, "##\u0637\u0631\u0627\u0641": 2717, "\u0627\u0641\u062a\u062a": 2718, "##\u062c\u0631\u0629": 2719, "##\u0627\u0645\u064a\u0646": 2720, "\u062c\u0648": 2721, "\u0627\u0644\u0641\u0646\u064a\u0629": 2722, "\u0627\u0644\u0645\u0633\u062a\u0648\u0649": 2723, "\u0644\u0639\u062f": 2724, "##\u0641\u062a\u062d": 2725, "\u062a\u0631\u0643\u064a\u0627": 2726, "##\u062c\u0639": 2727, "##\u0623\u0644\u0629": 2728, "\u0645\u0648\u0636": 2729, "\u062c\u0645\u0639\u064a\u0629": 2730, "\u0627\u0644\u0623\u0631\u0628\u0639\u0627\u0621": 2731, "##\u0647\u0627\u062c\u0645": 2732, "\u0627\u0644\u0633\u0646\u0629": 2733, "\u0648\u0641\u0642\u0627": 2734, "\u0627\u0645\u0627": 2735, "\u0634\u0623\u0646": 2736, "\u0645\u0648\u0627\u062c\u0647\u0629": 2737, "\u0627\u0644\u0647\u0644\u0627\u0644": 2738, "\u0643\u062a\u0628": 2739, "\u0627\u0644\u062d\u062f\u064a\u062b": 2740, "\u064a\u0648\u062c\u062f": 2741, "##\u0641\u0630": 2742, "\u0645\u0634\u062a": 2743, "\u0627\u0644\u0644\u0648\u0627\u0621": 2744, "##\u0627\u0631\u062a\u0647": 2745, "\u0627\u0644\u0625\u0633\u0631\u0627\u0626\u064a\u0644\u064a\u0629": 2746, "\u0627\u0644\u062f\u0648\u0631\u0629": 2747, "\u0645\u0643\u062a": 2748, "\u0627\u0644\u0646\u0648\u0627\u0628": 2749, "\u0625\u062e": 2750, "##\u0631\u0648\u0637": 2751, "\u0627\u0644\u0627\u062d": 2752, "\u0633\u064a\u0631": 2753, "\u0648\u0641\u0649": 2754, "\u0627\u0644\u0641\u0646": 2755, "\u0627\u0644\u0647\u062f\u0641": 2756, "##\u0631\u0648\u0628": 2757, "##\u0628\u0644\u0648\u0645\u0627": 2758, "\u0627\u0644\u062d\u0631\u0645\u064a\u0646": 2759, "\u0627\u0644\u0645\u0646\u0638\u0645\u0629": 2760, "\u0645\u062d\u0627\u0641\u0638": 2761, "\u0627\u0644\u0637\u0644\u0627\u0628": 2762, "##\u0643\u0628": 2763, "\u0632\u064a\u0627\u0631\u0629": 2764, "##\u0627\u0641\u0639": 2765, "\u0633\u0644\u0627\u0645": 2766, "\u0627\u0644\u0645\u0634\u0627\u0631\u064a\u0639": 2767, "\u0627\u0644\u064a\u0627\u0628": 2768, "##\u0648\u0627\u0639": 2769, "##\u0642\u0637\u0627\u0639": 2770, "##\u0631\u0647\u0627\u0628": 2771, "\u0627\u0644\u0625\u062e\u0648\u0627\u0646": 2772, "\u0645\u0647\u0645\u0629": 2773, "\u0641\u0631\u0646\u0633\u0627": 2774, "##\u0637\u0641\u0649": 2775, "\u0643\u0646\u062a": 2776, "\u0648\u0635\u0641": 2777, "\u0627\u0644\u0633\u0627\u0628\u0639": 2778, "\u0625\u062d\u062f\u0649": 2779, "\u0627\u0644\u0633\u064a\u0627\u0631\u0627\u062a": 2780, "\u062e\u0644\u0627\u0644\u0647\u0627": 2781, "\u062f\u0645\u0634\u0642": 2782, "##\u0628\u0627\u0631\u0627\u062a": 2783, "\u0627\u0644\u062b\u0642\u0627\u0641\u0629": 2784, "\u0648\u064a\u0631": 2785, "\u062e\u0637\u0629": 2786, "\u062c\u0647\u0648\u062f": 2787, "##\u0635\u062f\u0627\u0631": 2788, "##\u0648\u0631\u0647": 2789, "\u0627\u0644\u062a\u0642\u0631\u064a\u0631": 2790, "\u0648\u0627\u0646\u062a": 2791, "\u062f\u062e\u0644": 2792, "\u062a\u062d\u0645\u0644": 2793, "\u0627\u0644\u062f\u064a\u0645\u0642\u0631\u0627": 2794, "##\u0632\u064a\u0627\u062f\u0629": 2795, "\u062e\u062f\u0645\u0629": 2796, "\u062a\u0635\u0644": 2797, "\u0627\u0644\u0627\u0639\u0644\u0627\u0645": 2798, "##\u062d\u0627\u0646": 2799, "\u0627\u0644\u0628\u0634\u0631": 2800, "27": 2801, "\u0627\u0644\u0628\u0631\u0644\u0645\u0627\u0646": 2802, "\u0627\u0644\u0627\u062c\u062a\u0645\u0627\u0639\u064a": 2803, "\u0627\u0644\u0645\u0624\u0633\u0633\u0629": 2804, "\u062a\u0643\u0646": 2805, "\u062a\u0639\u0645\u0644": 2806, "2011": 2807, "##\u0644\u0643\u062a\u0631": 2808, "\u0643\u064a": 2809, "\u0648\u063a\u064a\u0631\u0647\u0627": 2810, "\u0627\u0646\u062a\u0647\u0627": 2811, "\u0645\u062d\u0627\u0648\u0644\u0629": 2812, "##\u0627\u0626\u0629": 2813, "##\u0631\u064a\u0636": 2814, "\u0628\u0631\u0626\u0627\u0633\u0629": 2815, "##\u062e\u0635\u0635\u0629": 2816, "##\u0639\u0627\u0645\u0644": 2817, "\u0643\u0627\u0644": 2818, "\u0627\u0644\u062c\u0627\u0631\u064a": 2819, "\u0639\u0628\u062f\u0627\u0644\u0631\u062d\u0645\u0646": 2820, "\u062a\u0632": 2821, "##\u0627\u062f\u064a\u0645": 2822, "\u0645\u0631\u062d\u0644\u0629": 2823, "\u0633\u0644\u0637\u0627\u0646": 2824, "\u0648\u064a\u0645": 2825, "\u0648\u0643\u0627\u0644\u0629": 2826, "##\u0646\u062f\u064a": 2827, "\u0627\u0644\u0645\u0647\u0646\u062f\u0633": 2828, "##\u0648\u0631\u062c": 2829, "\u0627\u0644\u062c\u0647\u0627\u0632": 2830, "\u0641\u0627": 2831, "\u0631\u0645\u0636\u0627\u0646": 2832, "\u0627\u0644\u0633\u064a\u0646": 2833, "\u0627\u0644\u0623\u0645\u0631\u064a\u0643\u064a": 2834, "##\u0627\u064a\u0629": 2835, "\u0643\u0644\u0645": 2836, "##\u0643\u064a\u0646": 2837, "\u0633\u0628\u064a\u0644": 2838, "\u0646\u0635\u0641": 2839, "##\u0641\u0627\u0629": 2840, "\u0627\u0644\u0635\u0641": 2841, "##\u062d\u0627\u0648\u0644": 2842, "\u0646\u0639": 2843, "\u0623\u0642\u0644": 2844, "\u0643\u0631": 2845, "\u0627\u0644\u0645\u0631\u0636": 2846, "\u062d\u0645\u0644": 2847, "##\u0645\u0646\u0649": 2848, "\u0648\u0627\u0644\u062a\u0646": 2849, "\u0627\u0644\u062d\u0635\u0648\u0644": 2850, "28": 2851, "\u0627\u0644\u062a\u0639\u0627\u0645\u0644": 2852, "\u0639\u064a\u0646": 2853, "##\u0631\u064a\u0639": 2854, "##\u0627\u062a\u064a": 2855, "\u062f\u0631\u0627\u0633\u0629": 2856, "\u0648\u0627\u0644\u0637": 2857, "\u0639\u0632": 2858, "##\u064a\u0642\u0629": 2859, "\u0628\u062d\u062b": 2860, "\u062e\u0645\u0633\u0629": 2861, "\u0627\u0644\u0623\u062e\u064a\u0631": 2862, "\u0627\u0644\u0645\u062f\u0631\u0628": 2863, "\u0628\u062b": 2864, "##\u0644\u064a\u0642": 2865, "##\u0635\u064a\u062f": 2866, "##\u062f\u0627\u0648\u0644": 2867, "\u0642\u0648\u0629": 2868, "\u0627\u0644\u0645\u062e\u062a": 2869, "##\u0643\u0649": 2870, "\u0627\u0644\u0641\u0631\u0646\u0633\u064a\u0629": 2871, "\u0648\u0627\u0644\u062a\u0639\u0644\u064a\u0645": 2872, "\u0627\u0644\u0631\u0633\u0645\u064a\u0629": 2873, "\u0628\u064a\u0646\u0647\u0645": 2874, "\u0627\u0644\u0642\u0627\u062f\u0645": 2875, "##\u0627\u062d\u064a\u0629": 2876, "\u064a\u0645\u062b\u0644": 2877, "\u0631\u0648\u0633\u064a\u0627": 2878, "\u0627\u0644\u0627\u0633\u062a\u062b\u0645\u0627\u0631": 2879, "##\u062c\u0626": 2880, "\u0648\u0628\u0627\u0644\u062a\u0627\u0644\u064a": 2881, "##\u0642\u0648\u0645": 2882, "\u0627\u0646\u062a\u062e\u0627\u0628\u0627\u062a": 2883, "\u0642\u064a\u0627\u0645": 2884, "\u0633\u0639\u0631": 2885, "\u0627\u0644\u0643\u062a\u0627\u0628": 2886, "\u062a\u062d\u0631": 2887, "##\u0639\u0627\u0628": 2888, "\u0648\u0631\u0626\u064a\u0633": 2889, "\u0627\u0644\u0642\u0631\u0646": 2890, "##\u063a\u064a\u0644": 2891, "##\u0627\u0631\u0627": 2892, "\u0627\u0644\u0633\u0627\u062f": 2893, "\u0646\u0642\u0627\u0637": 2894, "##\u0641\u0627\u062f\u0629": 2895, "2008": 2896, "\u0645\u0636\u064a": 2897, "\u0627\u0644\u0627\u062e\u062a": 2898, "\u062a\u0641\u0627": 2899, "\u0627\u0644\u0643\u0628": 2900, "\u0627\u0644\u0645\u0631\u0627": 2901, "\u0627\u0644\u0645\u0626\u0629": 2902, "\u0642\u0644": 2903, "\u0627\u0642\u062a\u0635\u0627\u062f": 2904, "\u0648\u0631\u0627\u0621": 2905, "##\u0642\u0644\u062a": 2906, "\u0633\u064a\u062f": 2907, "\u0627\u0644\u062d\u0627\u0644\u064a\u0629": 2908, "\u0627\u0644\u0627\u0633\u0631\u0627\u0626\u064a\u0644\u064a": 2909, "2012": 2910, "\u0646\u062f": 2911, "\u0628\u0627\u0639\u062a": 2912, "##\u0648\u0639\u064a\u0629": 2913, "\u0633\u064a\u0627\u0631\u0629": 2914, "\u0627\u062e\u062a\u064a\u0627\u0631": 2915, "\u0627\u0644\u0643\u0648\u064a\u062a\u064a": 2916, "##\u0636\u0627\u0626\u064a\u0629": 2917, "\u0627\u0644\u0633\u0628": 2918, "##\u0628\u064a\u0628": 2919, "##\u0631\u064a\u0646": 2920, "##\u0648\u0644\u062a": 2921, "\u0627\u0644\u0635\u064a\u0646": 2922, "\u0648\u0639\u0646\u062f": 2923, "\u0627\u0644\u0627\u0645\u064a\u0631\u0643\u064a\u0629": 2924, "##\u0648\u0627\u0631\u062f": 2925, "\u0628\u062f\u0621": 2926, "\u0627\u0644\u0645\u0648\u0642\u0639": 2927, "\u0625\u064a\u062c": 2928, "##\u0634\u0627\u0637": 2929, "\u0643\u062a\u0627\u0628": 2930, "##\u0633\u0627\u0628": 2931, "\u062f\u062e\u0648\u0644": 2932, "\u0633\u0627\u0639\u0629": 2933, "\u0627\u0644\u0623\u0648\u0631\u0648\u0628\u064a": 2934, "##\u0631\u064a\u0639\u0629": 2935, "##\u0648\u0636\u0627\u0639": 2936, "\u0634\u0647": 2937, "\u0627\u0644\u0639\u0631\u0627\u0642\u064a\u0629": 2938, "\u0643\u062b\u064a\u0631\u0629": 2939, "##\u0631\u064a\u0628\u0629": 2940, "\u062a\u0645\u0627\u0645\u0627": 2941, "\u0627\u0644\u062a\u062c\u0627\u0631\u0629": 2942, "##\u0645\u0627\u0631": 2943, "##\u0641\u0627\u0644": 2944, "\u0627\u0644\u0643\u0628\u0631\u0649": 2945, "\u0627\u062c\u0644": 2946, "\u0627\u0633\u062a\u0639\u062f\u0627\u062f": 2947, "##\u0633\u0627\u0633\u064a": 2948, "##\u0642\u0648\u0642": 2949, "##\u0633\u062d": 2950, "\u0627\u0644\u0645\u0631\u0634\u062d": 2951, "\u064a\u0635\u0644": 2952, "\u0627\u0644\u062a\u0627\u0628\u0639\u0629": 2953, "##\u0634\u0627": 2954, "\u0627\u0644\u0645\u0639\u062a": 2955, "\u0627\u0644\u0637\u0628": 2956, "##\u0635\u0627\u0628": 2957, "\u0631\u062c\u0644": 2958, "\u0642\u0627\u0626\u0645\u0629": 2959, "\u0645\u0628\u0627\u0631\u064a\u0627\u062a": 2960, "##\u0648\u0647\u0627": 2961, "\u0627\u0644\u0642\u0627\u062f\u0645\u0629": 2962, "\u0627\u0644\u0648\u0633\u0637": 2963, "\u062f\u0648\u0631\u064a": 2964, "##\u0627\u0633\u0645": 2965, "\u0646\u0645\u0648": 2966, "##\u0641\u0627\u0636": 2967, "##\u0623\u0644": 2968, "\u0635\u0648\u0631\u0629": 2969, "\u062a\u0648\u0641\u064a\u0631": 2970, "\u0627\u0644\u063a\u0630": 2971, "\u0639\u0631\u0641": 2972, "##\u0635\u0627\u0645": 2973, "\u0633\u064a\u0627\u0633\u064a\u0629": 2974, "##\u0627\u0637\u0631": 2975, "\u0627\u0644\u0631\u064a\u0627\u0636\u064a\u0629": 2976, "\u0633\u0643\u0627\u0646": 2977, "\u0627\u0644\u0634\u0631\u064a\u0641\u064a\u0646": 2978, "\u062d\u0648\u0627\u0644\u064a": 2979, "\u0637\u0648\u064a\u0644\u0629": 2980, "##\u0648\u064a\u0646": 2981, "\u0623\u0648\u0631\u0648\u0628\u0627": 2982, "##\u063a\u0627\u0644": 2983, "\u064a\u0648\u0645\u0627": 2984, "\u0625\u0644\u064a\u0647\u0627": 2985, "\u0645\u062f\u0631\u0628": 2986, "\u0648\u0628\u062f": 2987, "\u0623\u0647\u062f\u0627\u0641": 2988, "\u0627\u0644\u0623\u062c": 2989, "\u0628\u062d\u0633\u0628": 2990, "\u064a\u062d\u062f\u062b": 2991, "\u062d\u064a": 2992, "##\u0633\u0644\u0629": 2993, "\u0627\u0644\u0648\u062d\u062f\u0629": 2994, "##\u0627\u0644\u062c\u0629": 2995, "\u0639\u062f\u062f\u0627": 2996, "\u0627\u0644\u062f\u0631\u0627\u0633\u0629": 2997, "\u0643\u0627\u0645\u0644": 2998, "2009": 2999, "\u062a\u063a\u064a\u064a\u0631": 3000, "\u0634\u0628\u0627\u0628": 3001, "\u0627\u0633\u062a\u0645\u0631\u0627\u0631": 3002, "\u0639\u0646\u0627\u0635\u0631": 3003, "##\u0642\u0644\u0627\u0644": 3004, "##\u0633\u0643": 3005, "\u0627\u0644\u0645\u0633\u0624\u0648\u0644\u064a\u0646": 3006, "\u062a\u062d\u062f\u064a\u062f": 3007, "##\u0641\u0639\u062a": 3008, "\u0627\u0644\u0645\u0633\u064a": 3009, "\u062e\u0627\u062f\u0645": 3010, "\u0648\u062d\u062f\u0629": 3011, "\u062a\u0648\u0631": 3012, "\u0646\u0648\u0641": 3013, "##\u062c\u0644\u064a": 3014, "\u0648\u062c\u0627\u0621": 3015, "\u0633\u0645\u0648\u0647": 3016, "\u0623\u0635\u062d\u0627\u0628": 3017, "\u0627\u0644\u0647\u0646\u062f": 3018, "\u0631\u064a\u0627": 3019, "##\u0631\u0639": 3020, "##\u062d\u064a\u0646": 3021, "\u0635\u0648\u062a": 3022, "\u0628\u0627\u0644\u0645\u0627\u0626\u0629": 3023, "##\u0628\u0647\u0629": 3024, "##\u0634\u0631\u0627\u0641": 3025, "\u0627\u0644\u0645\u062d\u0644\u064a": 3026, "\u062f\u0631\u062c\u0629": 3027, "\u0627\u0644\u0633\u0646\u0648\u0627\u062a": 3028, "\u062e\u0644": 3029, "\u062a\u062c\u0627\u0647": 3030, "\u0648\u0646\u062d\u0646": 3031, "\u062a\u0639\u0632\u064a\u0632": 3032, "##\u0631\u064a\u0627": 3033, "##\u062e\u0641\u0636": 3034, "\u0627\u0644\u0645\u0633\u0644\u062d\u0629": 3035, "\u0634\u0631\u0642": 3036, "\u0641\u064a\u0635\u0644": 3037, "##\u0647\u062c": 3038, "\u0627\u0644\u0628\u0644\u062f\u064a\u0629": 3039, "\u062a\u0639\u062a\u0628\u0631": 3040, "\u062d\u0643\u0648\u0645": 3041, "\u0627\u0644\u0646\u064a\u0627\u0628\u0629": 3042, "\u0645\u0637": 3043, "\u0627\u0641": 3044, "\u0641\u0644\u0627": 3045, "\u0627\u0644\u0645\u062f\u0627\u0631\u0633": 3046, "##\u0648\u062a\u0631": 3047, "\u062a\u0633\u0645": 3048, "##\u0630\u0644": 3049, "\u0639\u0644\u064a\u0646\u0627": 3050, "##\u062e\u0635\u0648\u0635": 3051, "##\u0631\u064a\u0633": 3052, "\u0627\u0644\u0627\u0633\u062a\u062b\u0645": 3053, "197": 3054, "\u0643\u062b\u064a\u0631": 3055, "\u0627\u0644\u0623\u0645\u0648\u0631": 3056, "\u0627\u0644\u0628\u0644\u062f\u064a\u0646": 3057, "\u0627\u0644\u0637\u0628\u064a\u0629": 3058, "35": 3059, "##\u0631\u064a\u0643": 3060, "\u0625\u0637\u0644\u0627\u0642": 3061, "##\u0648\u062c\u0629": 3062, "\u0623\u0646\u0647\u0645": 3063, "\u0648\u062a\u0633": 3064, "##\u063a\u0627\u0646": 3065, "\u0625\u062d": 3066, "\u0645\u0639\u0644\u0648\u0645\u0627\u062a": 3067, "\u062d\u0645\u0627\u0633": 3068, "##\u0645\u064a\u0645": 3069, "\u0639\u0644\u0627\u0642\u0629": 3070, "\u0628\u0627\u0628": 3071, "##\u0648\u0627\u0631\u0639": 3072, "\u0645\u0641\u062a": 3073, "\u0644\u0644\u0647": 3074, "##\u0645\u0649": 3075, "\u0627\u0628\u0631\u0627\u0647\u064a\u0645": 3076, "\u063a\u0627\u0644": 3077, "\u0627\u0644\u0645\u062d\u0627\u0641\u0638": 3078, "##\u0636\u0649": 3079, "\u062e\u0633": 3080, "##\u0634\u0631\u0627\u062a": 3081, "##\u0637\u0627\u0644\u0628\u0629": 3082, "\u064a\u0639\u0648\u062f": 3083, "\u0627\u0644\u0623\u0631\u062f": 3084, "\u062a\u0635\u0631\u064a\u062d": 3085, "##\u0632\u0639": 3086, "\u0648\u0627\u0644\u062a\u0649": 3087, "##\u0647\u062f\u064a\u062f": 3088, "##\u0644\u064a\u0644\u0629": 3089, "##\u0633\u0627\u062f": 3090, "\u0633\u062a\u0643\u0648\u0646": 3091, "##\u0648\u0634": 3092, "\u0643\u064a\u0644": 3093, "\u0631\u0628\u0645\u0627": 3094, "\u0627\u0644\u0642\u0636\u0627\u064a\u0627": 3095, "\u0627\u0644\u0646\u0627\u0631": 3096, "\u0633\u0627\u0644\u0645": 3097, "##\u062f\u064a\u062b\u0629": 3098, "##\u0642\u0627\u0639\u062f": 3099, "##\u0631\u0627\u0621\u0629": 3100, "##\u0648\u064a\u0636": 3101, "\u0627\u0644\u0639\u0646\u0641": 3102, "##\u0645\u0647": 3103, "##\u062a\u0645\u0628\u0631": 3104, "\u064a\u0648\u0644": 3105, "\u0648\u0627\u062a": 3106, "##\u0646\u0627\u0633\u0628\u0629": 3107, "##\u0633\u062f": 3108, "##\u0638\u0644": 3109, "\u064a\u062d\u0645\u0644": 3110, "\u0627\u0644\u0645\u062a\u0645": 3111, "\u0628\u063a\u062f\u0627\u062f": 3112, "\u0627\u0644\u0627\u0645\u064a\u0631\u0643\u064a": 3113, "\u062d\u0645\u0644\u0629": 3114, "\u0646\u0633\u0628": 3115, "\u0627\u0644\u0623\u0645\u064a\u0646": 3116, "##\u0645\u0627\u0639\u064a\u0644": 3117, "##\u0639\u0644\u0642\u0629": 3118, "\u0627\u0644\u0623\u064a\u0627\u0645": 3119, "\u0639\u0647\u062f": 3120, "\u062d\u062f\u0648\u062f": 3121, "##\u064a\u062a\u0647\u0627": 3122, "\u062d\u0641\u0644": 3123, "\u0648\u0642\u0639": 3124, "\u0645\u0639\u0627": 3125, "##\u0643\u0646\u062f\u0631": 3126, "##\u0630\u0647\u0628": 3127, "##\u0645\u0639": 3128, "\u0627\u0644\u0645\u0627\u062f\u0629": 3129, "\u0646\u0628": 3130, "\u0633\u0628\u062a\u0645\u0628\u0631": 3131, "##\u062c\u064a\u0646": 3132, "\u0646\u0634\u0627\u0637": 3133, "\u0623\u0628\u0646\u0627\u0621": 3134, "##\u0644\u0641\u062a": 3135, "\u0627\u0644\u0623\u0635": 3136, "\u0643\u0627\u0631": 3137, "##\u064a\u0628\u0629": 3138, "##\u062d\u0627\u0621": 3139, "\u0644\u0644\u0637": 3140, "\u0627\u0644\u0639\u0628": 3141, "\u0627\u0646\u062a\u0647": 3142, "\u0648\u0647\u0646\u0627\u0643": 3143, "\u0628\u0627\u0644\u0627": 3144, "\u0627\u0644\u0646\u0633\u0627\u0621": 3145, "##\u0631\u0648\u0633": 3146, "\u0627\u0644\u0633\u064a\u0627\u0633\u0629": 3147, "\u0623\u0643\u062a": 3148, "\u0648\u0642\u0641": 3149, "\u0641\u0627\u0632": 3150, "##\u0630\u0629": 3151, "##\u064a\u0627\u0633": 3152, "##\u062f\u064a\u0645\u0629": 3153, "\u0627\u0644\u0633\u0631": 3154, "\u062c\u0645\u0639": 3155, "\u0627\u0644\u0637\u0627\u0626": 3156, "\u0645\u0634\u0627\u0631\u0643\u0629": 3157, "\u0645\u0639\u0631\u0636": 3158, "\u0646\u0638\u0631\u0627": 3159, "\u0645\u0642\u0627\u0631\u0646\u0629": 3160, "\u0627\u0644\u0634\u0639\u0628\u064a\u0629": 3161, "\u064a\u063a": 3162, "\u062c\u0645\u0627\u0644": 3163, "##\u0631\u0648\u0639\u0627\u062a": 3164, "\u0627\u0644\u0637\u0631\u0642": 3165, "\u0635\u0648\u0631": 3166, "##\u0631\u0627\u0642\u0628\u0629": 3167, "##\u0646\u064a\u0627": 3168, "\u0648\u0635\u0648\u0644": 3169, "##\u0637\u0646\u064a\u0646": 3170, "\u0648\u0627\u0644\u0627\u062c": 3171, "##\u0631\u0627\u0641\u0642": 3172, "\u0635\u0644\u0627\u062d": 3173, "##\u0648\u0633\u064a": 3174, "##\u0628\u064a\u0647": 3175, "\u064a\u0628\u062f\u0648": 3176, "\u0627\u0628\u062a": 3177, "\u062d\u064a\u0627\u0629": 3178, "\u0648\u0647\u0630\u0647": 3179, "\u0627\u0644\u0645\u0643": 3180, "\u0648\u0627\u0644\u063a": 3181, "\u062f\u064a\u0633": 3182, "\u0628\u0627\u0644\u0643": 3183, "\u0627\u0644\u0627\u0644": 3184, "##\u062c\u0647\u0627\u062a": 3185, "##\u0622\u062a": 3186, "2006": 3187, "##\u0641\u064a\u062f": 3188, "##\u0646\u0628": 3189, "\u0627\u0644\u0631\u0627\u0628\u0639": 3190, "\u0627\u0644\u0627\u062a\u0635\u0627\u0644\u0627\u062a": 3191, "\u0645\u062d\u062a": 3192, "\u0627\u0644\u0635\u062d\u064a\u0641\u0629": 3193, "##\u0648\u0644\u0648\u062c\u064a\u0627": 3194, "\u0645\u0634\u0643\u0644\u0629": 3195, "##\u0642\u064a\u0642\u064a\u0629": 3196, "##\u0637\u0648\u0631": 3197, "\u0647\u0649": 3198, "\u0645\u0635\u0637\u0641\u0649": 3199, "\u0641\u0636\u0644\u0627": 3200, "\u0648\u0627\u0644\u0644": 3201, "\u062d\u0636\u0648\u0631": 3202, "##\u0637\u0644\u0627\u0639": 3203, "##\u062c\u062d": 3204, "##\u0634\u064a\u062f": 3205, "\u0627\u0644\u062f\u0639\u0645": 3206, "\u0641\u064a\u0644\u0645": 3207, "\u062a\u0635\u0631\u064a\u062d\u0627\u062a": 3208, "\u0627\u0644\u0645\u0633\u062a\u0634\u0627\u0631": 3209, "\u0639\u064a\u062f": 3210, "\u0627\u0644\u0646\u0633": 3211, "##\u062d\u062f\u064a\u062f": 3212, "\u0627\u0644\u062f\u0631": 3213, "\u063a\u062f\u0627": 3214, "\u0627\u0644\u0639\u0633\u0643\u0631\u064a": 3215, "##\u0644\u064a\u0641\u0629": 3216, "##\u062e\u064a\u0635": 3217, "##\u063a\u0628\u0629": 3218, "##\u062a\u0639": 3219, "##\u0648\u0631\u0643": 3220, "\u0628\u0631\u0627\u0645\u062c": 3221, "\u0634\u0631\u0637\u0629": 3222, "##\u0636\u0628": 3223, "\u0623\u062f\u0649": 3224, "\u0628\u0631\u064a": 3225, "##\u062e\u062f\u0645\u0629": 3226, "\u0636\u0628\u0637": 3227, "\u062a\u0645\u062b\u0644": 3228, "##\u0648\u062c\u0648\u062f\u0629": 3229, "\u0627\u0644\u0639\u0627\u0645\u0644\u064a\u0646": 3230, "\u0648\u0639\u062f\u062f": 3231, "\u0637\u0631\u062d": 3232, "\u062a\u0642\u062f": 3233, "\u0627\u0644\u0631\u0642": 3234, "\u0627\u0644\u0643\u0628\u064a\u0631\u0629": 3235, "\u0648\u064a\u0633": 3236, "##\u062c\u0645\u0627\u0644\u064a": 3237, "\u0644\u0644\u0628": 3238, "\u0645\u062d\u0643\u0645\u0629": 3239, "\u0642\u0637\u0631": 3240, "##\u0648\u0627\u062f": 3241, "##\u0627\u0644\u0643": 3242, "\u0642\u0646\u0627\u0629": 3243, "##\u062c\u0645\u0627\u062a": 3244, "\u0628\u0631\u064a\u0637": 3245, "\u0645\u0646\u062d": 3246, "\u062a\u0646\u0627\u0648\u0644": 3247, "\u0645\u0648\u0639\u062f": 3248, "\u0631\u0633\u0627\u0644\u0629": 3249, "\u0627\u0644\u0645\u0633\u0631\u062d": 3250, "\u0644\u0645\u0648\u0627": 3251, "\u0627\u0644\u0643\u0631\u064a\u0645": 3252, "\u0627\u0644\u0627\u0645\u0631": 3253, "\u0645\u0634\u0627\u0631\u064a\u0639": 3254, "##\u0646\u062f\u0646": 3255, "\u0627\u0644\u0646\u0645\u0648": 3256, "\u062f\u0639": 3257, "\u0645\u0633\u062a\u0634\u0641\u0649": 3258, "##\u0636\u0631\u0648\u0631\u0629": 3259, "\u0627\u0644\u062c\u0646\u0648\u0628": 3260, "\u063a\u064a\u0627\u0628": 3261, "\u062c\u0627\u0646\u0628\u0647": 3262, "\u0627\u0644\u0631\u062c\u0644": 3263, "29": 3264, "##\u062e\u0637\u0637": 3265, "##\u0622\u0646": 3266, "\u0645\u064a\u0644": 3267, "\u0623\u0647": 3268, "\u0627\u0644\u062e\u0628": 3269, "\u0627\u062c": 3270, "\u0645\u0636\u064a\u0641\u0627": 3271, "##\u0645\u0631\u0623\u0629": 3272, "##\u0637\u0649": 3273, "##\u0627\u0631\u064a\u0631": 3274, "##\u0645\u0646\u0629": 3275, "\u0623\u0648\u0628": 3276, "\u0641\u0631\u0636": 3277, "##\u0638\u0645\u0627\u062a": 3278, "##\u063a\u0631": 3279, "##\u0648\u0627\u0641\u0642": 3280, "##\u0645\u0646\u0639": 3281, "\u0627\u0644\u0627\u0634\u062a": 3282, "\u0628\u0627\u0644\u0631": 3283, "##\u0627\u0644\u064a\u0627": 3284, "\u0627\u0644\u062f\u0642\u064a\u0642\u0629": 3285, "\u0627\u0644\u0646\u0642\u062f": 3286, "\u0645\u0639\u0627\u0631": 3287, "\u0645\u0627\u0646": 3288, "##\u064a\u0644\u0627\u062a": 3289, "\u0627\u0644\u062d\u0631\u064a\u0629": 3290, "\u0627\u0644\u0628\u064a\u0626\u0629": 3291, "\u0627\u0644\u0646\u0647\u0627\u0626\u064a": 3292, "\u0627\u0644\u0641\u0644\u0633\u0637\u064a\u0646\u064a\u064a\u0646": 3293, "##\u064a\u0633\u0629": 3294, "\u0627\u0644\u0627\u0645\u0646": 3295, "\u0627\u0644\u0631\u0626\u064a\u0633\u064a\u0629": 3296, "\u062e\u0635": 3297, "##\u062d\u0642\u0627": 3298, "\u062d\u0645\u0627\u064a\u0629": 3299, "\u0627\u0644\u0628\u0631\u064a\u0637\u0627\u0646\u064a\u0629": 3300, "\u062a\u0636": 3301, "##\u0648\u0646\u0627": 3302, "\u0642\u0627\u0626\u062f": 3303, "##\u062a\u0645\u0627": 3304, "\u0627\u0644\u0647\u062c\u0648\u0645": 3305, "\u0627\u0644\u0642\u062f\u0633": 3306, "\u0625\u0646\u0647\u0627": 3307, "\u0645\u0642\u062a\u0644": 3308, "\u0627\u0644\u0645\u0648\u0627\u062f": 3309, "60": 3310, "\u0627\u0644\u0634\u0624\u0648\u0646": 3311, "\u0627\u0644\u0645\u0642\u0627\u0648\u0645\u0629": 3312, "##\u0648\u062e": 3313, "\u0627\u0644\u062a\u062d\u0631\u064a\u0631": 3314, "\u064a\u0639\u064a\u0634": 3315, "\u0628\u0627\u0644\u062c": 3316, "\u0627\u0644\u062a\u0648\u0646": 3317, "31": 3318, "\u0648\u062a\u062f": 3319, "##\u0631\u0627\u0647": 3320, "##\u062d\u0648\u0644": 3321, "\u0628\u062f\u0631": 3322, "\u0627\u0644\u0645\u0646\u0634": 3323, "\u0645\u0639\u0647\u0627": 3324, "196": 3325, "\u0623\u0643\u062a\u0648\u0628\u0631": 3326, "##\u0643\u0631\u064a\u0645": 3327, "\u0627\u0644\u062c\u062f": 3328, "##\u0627\u0628\u0644\u0629": 3329, "##\u0633\u0648\u0646": 3330, "##\u0635\u062f\u0631": 3331, "\u0627\u0644\u0627\u062f\u0627\u0631\u0629": 3332, "##\u0643\u064a\u0645": 3333, "\u062a\u062c\u0627\u0648\u0632": 3334, "##\u0644\u064a\u0628": 3335, "\u0644\u062a\u062d\u0642\u064a\u0642": 3336, "\u0628\u062d\u064a\u062b": 3337, "##\u0637\u0628\u0627\u0621": 3338, "##\u0639\u0628\u064a\u0631": 3339, "\u0628\u062f\u0648\u0646": 3340, "##\u064a\u0627\u062c\u0627\u062a": 3341, "##\u0633\u0627\u0647\u0645": 3342, "\u0627\u0644\u0637\u0627\u0644": 3343, "\u0645\u062c\u062f": 3344, "\u064a\u0623\u062a\u064a": 3345, "\u0644\u0645\u0627\u0630\u0627": 3346, "\u0627\u0644\u0623\u063a": 3347, "##\u062e\u0644\u0635": 3348, "##\u0641\u064a\u0641": 3349, "\u0627\u0644\u0647\u0627": 3350, "\u0634\u062e\u0635\u064a\u0629": 3351, "\u0627\u0644\u0637\u0644\u0628": 3352, "\u0643\u0644\u064a\u0629": 3353, "\u0623\u0631\u0628\u0639\u0629": 3354, "\u0627\u0644\u0641\u064a\u0644\u0645": 3355, "\u0627\u0644\u0644\u0627\u0632\u0645\u0629": 3356, "##\u062d\u062f\u0627\u062b": 3357, "##\u0642\u062a\u0631\u062d": 3358, "\u0625\u0646\u0634\u0627\u0621": 3359, "\u0628\u062f\u0644\u0627": 3360, "##\u0627\u064a\u062f": 3361, "##\u062a\u0648\u0646": 3362, "\u0623\u0645\u064a\u0646": 3363, "\u0627\u0644\u0645\u062a\u062d\u062f\u062b": 3364, "\u0628\u0648\u0634": 3365, "\u0627\u0639\u062a\u0628\u0631": 3366, "##\u0642\u0627\u0630": 3367, "\u0627\u0644\u0641\u064a": 3368, "##\u0642\u062a\u0647\u0627": 3369, "##\u0633\u0628\u0642": 3370, "\u0644\u062e": 3371, "\u062f\u064a\u0633\u0645\u0628\u0631": 3372, "\u0644\u0644\u0635": 3373, "##\u0648\u0627\u0639\u062f": 3374, "\u062e\u062f\u0645\u0627\u062a": 3375, "\u0645\u062a\u0646": 3376, "2007": 3377, "\u0627\u0644\u062c\u0632\u0627\u0626\u0631": 3378, "\u062f\u0639\u0627": 3379, "##\u0644\u0641\u0632\u064a\u0648\u0646": 3380, "##\u062a\u064a\u0628": 3381, "\u0644\u0644\u062e": 3382, "##\u0624\u0633\u0633\u0627\u062a": 3383, "\u0639\u0646\u0648\u0627\u0646": 3384, "##\u062c\u0646\u0628\u064a\u0629": 3385, "\u0627\u0644\u0634\u0639\u0631": 3386, "\u0648\u0644\u0646": 3387, "\u0634\u062e\u0635\u0627": 3388, "\u0633\u0648\u0631\u064a\u0629": 3389, "\u062a\u0646\u062a": 3390, "##\u0633\u0644\u0648\u0628": 3391, "\u0641\u0631\u0635": 3392, "\u0627\u0644\u0645\u0627\u0626\u0629": 3393, "##\u0642\u064a\u0645": 3394, "\u0642\u064a\u0627\u062f\u0629": 3395, "##\u0642\u0648\u0637": 3396, "##\u0631\u0627\u062d\u0629": 3397, "\u0628\u064a\u0639": 3398, "##\u0648\u0627\u0633": 3399, "##\u0642\u0627\u062f": 3400, "\u0643\u0634": 3401, "\u0627\u0644\u0645\u0632\u064a\u062f": 3402, "\u062a\u062f\u062e\u0644": 3403, "##\u0643\u0645\u0627\u0644": 3404, "##\u0627\u0631\u0642\u0629": 3405, "\u064a\u0633\u062a\u0637\u064a\u0639": 3406, "##\u0628\u0631\u0627\u064a\u0631": 3407, "\u0627\u0644\u0635\u0646\u0627\u0639\u064a\u0629": 3408, "\u062a\u0634\u0647\u062f": 3409, "\u062d\u0641\u0638": 3410, "\u0625\u062c\u0631\u0627\u0621": 3411, "\u0642\u064a\u0645": 3412, "\u0646\u0648": 3413, "##\u0631\u064a\u062d": 3414, "\u0645\u0627\u064a\u0648": 3415, "\u0627\u0644\u0623\u0632": 3416, "\u0627\u0644\u062c\u0648\u0644\u0629": 3417, "\u0641\u0647\u064a": 3418, "\u0627\u0644\u0646\u062a": 3419, "\u062d\u0636\u0631": 3420, "\u0623\u0628\u0631\u0632": 3421, "##\u0641\u0632": 3422, "\u062d\u0628": 3423, "##\u0648\u0627\u0632": 3424, "\u0627\u0644\u0646\u0642\u0644": 3425, "##\u0627\u062a\u0641": 3426, "\u0648\u0644\u0648": 3427, "\u0628\u064a\u0646\u0647\u0627": 3428, "##\u0648\u0627\u064a\u0629": 3429, "\u064a\u0648\u0646\u064a\u0648": 3430, "##\u062f\u0631\u0627\u062a": 3431, "##\u062e\u062f\u0645\u0627\u062a": 3432, "\u0627\u0644\u0645\u0627\u0636\u0649": 3433, "\u0623\u0632\u0645\u0629": 3434, "\u0628\u0646\u0643": 3435, "\u0627\u0644\u0645\u0634\u0643\u0644\u0629": 3436, "\u0648\u0638": 3437, "##\u0648\u0645\u064a\u0629": 3438, "\u0634\u0627\u0631\u0643": 3439, "\u0623\u0639\u0644\u0649": 3440, "\u0641\u0628\u0631\u0627\u064a\u0631": 3441, "\u0642\u0627\u062f": 3442, "##\u0627\u062f\u0642": 3443, "##\u0644\u0628\u0629": 3444, "##\u0631\u062a\u0647\u0627": 3445, "\u0627\u0644\u0627\u0639": 3446, "\u062c\u0648\u0631\u062c": 3447, "\u0627\u0644\u0641\u0642": 3448, "##\u0630\u062c": 3449, "\u0648\u062a\u0627\u0628\u0639": 3450, "##\u062d\u0645\u0644": 3451, "\u0627\u0644\u0639\u0644\u0627\u0642\u0629": 3452, "\u063a\u0631\u0628": 3453, "\u062a\u0631\u0627\u062c\u0639": 3454, "\u0627\u0644\u0627\u0646\u062a\u062e\u0627\u0628\u064a\u0629": 3455, "##\u062d\u062f\u062f": 3456, "##\u0648\u0642\u0627\u062a": 3457, "\u0627\u0644\u0639\u0644\u0627\u062c": 3458, "\u0627\u0644\u0634\u062e\u0635\u064a\u0629": 3459, "\u0627\u0644\u0648\u0635\u0648\u0644": 3460, "\u0627\u0644\u0645\u062f\u0631\u0633\u0629": 3461, "##\u0644\u0627\u0639\u0628": 3462, "\u0628\u062d\u0636\u0648\u0631": 3463, "\u0643\u0634\u0641": 3464, "\u0633\u0628\u0628": 3465, "\u0628\u0627\u0639\u062a\u0628\u0627\u0631": 3466, "\u0623\u0634\u0627\u0631": 3467, "\u0628\u0627\u0644\u0644": 3468, "\u0623\u0644\u0627": 3469, "\u0648\u0627\u0639\u062a\u0628\u0631": 3470, "\u0627\u0644\u0634\u0645\u0627\u0644\u064a\u0629": 3471, "\u0627\u0644\u0644\u063a\u0629": 3472, "\u0645\u064a": 3473, "\u0627\u0644\u0645\u0642\u0631\u0631": 3474, "\u062d\u0642\u0642": 3475, "\u0623\u0635\u0628\u062d\u062a": 3476, "\u062a\u062f\u0631\u064a": 3477, "##\u0647\u0631\u0629": 3478, "##\u0634\u0627\u0641": 3479, "\u0627\u0644\u0645\u0641\u062a": 3480, "\u0639\u0628\u0627\u0633": 3481, "##\u0643\u0644\u0641\u0629": 3482, "##\u0643\u0646\u064a\u0629": 3483, "##\u0647\u0644\u064a\u0629": 3484, "\u0628\u0635\u0648\u0631\u0629": 3485, "\u0627\u0644\u0639\u0644\u0645\u064a\u0629": 3486, "\u0627\u0639\u062a\u0628\u0627\u0631": 3487, "\u0644\u0627\u0641\u062a\u0627": 3488, "##\u0627\u0634\u062f": 3489, "\u0648\u0627\u0644\u0647": 3490, "##\u0639\u0627\u0642\u062f": 3491, "\u0627\u0644\u0645\u0647\u0631\u062c\u0627\u0646": 3492, "\u062f\u064a\u0646\u0627\u0631": 3493, "\u0623\u0641\u0631\u0627\u062f": 3494, "\u0646\u0648\u0641\u0645\u0628\u0631": 3495, "\u0645\u0646\u0639": 3496, "\u0627\u0644\u0625\u0644\u0643\u062a\u0631": 3497, "\u062c\u0647\u0627\u0632": 3498, "\u0627\u0644\u0645\u0639\u0631\u0636": 3499, "\u0645\u0644\u0639\u0628": 3500, "##\u062e\u0641\u0627\u0636": 3501, "\u0627\u0644\u062a\u0646\u0638\u064a\u0645": 3502, "\u0627\u0644\u0645\u0627\u0644\u064a": 3503, "##\u0645\u0645": 3504, "##\u0627\u0646\u0648\u064a\u0629": 3505, "\u0627\u0644\u0642\u064a\u0627\u062f\u0629": 3506, "\u0627\u0644\u062e\u062f\u0645\u0629": 3507, "\u0634\u0628\u0643\u0629": 3508, "##\u064a\u0627\u0646\u0627": 3509, "\u0646\u062c\u0627\u062d": 3510, "##\u0628\u0627\u0642": 3511, "\u0627\u0644\u0648\u0641\u062f": 3512, "\u0642\u0636\u0627\u064a\u0627": 3513, "\u0633\u0628\u0642": 3514, "\u0627\u0644\u0642\u0627\u0639\u062f\u0629": 3515, "##\u0645\u0644\u062a": 3516, "\u0645\u062e\u062a": 3517, "##\u0628\u062f\u0627\u0644": 3518, "##\u0631\u064a\u062a": 3519, "##50": 3520, "\u0648\u0627\u0644\u0645\u0633\u062a": 3521, "\u0627\u0644\u0642\u0637": 3522, "##\u0643\u0646\u062f\u0631\u064a\u0629": 3523, "\u0645\u0631\u0636": 3524, "\u0633\u0627\u0628\u0642": 3525, "##\u0648\u064a\u062f": 3526, "\u0627\u0644\u0642\u0628\u0636": 3527, "\u062c\u0644\u0633\u0629": 3528, "\u0627\u0644\u0627\u0641": 3529, "\u0641\u0647\u0645": 3530, "\u0627\u0644\u0639\u0648\u062f\u0629": 3531, "\u0627\u0644\u0645\u0634\u0627\u0631\u0643": 3532, "\u0644\u0645\u0639": 3533, "##\u0628\u064a\u0636": 3534, "\u0628\u0644\u0627\u062f\u0647": 3535, "\u0639\u0648\u062f\u0629": 3536, "##\u063a\u0627\u0621": 3537, "\u0627\u0644\u0631\u0627\u0628\u0639\u0629": 3538, "##\u0627\u0631\u062a\u0641\u0627\u0639": 3539, "##\u0627\u0626\u0645": 3540, "##\u062d\u0642\u0642": 3541, "\u0627\u0644\u062e\u0627\u0645\u0633\u0629": 3542, "\u0645\u0646\u0635\u0628": 3543, "\u0627\u0644\u062f\u064a\u0645\u0648\u0642\u0631\u0627": 3544, "\u0627\u0644\u062c\u0646\u0648\u0628\u064a\u0629": 3545, "\u064a\u062c\u0639\u0644": 3546, "##\u0627\u0646\u0633": 3547, "\u0644\u0646\u062f\u0646": 3548, "\u0628\u0627\u0644\u062a\u0639\u0627\u0648\u0646": 3549, "\u0623\u062f\u0627\u0621": 3550, "\u0639\u0627\u062f": 3551, "##\u062c\u064a\u0639": 3552, "\u0641\u0643\u0631\u0629": 3553, "##\u0648\u0627\u0642\u0639\u0629": 3554, "##\u0627\u062d\u062b": 3555, "##\u0637\u0631\u0629": 3556, "\u062c\u0627\u0621\u062a": 3557, "\u0645\u0648\u0636\u062d\u0627": 3558, "##\u062e\u0645": 3559, "\u0627\u0644\u0633\u064a\u0646\u0645\u0627": 3560, "##\u0627\u0626\u0647\u0627": 3561, "##\u0648\u062c\u0628": 3562, "\u0627\u0631": 3563, "\u0631\u0627": 3564, "\u0645\u0644\u0641": 3565, "\u064a\u0624\u0643\u062f": 3566, "\u0623\u0628\u062f": 3567, "\u0628\u0623\u0646\u0647\u0627": 3568, "\u064a\u0648\u0644\u064a\u0648": 3569, "\u0627\u0644\u0634\u0648\u0637": 3570, "\u0627\u0644\u0627\u0633\u0644\u0627\u0645\u064a\u0629": 3571, "\u0645\u062a\u0631": 3572, "\u0627\u0644\u0645\u0646\u0627\u0633\u0628\u0629": 3573, "\u0648\u0645\u062d": 3574, "\u0644\u0639\u0628": 3575, "\u0645\u062f\u0631\u0633\u0629": 3576, "\u0627\u0644\u0628\u064a\u062a": 3577, "##\u0639\u0645\u0627\u0631": 3578, "\u0645\u0647\u0631\u062c\u0627\u0646": 3579, "##\u0628\u064a\u0646": 3580, "\u0645\u0647\u0645": 3581, "##\u0645\u0646\u062d": 3582, "\u0627\u0644\u0645\u0639\u062f": 3583, "\u0648\u0627\u0644\u0633\u064a\u0627": 3584, "##\u0641\u064a\u064a\u0646": 3585, "\u062d\u0632": 3586, "\u0625\u0646\u062a\u0627\u062c": 3587, "\u0642\u0631\u0628": 3588, "##\u0646\u0648\u0627\u0646": 3589, "\u0627\u0646\u062f": 3590, "\u0648\u0645\u062d\u0645\u062f": 3591, "##\u064a\u0631\u0627\u0646\u064a\u0629": 3592, "\u0648\u0645\u0633\u062a": 3593, "\u062a\u0642\u0648\u0644": 3594, "##\u0648\u0627\u0644\u0649": 3595, "\u0627\u0644\u0625\u0633\u0644\u0627\u0645\u064a": 3596, "##\u0631\u0628\u0627\u062d": 3597, "##\u062a\u0647\u064a": 3598, "##\u0639\u0627\u0621": 3599, "\u0627\u0644\u0623\u0639\u0644\u0649": 3600, "##\u0631\u0627\u0626\u0645": 3601, "##\u062c\u064a\u0631": 3602, "##\u0634\u0631\u0648\u0639": 3603, "\u0646\u0632": 3604, "\u0627\u0632": 3605, "\u0627\u0644\u0631\u0626\u0627": 3606, "##\u0636\u0627\u0639": 3607, "##\u064a\u0627\u0646\u0629": 3608, "##\u0647\u062f\u062f": 3609, "\u0627\u0644\u062c\u0632\u064a\u0631\u0629": 3610, "##\u0645\u0631\u0629": 3611, "##\u0628\u0627\u0643": 3612, "\u0627\u0644\u0643\u0648\u064a\u062a\u064a\u0629": 3613, "##\u0646\u064a\u0641": 3614, "##\u062d\u0645": 3615, "\u0628\u0648\u0644": 3616, "\u0627\u0644\u0623\u0643\u062b\u0631": 3617, "\u0648\u062e\u0627\u0635\u0629": 3618, "\u0627\u0644\u0635\u062d\u064a": 3619, "\u0642\u0648\u064a\u0629": 3620, "\u0627\u0644\u0631\u0626\u0627\u0633\u0629": 3621, "2005": 3622, "\u0627\u0644\u0646\u062a\u0627\u0626\u062c": 3623, "\u0627\u0644\u062c\u0647\u0648\u062f": 3624, "\u0627\u0644\u0639\u0645\u0627\u0644": 3625, "\u0627\u0644\u0634\u064a": 3626, "##\u0648\u0632\u064a\u0631": 3627, "##\u0644\u0627\u0629": 3628, "\u0645\u0635\u0644\u062d\u0629": 3629, "##\u0642\u0644\u0629": 3630, "\u0645\u0648\u0627\u0642\u0639": 3631, "\u064a\u0627\u0633": 3632, "\u0647\u0627\u0645": 3633, "##\u0626\u062a": 3634, "\u062b\u0627\u0646\u064a\u0629": 3635, "##\u0648\u0633\u0639": 3636, "\u0627\u062a\u062e\u0627\u0630": 3637, "\u0625\u0639\u0644\u0627\u0646": 3638, "\u0636\u0639": 3639, "\u0641\u0643": 3640, "##\u062c\u0648\u0646": 3641, "\u0648\u0631\u0628": 3642, "\u0648\u064a\u0633\u062a": 3643, "##\u0642\u064a\u0642\u0627\u062a": 3644, "\u0627\u0644\u0631\u064a\u0627\u0636\u064a": 3645, "\u0627\u0644\u0637\u0641\u0644": 3646, "\u0623\u0644\u0645\u0627\u0646\u064a\u0627": 3647, "\u062c\u062f\u0629": 3648, "\u0627\u0644\u0627\u062e\u064a\u0631\u0629": 3649, "##\u0643\u0627\u062a\u0628": 3650, "\u0627\u0628\u0648": 3651, "\u0627\u0644\u0645\u0648\u0638\u0641": 3652, "\u064a\u0648\u0645\u064a\u0627": 3653, "\u0627\u0644\u0628\u0646\u0627\u0621": 3654, "\u0627\u0644\u0645\u0634\u062a\u0631\u0643": 3655, "\u062d\u0631\u0635": 3656, "\u0633\u064a\u062a": 3657, "\u0627\u0644\u0645\u0635\u0627\u062f\u0631": 3658, "\u0627\u0644\u0623\u0642\u0644": 3659, "\u0634\u0647\u062f\u062a": 3660, "\u0627\u0644\u0645\u0635\u0631\u064a\u064a\u0646": 3661, "##\u0647\u0627\u062f\u0629": 3662, "\u0648\u0631\u062f": 3663, "2013": 3664, "\u0627\u0644\u0645\u0648\u0642\u0641": 3665, "\u0628\u0646\u064a": 3666, "\u0644\u062f\u064a\u0647\u0627": 3667, "\u062a\u0648\u0632\u064a\u0639": 3668, "##\u062d\u0627\u064a\u0627": 3669, "##\u0641\u0639\u0629": 3670, "\u0641\u0645\u0627": 3671, "\u0645\u0647\u0645\u0627": 3672, "##\u062c\u0627\u0628\u0629": 3673, "\u0642\u0631\u0631": 3674, "\u0648\u0627\u0644\u0639\u0645\u0644": 3675, "\u0627\u0644\u0627\u0634": 3676, "\u0627\u0646\u0641": 3677, "\u062f\u0631\u0647\u0645": 3678, "\u062a\u0634\u0643\u0644": 3679, "\u0627\u0644\u062a\u0627\u0633": 3680, "\u062e\u0628": 3681, "\u064a\u062d\u062a\u0627\u062c": 3682, "\u0644\u0625\u0646": 3683, "##\u0642\u064a\u064a\u0645": 3684, "##\u062c\u0644\u0629": 3685, "##\u0637\u0645": 3686, "\u0627\u0644\u0625\u0631\u0647\u0627\u0628": 3687, "##\u0634\u0643\u0644": 3688, "\u0641\u0639\u0627\u0644\u064a\u0627\u062a": 3689, "\u062a\u062d\u0631\u064a\u0631": 3690, "\u0627\u0644\u0648\u062d\u064a\u062f": 3691, "##\u062b\u0645\u0631\u064a\u0646": 3692, "\u0627\u0644\u063a\u0627\u0632": 3693, "\u0633\u0627\u0639\u0627\u062a": 3694, "\u064a\u0634\u0643\u0644": 3695, "##\u0627\u0645\u0646\u0629": 3696, "\u0627\u0644\u062a\u0646\u0641\u064a\u0630\u064a": 3697, "\u062c\u0645\u064a\u0639\u0627": 3698, "\u0635\u062f\u0631": 3699, "\u0627\u0646\u062a\u062e": 3700, "\u0628\u0644\u0627\u062f": 3701, "\u062f\u0627\u0626\u0631\u0629": 3702, "\u0648\u0627\u0644\u0645\u062f": 3703, "##\u0627\u0646\u0639": 3704, "\u064a\u0631\u062a": 3705, "\u0648\u062c\u062f": 3706, "\u0628\u0639\u0646\u0648\u0627\u0646": 3707, "\u0633\u0624\u0627\u0644": 3708, "##\u0647\u0636\u0629": 3709, "\u0642\u0637": 3710, "\u0627\u0644\u062d\u062c": 3711, "##\u0641\u0639\u064a\u0644": 3712, "##\u0626\u0644\u0629": 3713, "\u0627\u0644\u0645\u0643\u0627\u0646": 3714, "\u062a\u0645\u0631": 3715, "\u0648\u0625\u0630\u0627": 3716, "\u0648\u0635\u0644\u062a": 3717, "\u0627\u0644\u0648\u0631": 3718, "##\u064a\u0633\u0649": 3719, "\u0627\u0644\u0645\u0633\u062a\u0634\u0641\u0649": 3720, "\u0627\u0641\u062a\u062a\u0627\u062d": 3721, "##\u062e\u0637\u064a\u0637": 3722, "\u062c\u0627\u0626\u0632\u0629": 3723, "\u0633\u064a\u0627\u0633\u0629": 3724, "\u062d\u0633\u0627\u0628": 3725, "\u0627\u0643\u062f": 3726, "\u0643\u0646": 3727, "\u062d\u0635": 3728, "\u0627\u0644\u0645\u0635\u062f\u0631": 3729, "\u0627\u0644\u0641\u0627\u0626": 3730, "\u0642\u062a": 3731, "\u0627\u0644\u0645\u0641\u0627\u0648\u0636\u0627\u062a": 3732, "\u0627\u0644\u062d\u0645\u0644\u0629": 3733, "##\u0645\u0628\u064a": 3734, "\u0627\u0644\u0623\u0642": 3735, "##\u0627\u0639\u064a": 3736, "\u0648\u0628\u0631": 3737, "##\u0631\u0633\u0627\u0644": 3738, "\u0648\u0627\u0644\u0645\u0633": 3739, "\u0644\u0627\u062a": 3740, "\u0627\u0644\u0646\u0635\u0631": 3741, "##\u0627\u062e\u0644\u064a": 3742, "\u0628\u0627\u0631\u064a\u0633": 3743, "\u0627\u0644\u062c\u0644\u0633\u0629": 3744, "\u0627\u0644\u062a\u0648\u0627\u0635\u0644": 3745, "##\u0642\u064a\u0628": 3746, "\u0627\u0644\u0639\u0647\u062f": 3747, "##\u0634\u0627\u062f": 3748, "\u062a\u0623\u062b\u064a\u0631": 3749, "##\u064a\u0633\u064a": 3750, "\u0628\u0627\u0644\u0637": 3751, "\u064a\u0628\u0644\u063a": 3752, "##\u0624\u0643\u062f": 3753, "\u0627\u0644\u0625\u0646\u062a": 3754, "\u0627\u0644\u062b\u0642\u0627\u0641\u064a\u0629": 3755, "\u062a\u0639\u0644\u064a\u0645": 3756, "\u0645\u0645\u062b\u0644": 3757, "\u0627\u0644\u0623\u0633\u062f": 3758, "##\u0641\u0627\u062c": 3759, "##\u0648\u0637\u0646": 3760, "\u0627\u0644\u0628\u0646\u0648\u0643": 3761, "\u0628\u0646\u062a": 3762, "\u0645\u0639\u0647\u0645": 3763, "\u0633\u064a\u0645\u0627": 3764, "\u0627\u0644\u0623\u0644": 3765, "\u0627\u0644\u062d\u0628": 3766, "##\u064a\u0645\u0627\u0646": 3767, "##\u0627\u0645\u0647": 3768, "\u062f\u0648\u0631\u0629": 3769, "##\u0642\u0644\u064a\u0645\u064a\u0629": 3770, "\u0627\u0644\u0631\u0623\u064a": 3771, "\u0645\u0637\u0627\u0644\u0628": 3772, "\u0648\u064a\u0642\u0648\u0644": 3773, "\u0627\u0647\u062a\u0645\u0627\u0645": 3774, "\u0627\u0630": 3775, "\u0627\u0644\u0639\u064a\u0646": 3776, "\u0632\u0645\u0646": 3777, "\u0648\u0643\u064a\u0644": 3778, "##\u0633\u0647": 3779, "##\u0630\u064a\u0629": 3780, "\u0628\u0633\u064a": 3781, "\u0648\u0628\u062d": 3782, "\u0639\u0631\u0628\u064a\u0629": 3783, "\u062d\u0627\u0644\u0627\u062a": 3784, "##\u0628\u0637\u0629": 3785, "##\u0646\u062f\u0642": 3786, "\u0627\u0644\u0645\u062a\u0639\u0644\u0642\u0629": 3787, "##\u0627\u0646\u062a\u062e\u0627\u0628\u0627\u062a": 3788, "##\u0633\u0627\u0639\u062f\u0629": 3789, "\u0623\u062d\u062f\u0627\u062b": 3790, "\u0627\u0644\u062a\u0645\u0648": 3791, "\u0645\u0646\u0627\u0642": 3792, "\u0627\u0646\u062a\u0647\u0627\u0621": 3793, "\u0627\u0644\u0628\u062f\u0627": 3794, "\u0627\u0644\u0642\u062a": 3795, "\u0623\u0633\u0628\u0648\u0639": 3796, "\u0627\u0644\u0646\u0635": 3797, "\u0627\u0644\u0642\u0648\u0629": 3798, "\u0627\u0644\u0627\u0644\u062a": 3799, "\u062c\u0648\u0646": 3800, "##\u0627\u0645\u0649": 3801, "\u0628\u0645\u0646\u0637\u0642\u0629": 3802, "\u0628\u0633\u0631": 3803, "\u0627\u0644\u0648\u0637\u0646\u0649": 3804, "\u0627\u0644\u0625\u0646\u062a\u0627\u062c": 3805, "\u0627\u0644\u0644\u0628\u0646\u0627\u0646\u064a\u064a\u0646": 3806, "\u0627\u0644\u0645\u062a\u0648\u0642\u0639": 3807, "\u0635\u0641\u0648\u0641": 3808, "##\u0643\u0630\u0627": 3809, "\u0639\u0627\u0644\u064a\u0629": 3810, "\u0627\u0644\u0643\u0647\u0631\u0628\u0627\u0621": 3811, "\u0633\u062a\u0629": 3812, "##\u062a\u0634": 3813, "##\u0641\u0648": 3814, "\u0648\u0637\u0627\u0644\u0628": 3815, "\u0627\u0644\u063a\u0631\u0628": 3816, "##\u0639\u062f\u062f\u0629": 3817, "\u0627\u0644\u0623\u0647\u0644\u064a": 3818, "##\u0633\u062d\u0627\u0628": 3819, "\u0627\u0644\u0623\u0633\u0627\u0633\u064a\u0629": 3820, "\u0627\u0644\u0641\u0639": 3821, "\u0627\u0644\u062d\u0636": 3822, "\u0637\u0646": 3823, "\u0647\u0627": 3824, "\u0627\u0644\u0639\u062f\u0644": 3825, "32": 3826, "\u0648\u0627\u062d\u062a": 3827, "##\u0647\u0644\u0643": 3828, "##\u062b\u064a\u0644": 3829, "\u0627\u0644\u0642\u0627\u0626\u0645\u0629": 3830, "\u0646\u0633\u062a": 3831, "##\u0634\u0649": 3832, "\u0645\u0648\u0633\u0649": 3833, "##\u062c\u0627\u0632\u0627\u062a": 3834, "\u0645\u0645\u0646": 3835, "##\u0637\u0644\u0642\u062a": 3836, "\u064a\u0632\u064a\u062f": 3837, "\u0628\u0642\u064a\u0645\u0629": 3838, "\u0644\u0644\u0639\u0645\u0644": 3839, "\u062a\u0634\u0631\u064a\u0646": 3840, "\u0627\u0644\u0634\u0627\u0631\u0639": 3841, "\u0627\u0644\u0631\u0643": 3842, "##\u0637\u0627\u0642": 3843, "##\u062c\u0645\u0629": 3844, "\u0627\u0644\u062c\u0648\u064a\u0629": 3845, "\u0645\u064a\u0627\u0647": 3846, "\u064a\u0632\u0627\u0644": 3847, "##\u0623\u0649": 3848, "##\u0627\u0631\u0628\u0629": 3849, "\u0628\u0623\u0633": 3850, "##\u062a\u0647\u0645\u0627": 3851, "\u0645\u0644\u0643": 3852, "\u0627\u0644\u0633\u064a\u0627\u062d\u0629": 3853, "\u0627\u0644\u0646\u0632": 3854, "\u0645\u062c\u0645\u0648\u0639": 3855, "\u0627\u0644\u062f\u0631\u0627": 3856, "\u062e\u0645\u0633": 3857, "\u0627\u0636": 3858, "\u064a\u0624\u062f\u064a": 3859, "\u0628\u0631\u0648": 3860, "\u0645\u0631\u0627\u0643\u0632": 3861, "##\u0644\u0627\u062d\u0638": 3862, "##\u0632\u0627\u064a\u062f": 3863, "##\u0627\u0631\u0641": 3864, "\u0645\u0627\u0630\u0627": 3865, "\u0643\u0627\u0645": 3866, "\u0627\u0644\u0645\u063a\u0631\u0628": 3867, "\u0627\u0644\u062d\u0627\u062f\u062b": 3868, "\u0627\u0644\u062b\u0644\u0627\u062b\u0629": 3869, "\u0627\u0636\u0627\u0641\u0629": 3870, "\u0643\u0627": 3871, "##\u0648\u0631\u0647\u0627": 3872, "\u0627\u0644\u0633\u0648\u062f\u0627\u0646": 3873, "\u0627\u0644\u0627\u0628\u062a": 3874, "\u0627\u0644\u0631\u0648\u0633\u064a\u0629": 3875, "##\u063a\u0644\u0627\u0644": 3876, "\u0645\u0637\u0644": 3877, "\u0648\u0623\u0639": 3878, "\u0631\u0627\u0628\u0637": 3879, "##\u0646\u0627\u0639": 3880, "\u0627\u0644\u0638\u0631\u0648\u0641": 3881, "\u0627\u0644\u062c\u0645\u0647\u0648\u0631": 3882, "\u0627\u0644\u0639\u0631\u0636": 3883, "\u064a\u0644\u062a": 3884, "##\u0628\u0649": 3885, "##\u062d\u0627\u062b": 3886, "\u0631\u0627\u0634\u062f": 3887, "\u0627\u0644\u0645\u062f\u0646": 3888, "##\u0642\u064a\u0642\u064a": 3889, "\u0648\u0623\u0646\u0647": 3890, "\u062a\u0631\u0627": 3891, "\u0627\u0644\u062d\u0642\u064a\u0642\u0629": 3892, "\u0644\u0623\u0646\u0647\u0627": 3893, "\u0643\u0648": 3894, "\u0628\u0645\u062f\u064a\u0646\u0629": 3895, "\u0627\u0644\u0641\u0631\u0642": 3896, "\u0628\u062d\u0642": 3897, "\u062a\u062c\u0631\u0628\u0629": 3898, "\u062a\u0648\u0646\u0633": 3899, "##\u0648\u0644\u064a\u0629": 3900, "##\u0643\u064a\u0631": 3901, "##\u0627\u0644\u0627": 3902, "\u0648\u0627\u0644\u0627\u062c\u062a\u0645\u0627": 3903, "\u0648\u0644\u0627\u064a\u0629": 3904, "\u0628\u0647\u0645": 3905, "\u062a\u0636\u0645": 3906, "45": 3907, "\u0625\u0642\u0627\u0645\u0629": 3908, "\u0627\u0645\u064a\u0631": 3909, "\u0635\u0646\u062f\u0648\u0642": 3910, "##\u0634\u064a\u0629": 3911, "\u0627\u0644\u0631\u0648\u0633\u064a": 3912, "\u0644\u0643\u0646\u0647\u0627": 3913, "\u0648\u0628\u0644\u063a": 3914, "\u0643\u0644\u0627": 3915, "##\u0646\u062a\u064a\u0646": 3916, "\u0644\u0643\u064a": 3917, "\u0643\u0628\u0627\u0631": 3918, "\u0648\u0628\u0639\u0636": 3919, "\u062a\u0648\u062c\u0647": 3920, "##\u062b\u0645\u0627\u0646": 3921, "##\u0627\u0646\u064a\u064a\u0646": 3922, "\u0645\u0633\u062a\u0642\u0628\u0644": 3923, "\u0627\u0644\u0634\u0628": 3924, "\u0627\u0644\u0628\u0631\u0627\u0645\u062c": 3925, "\u0627\u0644\u0623\u0648\u0631\u0648\u0628\u064a\u0629": 3926, "\u064a\u0632": 3927, "\u0627\u0644\u0627\u0633\u0628\u0648\u0639": 3928, "\u0627\u0644\u0627\u0647\u062a\u0645\u0627\u0645": 3929, "##\u0646\u064a\u0627\u062a": 3930, "\u0648\u0634\u062f\u062f": 3931, "\u0644\u0644\u062a\u0646": 3932, "\u0627\u0644\u0633\u064a\u0627\u0631\u0629": 3933, "\u062f\u0642\u064a\u0642\u0629": 3934, "\u0639\u0627\u062f\u0644": 3935, "\u0627\u062b": 3936, "\u0627\u0644\u0645\u0643\u062a\u0628": 3937, "70": 3938, "\u0627\u0644\u0633\u062a": 3939, "\u062a\u0627": 3940, "##\u0628\u0639\u062f": 3941, "##\u063a\u0648\u0637": 3942, "##\u063a\u0627\u064a\u0629": 3943, "\u0623\u0646\u0646\u0627": 3944, "##\u0642\u064a\u0646": 3945, "\u0648\u0645\u0646\u0647\u0627": 3946, "\u0648\u0632\u0631\u0627\u0621": 3947, "\u0645\u0648\u0627\u0637\u0646": 3948, "\u0627\u0644\u0628\u062d\u0631\u064a\u0646": 3949, "##\u0647\u0631\u0627\u0646": 3950, "\u0627\u0644\u0642\u062f\u064a\u0645\u0629": 3951, "\u0627\u0644\u0633\u0627\u062d": 3952, "\u0639\u0627\u0645\u0629": 3953, "\u0641\u0631\u0642": 3954, "##\u0639\u064a\u064a\u0646": 3955, "\u0627\u0644\u062a\u0636": 3956, "\u0648\u0645\u0633": 3957, "\u0646\u0638\u0631": 3958, "\u0627\u0644\u062a\u0641\u0627": 3959, "\u0648\u0627\u0643\u062f": 3960, "\u0627\u0644\u0645\u0639\u0646\u064a\u0629": 3961, "\u0645\u0633\u0631\u062d": 3962, "\u0645\u0648\u0646": 3963, "##\u0646\u0627\u0647": 3964, "\u0634\u064a\u0626\u0627": 3965, "\u0623\u0648\u0628\u0627\u0645\u0627": 3966, "\u0628\u0644\u062f\u064a\u0629": 3967, "##\u0648\u064a\u0648\u0631\u0643": 3968, "\u0627\u0644\u062e\u0628\u0631": 3969, "##\u062a\u064a\u0627\u0644": 3970, "\u0645\u0646\u0635\u0648\u0631": 3971, "\u0635\u0639": 3972, "\u0645\u0637\u0627\u0631": 3973, "\u0648\u0641\u062f": 3974, "\u0635\u0646\u0639": 3975, "\u0645\u0627\u0644\u064a\u0629": 3976, "##\u0634\u0641\u064a\u0627\u062a": 3977, "##\u0633\u064a\u0645": 3978, "\u0627\u0644\u0627\u0628": 3979, "\u0627\u0644\u0639\u0645\u0644\u064a\u0627\u062a": 3980, "\u0644\u064a\u0628\u064a\u0627": 3981, "\u0627\u0644\u0644\u062d": 3982, "\u0648\u0627\u0644\u0627\u0646": 3983, "\u063a\u0631\u0641\u0629": 3984, "##\u0647\u0648\u0645": 3985, "##\u0644\u0644": 3986, "\u0627\u0644\u064a\u0648\u0646": 3987, "\u0645\u0633\u0644": 3988, "\u0623\u0647\u0644": 3989, "\u0630\u0627\u062a\u0647": 3990, "\u0627\u0644\u062a\u0642\u062f\u0645": 3991, "\u0627\u0644\u0632\u0645\u0646": 3992, "\u0646\u0627\u062d\u064a\u0629": 3993, "##\u0648\u0646\u0647": 3994, "\u0635\u0641\u0631": 3995, "\u0627\u0644\u064a\u0647\u0648\u062f": 3996, "\u0627\u0644\u0625\u062c\u0631\u0627\u0621\u0627\u062a": 3997, "\u062a\u0647": 3998, "\u0644\u062f\u064a\u0647": 3999, "\u062a\u0642\u0631\u064a\u0628\u0627": 4000, "\u0648\u0630\u0643\u0631\u062a": 4001, "\u0627\u0644\u062a\u0631\u0643\u064a": 4002, "\u0627\u0644\u0623\u0633\u0648\u0627\u0642": 4003, "##\u062d\u0641": 4004, "\u0628\u0645\u0639": 4005, "\u0644\u0635\u0627\u0644\u062d": 4006, "\u062f\u0627": 4007, "\u0648\u0643\u064a\u0641": 4008, "\u0645\u0648\u0633\u0645": 4009, "\u0623\u0648\u0644\u0627": 4010, "\u0633\u0644\u0633\u0644\u0629": 4011, "\u0627\u0644\u0631\u0627\u0626": 4012, "\u0627\u0644\u062a\u0631\u0643\u064a\u0629": 4013, "\u0635\u0627\u0631": 4014, "\u062a\u0648\u0627\u062c\u0647": 4015, "\u0642\u0631\u0627\u0631\u0627\u062a": 4016, "\u0628\u062a\u0646": 4017, "80": 4018, "\u0627\u0644\u0642\u064a\u0627\u0645": 4019, "\u064a\u0631\u0649": 4020, "##\u0648\u0646\u063a": 4021, "\u0645\u0645\u0627\u0631": 4022, "\u0627\u0644\u0645\u0636": 4023, "##\u0628\u0642\u0649": 4024, "\u0627\u0644\u0623\u0633\u062a\u0627\u0630": 4025, "\u0627\u0644\u062d\u0641\u0644": 4026, "\u0648\u0627\u0644\u0639\u062f": 4027, "\u0642\u0644\u0628": 4028, "##\u0627\u0644\u0641\u0629": 4029, "\u0648\u0643\u0623\u0646": 4030, "\u062a\u0633\u062c\u064a\u0644": 4031, "\u0627\u0644\u0645\u0631\u0643\u0632\u064a": 4032, "\u0627\u0644\u062a\u0639\u062f": 4033, "##\u0627\u0644\u062b": 4034, "\u0627\u0644\u0628\u0634\u0631\u064a\u0629": 4035, "##\u064a\u0645\u0629": 4036, "##\u0627\u0636\u0631": 4037, "\u062a\u0632\u0627\u0644": 4038, "\u0627\u0644\u0625\u0646\u0633\u0627\u0646\u064a\u0629": 4039, "\u0628\u0637\u0631\u064a\u0642\u0629": 4040, "\u0627\u0644\u0642\u0645\u0629": 4041, "##\u0632\u064a\u0627\u0631\u0629": 4042, "##\u0627\u0639\u064a\u0629": 4043, "\u064a\u062d\u0635\u0644": 4044, "##\u0633\u0633": 4045, "\u0644\u0637": 4046, "\u0648\u0623\u0636\u0627\u0641\u062a": 4047, "##er": 4048, "\u0627\u0644\u0642\u0646": 4049, "\u0627\u0644\u0623\u062d\u062f\u0627\u062b": 4050, "\u0641\u0631\u064a\u0642\u0647": 4051, "##\u0643\u0627\u062f\u064a\u0645": 4052, "\u0623\u0633\u0627\u0633": 4053, "##\u062c\u0631\u064a": 4054, "##\u062a\u0631\u0627": 4055, "\u0639\u0633\u0643\u0631\u064a\u0629": 4056, "##\u0642\u0637\u0639": 4057, "\u0627\u0644\u0625\u0631\u0647\u0627": 4058, "\u062d\u0648\u0627\u0631": 4059, "\u0623\u0641\u0631\u064a\u0642\u064a\u0627": 4060, "\u0627\u0644\u0645\u062f\u0646\u064a\u0629": 4061, "\u0623\u0633\u0628\u0627\u0628": 4062, "\u0639\u0644\u0627\u0642\u0627\u062a": 4063, "\u0627\u064a\u0631\u0627\u0646": 4064, "\u0627\u0644\u0642\u0627\u0646\u0648\u0646\u064a\u0629": 4065, "\u0648\u0627\u0634\u0627\u0631": 4066, "\u0627\u0644\u062b\u0642\u0627\u0641\u064a": 4067, "##\u062c\u0647\u064a\u0632": 4068, "\u0627\u0644\u062b\u0642\u0629": 4069, "##\u0641\u0631\u062f": 4070, "\u0622\u0633\u064a\u0627": 4071, "##\u0639\u062a\u0647\u0627": 4072, "\u0633\u0628\u0623": 4073, "\u0633\u0647\u0645": 4074, "##\u0627\u0645\u0631": 4075, "\u0627\u0644\u062a\u0642\u0644\u064a": 4076, "\u0628\u0639\u062f\u0645": 4077, "\u0622\u062e\u0631\u064a\u0646": 4078, "\u0648\u0644\u0641\u062a": 4079, "##\u063a\u0627\u0646\u0633\u062a\u0627\u0646": 4080, "\u0648\u0623\u0645": 4081, "\u0623\u062c\u0647\u0632\u0629": 4082, "\u0627\u0644\u0622\u062e\u0631\u064a\u0646": 4083, "\u0627\u0644\u064a\u0647": 4084, "\u0627\u0644\u0645\u062a\u0638\u0627\u0647\u0631": 4085, "##\u062c\u0626\u064a\u0646": 4086, "\u0628\u0631\u064a\u0637\u0627\u0646\u064a\u0627": 4087, "\u0645\u0646\u0632\u0644": 4088, "\u064a\u062c\u0631\u064a": 4089, "##\u0631\u0627\u0628\u0644": 4090, "\u0627\u0644\u062d\u062f\u064a\u062b\u0629": 4091, "\u0644\u0628\u0646": 4092, "\u0639\u062f\u064a\u062f\u0629": 4093, "\u0645\u062c\u0631\u062f": 4094, "\u0627\u0644\u0635\u063a\u064a\u0631\u0629": 4095, "\u0645\u0631\u0634\u062d": 4096, "\u0628\u0639\u064a\u062f\u0627": 4097, "\u0627\u0644\u062a\u063a\u064a\u064a\u0631": 4098, "\u0627\u0644\u062a\u062f\u0631\u064a": 4099, "\u0637\u0648\u0627\u0644": 4100, "\u0627\u0644\u0635\u062d\u0641": 4101, "\u062c\u064a\u062f\u0629": 4102, "##\u0648\u0627\u0629": 4103, "\u064a\u0645\u0644\u0643": 4104, "##\u0636\u0645\u0627\u0646": 4105, "\u0628\u0645\u062d\u0627\u0641\u0638\u0629": 4106, "\u062e\u0644\u064a\u0641\u0629": 4107, "\u0627\u0644\u0628\u062f\u0627\u064a\u0629": 4108, "##\u0628\u0644\u0627": 4109, "\u062a\u0639\u0631\u0641": 4110, "##\u0644\u0627\u0641\u0627\u062a": 4111, "##\u0627\u0628\u064a\u0639": 4112, "\u0627\u0644\u062a\u062e": 4113, "##\u0648\u0631\u062a": 4114, "\u0623\u0635\u062f": 4115, "\u062a\u0631\u062a": 4116, "\u0627\u0644\u0645\u0644\u0641": 4117, "##\u063a\u0644\u0627\u0642": 4118, "\u0627\u0644\u062a\u0639\u0644\u064a\u0645\u064a\u0629": 4119, "\u0635\u0646\u0627\u0639\u0629": 4120, "\u0633\u0644\u0645": 4121, "\u0631\u0626\u0627\u0633\u0629": 4122, "\u0628\u0627\u0644\u062e": 4123, "##\u0633\u0637\u0633": 4124, "\u062a\u0639\u0648\u062f": 4125, "##\u0641\u064a\u0647": 4126, "##\u0633\u0628\u0627\u0646\u064a": 4127, "##\u062c\u0647\u0648\u062f": 4128, "\u062a\u0644\u0642\u0649": 4129, "\u0644\u0642\u0628": 4130, "\u0648\u0627\u0636\u062d\u0629": 4131, "\u0627\u0644\u062a\u062f\u0631\u064a\u0628": 4132, "\u0646\u0635\u0631": 4133, "\u0623\u0643\u062f\u062a": 4134, "##\u0634\u0637": 4135, "\u0627\u0644\u0641\u0643\u0631": 4136, "\u0646\u0647": 4137, "\u0627\u0644\u0627\u0633\u0631\u0627\u0626\u064a\u0644\u064a\u0629": 4138, "##\u0645\u0644\u064a\u0629": 4139, "\u0627\u0644\u0623\u0631\u0627\u0636\u064a": 4140, "##\u0631\u0627\u062c\u0639\u0629": 4141, "##\u0627\u0645\u0627\u062a": 4142, "\u0648\u062f\u0639\u0627": 4143, "\u0639\u0644\u0645\u0627": 4144, "\u0627\u0644\u0633\u0643\u0627\u0646": 4145, "##\u0648\u0627\u0626\u0632": 4146, "\u0645\u0631\u0633\u0649": 4147, "\u0627\u0644\u0645\u0643\u0631": 4148, "\u0627\u0644\u0645\u062c\u0627\u0644\u0627\u062a": 4149, "\u0644\u062f\u064a\u0646\u0627": 4150, "\u0642\u0648\u0644\u0647": 4151, "\u0627\u0644\u062e\u0627\u0645\u0633": 4152, "##\u0643\u0644\u0641": 4153, "\u0645\u0634\u0627\u0643\u0644": 4154, "\u0633\u0644\u0645\u0627\u0646": 4155, "\u0646\u0648\u0631": 4156, "\u0644\u0641\u062a": 4157, "##\u062f\u062e\u0644": 4158, "\u0628\u0646\u0641\u0633": 4159, "##\u0648\u0627\u0641": 4160, "\u0627\u0644\u0646\u0647\u0627\u0626\u064a\u0629": 4161, "\u0648\u062a\u0642": 4162, "##\u0642\u0627\u0644\u0629": 4163, "\u0627\u062b\u0631": 4164, "##\u064a\u062d": 4165, "##\u0631\u064a\u0642\u064a": 4166, "\u0648\u0625\u0646\u0645\u0627": 4167, "\u0648\u0627\u0644\u0645\u0639": 4168, "\u0631\u0648\u064a\u062a": 4169, "\u0641\u0645\u0646": 4170, "##\u0646\u064a\u064a\u0646": 4171, "\u0623\u062e\u0630": 4172, "##\u0648\u064a\u0642": 4173, "\u0648\u0639\u0646\u062f\u0645\u0627": 4174, "\u0627\u064a\u062c": 4175, "\u0637\u0627\u0626": 4176, "\u0627\u0644\u0631\u0633\u0645\u064a": 4177, "\u0639\u0627": 4178, "##\u0648\u0635\u0648\u0644": 4179, "\u062a\u0623\u062a\u064a": 4180, "##\u062a\u0627\u0645": 4181, "\u0627\u0644\u062f\u064a\u0646\u064a\u0629": 4182, "##\u0648\u0627\u0645\u0644": 4183, "##\u0635\u0631\u064a": 4184, "\u0630\u0643\u0631\u062a": 4185, "##\u0641\u0633\u0647\u0645": 4186, "##\u0648\u0627\u0631\u064a\u062e": 4187, "\u062c\u0631\u0649": 4188, "\u0627\u0644\u062b\u0627\u0645\u0646\u0629": 4189, "\u0628\u0642\u064a\u0627\u062f\u0629": 4190, "\u0633\u064a\u0627\u0633\u064a": 4191, "142": 4192, "\u062e\u064a\u0631": 4193, "##\u0639\u0648\u062f\u0629": 4194, "\u0627\u0644\u0625\u0639\u0644\u0627\u0646": 4195, "\u0645\u0633\u064a\u0631\u0629": 4196, "##\u0648\u0627\u062c\u062f": 4197, "\u0645\u062d\u0637\u0629": 4198, "\u0627\u0644\u0627\u0646\u0633\u0627\u0646": 4199, "##\u0631\u0648\u0629": 4200, "##\u0633\u0627\u0637": 4201, "\u0627\u0644\u0646\u0634\u0627\u0637": 4202, "\u0645\u0624\u0633\u0633\u0627\u062a": 4203, "##\u0648\u0644\u062f": 4204, "\u0627\u0644\u0623\u0644\u0645\u0627\u0646\u064a\u0629": 4205, "##\u0646\u0627\u0645": 4206, "\u0627\u0644\u0631\u062d\u0645\u0646": 4207, "\u0647\u062c\u0648\u0645": 4208, "\u062f\u0631\u0627": 4209, "\u0644\u0644\u0643": 4210, "\u0644\u0644\u0645\u0631\u0629": 4211, "\u0639\u0645\u0627": 4212, "\u062a\u062c\u0645\u0639": 4213, "\u0627\u0644\u0623\u062d\u0645\u0631": 4214, "\u0648\u0644\u0644": 4215, "\u0627\u0644\u0645\u0647\u0645\u0629": 4216, "##\u0644\u0627\u062c": 4217, "\u0645\u062a\u0645": 4218, "\u0627\u0646\u0639": 4219, "\u0644\u0648\u0643": 4220, "##\u0642\u0627\u0634": 4221, "\u0644\u062a\u062d": 4222, "\u0627\u0644\u062a\u0648\u0642": 4223, "\u0627\u0644\u062f\u0631\u0627\u0633\u0627\u062a": 4224, "\u062a\u0623\u0633\u064a\u0633": 4225, "\u0627\u0644\u0637\u0627\u0626\u0631\u0629": 4226, "\u0628\u0645\u0646": 4227, "\u0648\u064a\u062f": 4228, "\u0646\u064a\u0648\u064a\u0648\u0631\u0643": 4229, "\u062d\u0636": 4230, "\u0627\u0644\u0623\u0645\u0629": 4231, "##\u0648\u062f\u064a\u0629": 4232, "##\u0641\u0631\u064a\u0642\u064a\u0629": 4233, "\u0633\u064a\u0639": 4234, "\u0633\u0646\u0648\u064a\u0627": 4235, "\u0628\u0644\u062f\u0629": 4236, "\u0627\u0644\u0631\u0626\u064a\u0633\u064a": 4237, "\u0627\u0644\u0648\u0643": 4238, "\u0648\u0641\u0631": 4239, "\u062a\u062d\u0642\u0642": 4240, "\u0645\u0646\u062a\u0635\u0641": 4241, "\u0627\u0644\u062d\u0642\u0648\u0642": 4242, "\u0623\u0645\u0644": 4243, "\u0623\u0631\u0628\u0639": 4244, "\u0627\u0633\u062a\u0642\u0628\u0644": 4245, "##\u064a\u0627\u0632": 4246, "\u0627\u0644\u0645\u0628\u0627\u0631\u064a\u0627\u062a": 4247, "\u0627\u0644\u0628\u062d\u0631\u064a\u0629": 4248, "90": 4249, "\u0627\u0644\u0641\u0633\u0627\u062f": 4250, "\u0627\u0644\u0633\u0628\u0628": 4251, "##\u0627\u0628\u064a\u0646": 4252, "##\u0635\u0627\u0628\u0627\u062a": 4253, "\u0648\u0644\u062f": 4254, "\u062a\u0628\u0644\u063a": 4255, "\u0627\u0644\u0645\u0634\u062a\u0631\u0643\u0629": 4256, "\u0628\u0639\u062f\u0647\u0627": 4257, "##\u0632\u0645\u0627\u062a": 4258, "\u0643\u0646\u0627": 4259, "\u0648\u0623\u0633": 4260, "\u0627\u0644\u0642\u0648\u0644": 4261, "\u0642\u0631\u064a\u0629": 4262, "\u0625\u0639": 4263, "\u062a\u0628\u062f\u0623": 4264, "\u062c\u0645\u0627\u0639\u0629": 4265, "\u0632\u0645": 4266, "##\u0641\u0633\u0629": 4267, "\u0627\u0644\u0639\u0644\u0645\u064a": 4268, "##\u0627\u062f\u062b\u0627\u062a": 4269, "\u0627\u0644\u0641\u0631\u0635\u0629": 4270, "\u064a\u0646\u0628": 4271, "\u062a\u0648\u062c\u064a\u0647": 4272, "##\u0646\u0627\u0641\u0633": 4273, "\u062a\u0648\u062c\u062f": 4274, "\u0648\u0623\u0646\u0627": 4275, "\u0627\u0644\u062c\u0645\u0627\u0647\u064a\u0631": 4276, "\u0627\u0644\u062d\u0627\u0644\u0629": 4277, "\u0643\u0627\u0646\u0648\u0646": 4278, "##\u0645\u0627\u062d": 4279, "\u0627\u0644\u0635\u064a\u0641": 4280, "\u0625\u062c\u0631\u0627\u0621\u0627\u062a": 4281, "\u0645\u0623": 4282, "##\u064a\u0632\u0627\u0646\u064a\u0629": 4283, "\u0627\u0644\u0635\u0646\u062f\u0648\u0642": 4284, "\u0644\u0644\u0645\u0634\u0627\u0631\u0643\u0629": 4285, "\u0627\u0644\u0645\u0646\u0627\u0641\u0633\u0629": 4286, "\u062a\u062d\u062a\u0627\u062c": 4287, "##\u0648\u0644\u064a\u0646": 4288, "\u0627\u0644\u0648\u0627\u0642\u0639\u0629": 4289, "\u0625\u0639\u0644\u0627\u0645": 4290, "\u0627\u0644\u0628\u0631\u0627": 4291, "##\u0628\u0637\u0648\u0644\u0629": 4292, "##\u062a\u0645\u0627\u0644": 4293, "\u0627\u0644\u0643\u0644": 4294, "\u062b\u0648\u0631\u0629": 4295, "\u0627\u0644\u0635\u0648\u0631\u0629": 4296, "\u0627\u0644\u0623\u0633\u0631\u0629": 4297, "\u0648\u0631\u063a\u0645": 4298, "##\u062f\u064a\u0642": 4299, "##\u0648\u0631\u0627\u0642": 4300, "\u0635\u0639\u064a\u062f": 4301, "\u0642\u0627\u0639\u062f\u0629": 4302, "\u0645\u0633\u0623\u0644\u0629": 4303, "\u0627\u0644\u0634\u0627\u0639\u0631": 4304, "\u0628\u0642\u064a\u0629": 4305, "\u0644\u064a\u062a": 4306, "\u0645\u0643\u0627\u0641\u062d\u0629": 4307, "\u0648\u0647\u0649": 4308, "##\u0637\u0627\u0644\u064a\u0627": 4309, "\u0627\u0639\u0645\u0627\u0644": 4310, "\u0634\u0643\u0631": 4311, "\u0627\u0644\u0639\u0642\u062f": 4312, "\u0648\u0627\u0644\u0645\u062d": 4313, "##\u0635\u0644\u062a": 4314, "\u0645\u0631\u0648\u0631": 4315, "\u0627\u0644\u0622\u0633\u064a": 4316, "\u0628\u0627\u0643": 4317, "##\u0648\u0633\u0637\u0629": 4318, "\u0627\u0644\u0639\u0627\u0644\u064a": 4319, "2004": 4320, "\u0627\u0644\u0639\u0636": 4321, "\u0627\u0644\u062f\u0627\u062e\u0644\u064a": 4322, "\u0627\u0644\u062a\u062c\u0627\u0631\u064a": 4323, "##\u0648\u0646\u0647\u0627": 4324, "##\u0637\u0644\u0628\u0627\u062a": 4325, "##\u0627\u0636\u0627\u0641\u0629": 4326, "##\u0645\u0644\u0643\u0629": 4327, "\u0627\u0644\u0635\u0628\u0627\u062d": 4328, "##\u0627\u0631\u0643": 4329, "\u062a\u0642\u0644": 4330, "\u0632\u0627\u064a\u062f": 4331, "\u0627\u0644\u0648\u0627\u062d\u062f": 4332, "##\u0648\u0641\u0627": 4333, "\u062e\u0637\u0648\u0629": 4334, "\u0637\u0631\u064a\u0642\u0629": 4335, "\u0644\u062a\u0633": 4336, "36": 4337, "##\u0627\u0631\u0647": 4338, "\u0648\u0627\u0644\u0645\u0646": 4339, "\u0645\u0624\u0634\u0631": 4340, "\u064a\u062d\u064a": 4341, "\u0627\u0644\u062a\u0631\u0628": 4342, "##\u0632\u0642": 4343, "\u0623\u0633\u0647\u0645": 4344, "\u0648\u0644\u0643\u0646\u0647": 4345, "\u064a\u0645\u062a": 4346, "\u0627\u0644\u0641\u0636": 4347, "\u0645\u062a\u0627\u0628\u0639\u0629": 4348, "##\u062b\u0631\u0629": 4349, "##\u0627\u0626\u0646": 4350, "\u0648\u0644\u064a\u062f": 4351, "\u0637\u0631": 4352, "##\u0627\u0642\u0627\u062a": 4353, "\u062d\u0627\u062c\u0629": 4354, "\u062c\u0627\u0645": 4355, "\u0623\u0634\u062e\u0627\u0635": 4356, "\u0627\u0644\u0632\u0631\u0627\u0639\u0629": 4357, "##\u063a\u0631\u0628": 4358, "\u0632\u064a\u0646": 4359, "\u0627\u0644\u0623\u062c\u0647\u0632\u0629": 4360, "\u0644\u0644\u0645\u0648\u0627": 4361, "\u0633\u0642\u0648\u0637": 4362, "\u0625\u0639\u062f\u0627\u062f": 4363, "##\u062c\u0627\u0631\u0629": 4364, "\u0627\u0644\u0646\u0648\u0639": 4365, "\u064a\u0642\u0644": 4366, "\u0627\u0644\u0628\u0627\u062d\u062b": 4367, "194": 4368, "\u0628\u0648\u062a": 4369, "##\u0628\u0627\u062f\u0626": 4370, "\u0628\u0627\u0644\u0645\u0646\u0637\u0642\u0629": 4371, "\u0633\u0627\u0628\u0642\u0627": 4372, "##\u0634\u0647\u062f": 4373, "\u0627\u0644\u0633\u0644\u0645": 4374, "\u0627\u0644\u0645\u0642\u062f": 4375, "\u0627\u0644\u0643\u0627\u062a\u0628": 4376, "\u0642\u0637\u0639": 4377, "\u062a\u0639\u064a\u064a\u0646": 4378, "##\u062d\u0648\u0627\u0644": 4379, "\u0628\u0645\u0646\u0627\u0633\u0628\u0629": 4380, "33": 4381, "\u062a\u0636\u0645\u0646": 4382, "##\u0634\u0631\u0637\u0629": 4383, "\u064a\u0633\u062a\u062e\u062f\u0645": 4384, "\u0642\u0645\u0629": 4385, "\u0627\u0644\u0631\u062c\u0627\u0644": 4386, "\u0627\u0644\u0645\u0642\u0627\u0628\u0644": 4387, "\u0631\u0626\u064a\u0633\u0627": 4388, "##\u0641\u0646": 4389, "##\u0642\u0627\u0626\u0642": 4390, "\u0636\u0631\u0628": 4391, "\u0627\u0644\u0635\u062d\u0627\u0641\u0629": 4392, "\u0633\u064a\u0627\u0631\u0627\u062a": 4393, "##\u0644\u0648\u0644": 4394, "\u0646\u0645": 4395, "\u0644\u062f\u0639\u0645": 4396, "\u0627\u0644\u0633\u0648\u064a\u0633": 4397, "##\u0642\u064a\u0627\u062a": 4398, "##\u0626\u0648\u0646": 4399, "\u063a\u0631": 4400, "\u0627\u0644\u062a\u062d\u062f": 4401, "\u0627\u0646\u0646\u0627": 4402, "\u062c\u0631\u0627\u0621": 4403, "\u0627\u0644\u0648\u062b": 4404, "\u062a\u0648\u0642\u064a\u0639": 4405, "\u064a\u062c\u062f": 4406, "\u0627\u0646\u062a\u0634\u0627\u0631": 4407, "\u0637\u0644\u0627\u0628": 4408, "##\u0631\u0628\u064a\u0646": 4409, "\u0627\u0633\u062a\u0642\u0628\u0627\u0644": 4410, "##\u0638\u0627\u0647\u0631\u0627\u062a": 4411, "\u0645\u0631\u0627\u062a": 4412, "\u062a\u0631\u064a\u062f": 4413, "##\u0628\u0639\u0627\u062f": 4414, "\u0648\u0623\u0641": 4415, "\u0645\u0639\u062f\u0644": 4416, "##\u062c\u0627\u0628": 4417, "##\u0641\u0627\u0639\u0644": 4418, "##\u062e\u0637\u0627\u0621": 4419, "\u0645\u062c\u062a\u0645\u0639": 4420, "##\u064a\u0627\u0637": 4421, "\u0639\u0628\u0627\u0631\u0629": 4422, "\u0627\u0644\u0628\u0627\u0631": 4423, "##\u0639\u0627\u0645": 4424, "##\u0627\u0644\u0641\u0627\u062a": 4425, "\u0627\u0644\u0642\u0644\u0628": 4426, "\u064a\u0634\u0627\u0631\u0643": 4427, "\u0645\u0639\u0627\u0644\u064a": 4428, "\u0631\u0648\u064a\u062a\u0631\u0632": 4429, "##\u0648\u0636\u062d\u062a": 4430, "\u0627\u0644\u0645\u0637\u0644\u0648\u0628": 4431, "\u0644\u0644\u0645\u0633\u062a": 4432, "\u0628\u0645\u0633\u062a": 4433, "\u0645\u064a\u062f": 4434, "\u0631\u0648\u062d": 4435, "##\u0634\u064a\u0631": 4436, "\u062c\u064a\u062f\u0627": 4437, "\u0623\u0646\u062a": 4438, "\u0648\u0648\u0636\u0639": 4439, "\u0627\u0644\u062d\u0627\u0644": 4440, "\u0641\u0641\u064a": 4441, "\u0627\u0644\u0639\u0627\u0645\u0644\u0629": 4442, "\u0648\u0627\u0644\u0630\u0649": 4443, "\u0648\u0633\u0645": 4444, "\u0634\u0631\u0627\u0621": 4445, "\u0627\u0644\u062c\u0627\u0645\u0639\u0627\u062a": 4446, "##\u0643\u062a\u0631": 4447, "\u0627\u0644\u062a\u0632\u0627\u0645": 4448, "\u0627\u0644\u0645\u0646\u0627\u0633\u0628": 4449, "\u062a\u0648\u0631\u0633": 4450, "##\u0627\u0641\u0631": 4451, "\u0641\u0631\u0639": 4452, "\u0645\u0632\u064a\u062f": 4453, "\u0628\u062d\u0627\u062c\u0629": 4454, "##\u0636\u0645\u0627\u0645": 4455, "\u0627\u0644\u0646\u0648\u0648\u064a\u0629": 4456, "\u0627\u0644\u0648\u0638": 4457, "\u0639\u0634\u0631\u0627\u062a": 4458, "\u062a\u0641\u0627\u0635\u064a\u0644": 4459, "##\u0643\u0631\u0631": 4460, "\u0627\u0644\u0623\u0634\u062e\u0627\u0635": 4461, "\u0644\u0644\u0623\u0633": 4462, "\u0627\u0644\u062f\u064a\u0645\u0642\u0631\u0627\u0637\u064a\u0629": 4463, "\u0642\u0631\u0631\u062a": 4464, "\u062a\u0639\u062f\u064a\u0644": 4465, "\u0642\u0648\u0649": 4466, "\u0642\u0635\u0631": 4467, "500": 4468, "\u0627\u0644\u0633\u0627\u062d\u0629": 4469, "##\u0644\u062a\u0642\u0649": 4470, "##\u0628\u064a\u062a": 4471, "\u0627\u0644\u0633\u0641\u0627\u0631\u0629": 4472, "\u062d\u0635\u0648\u0644": 4473, "\u0639\u0635\u0631": 4474, "##\u0622\u062e\u0631": 4475, "\u0627\u0644\u0634\u0645\u0627\u0644": 4476, "\u0627\u0644\u062a\u0634\u0631\u064a": 4477, "\u0648\u0647\u0644": 4478, "##\u064a\u0637\u0627\u0644\u064a": 4479, "\u0627\u0644\u062c\u0645\u0627\u0639\u0629": 4480, "##\u0636\u064a\u0639": 4481, "##\u0646\u0627\u0642\u0634": 4482, "\u0628\u0648\u0627\u0633": 4483, "\u0648\u0641\u0627\u0629": 4484, "\u0648\u064a\u0645\u0643\u0646": 4485, "\u0645\u0628\u0644\u063a": 4486, "##\u064a\u0637\u0631\u0629": 4487, "##\u0644\u064a\u0647": 4488, "\u0627\u0644\u0633\u0645": 4489, "\u0622\u0630\u0627\u0631": 4490, "##\u0627\u0626\u0644\u0627\u062a": 4491, "\u0639\u0633\u0643\u0631\u064a": 4492, "##\u0641\u062a\u0627\u0621": 4493, "\u0644\u0645\u0648\u0627\u062c\u0647\u0629": 4494, "\u0627\u0644\u0645\u0634\u0627\u0631\u0643\u064a\u0646": 4495, "\u0627\u0644\u0631\u0645": 4496, "\u062a\u0642\u0639": 4497, "\u0645\u0633\u0624\u0648\u0644\u064a\u0629": 4498, "\u0648\u0623\u064a": 4499, "\u0627\u0644\u0632\u064a\u0627\u0631\u0629": 4500, "##\u0631\u0627\u0628\u0644\u0633": 4501, "\u0627\u0644\u0645\u062c\u0627": 4502, "\u0627\u0644\u0633\u064a\u0637\u0631\u0629": 4503, "\u0628\u0627\u0644\u0627\u0636\u0627\u0641\u0629": 4504, "##\u0642\u064a\u0627\u0645": 4505, "##\u0646\u0627\u064a\u0629": 4506, "\u0648\u064a\u0644": 4507, "\u0627\u0644\u062f\u0639\u0648\u0629": 4508, "##\u062f\u0627\u062e\u0644": 4509, "\u0648\u0631\u0628\u0645\u0627": 4510, "\u0628\u0627\u0644\u0628": 4511, "##\u0648\u0627\u0631\u0626": 4512, "\u0634\u0645": 4513, "\u0627\u0644\u0645\u0644\u0627": 4514, "\u0627\u0644\u0647\u062f": 4515, "##\u0634\u064a\u062d": 4516, "##\u0630\u0646": 4517, "\u0645\u0635\u0627\u0644\u062d": 4518, "##\u0631\u0642\u0627\u0645": 4519, "\u064a\u0639\u062a": 4520, "\u0644\u064a\u0631\u0629": 4521, "\u0633\u064a\u0641": 4522, "\u0627\u0644\u0644\u062c\u0627\u0646": 4523, "\u062f\u064a\u0645": 4524, "\u0648\u064a\u0639\u062a": 4525, "\u0647\u0646": 4526, "\u0644\u0639\u062f\u0645": 4527, "\u062a\u063a\u064a\u0631": 4528, "##\u062f\u0631\u064a\u0628": 4529, "\u0646\u0639\u0645": 4530, "\u062a\u062e\u0635": 4531, "\u0623\u0646\u0648\u0627\u0639": 4532, "\u0627\u0643\u0628\u0631": 4533, "##\u0641\u0627\u0641": 4534, "\u0628\u0627\u0644\u0641\u0639\u0644": 4535, "\u0627\u0644\u0631\u0628\u0639": 4536, "\u0623\u0646\u062d\u0627\u0621": 4537, "\u0627\u0644\u063a\u0630\u0627\u0626\u064a\u0629": 4538, "\u0627\u0644\u064a\u062f": 4539, "\u0635\u063a\u064a\u0631\u0629": 4540, "\u0648\u0642\u0639\u062a": 4541, "\u0627\u0644\u0646\u0648\u0648\u064a": 4542, "##\u0627\u0647\u062f\u0629": 4543, "\u0627\u0644\u0642\u0631\u0622\u0646": 4544, "2014": 4545, "\u0645\u0644\u064a\u0627\u0631\u0627\u062a": 4546, "\u0637\u0644": 4547, "\u0628\u0637\u0644": 4548, "\u0646\u0638\u0645": 4549, "\u0644\u0630\u0627": 4550, "\u0628\u064a\u062f": 4551, "\u0627\u0644\u0623\u0633\u0647\u0645": 4552, "\u0641\u0625\u0646\u0647": 4553, "##\u0631\u0648\u064a\u062c": 4554, "\u0627\u0644\u0639\u0644\u0648\u0645": 4555, "\u0627\u0644\u0646\u0627\u062a": 4556, "\u0623\u0628\u0631\u064a\u0644": 4557, "\u0627\u0639\u062a\u0645\u0627\u062f": 4558, "\u062d\u0642\u064a\u0642\u0629": 4559, "##\u0636\u0648\u0646": 4560, "\u0648\u0623\u062e": 4561, "\u062a\u062d\u0648\u064a\u0644": 4562, "\u0648\u0639\u0645": 4563, "##\u0631\u0627\u0633": 4564, "\u0627\u0644\u0641\u0635\u0644": 4565, "##\u0630\u0643\u0631\u0629": 4566, "##\u0632\u0627\u0644\u0629": 4567, "\u0623\u0648\u0636\u062d": 4568, "##\u0632\u062a": 4569, "\u0644\u0645\u062c\u0644\u0633": 4570, "\u0627\u0644\u0625\u0646\u062a\u0631\u0646\u062a": 4571, "\u0639\u0627\u0634": 4572, "##\u0643\u0644\u0627\u062a": 4573, "\u0645\u062f\u0631\u064a\u062f": 4574, "\u062d\u062f\u0648\u062b": 4575, "\u0627\u0644\u062f\u0631\u062c\u0629": 4576, "\u0634\u0624\u0648\u0646": 4577, "\u0648\u062a\u062c": 4578, "##\u0633\u062a\u0647": 4579, "\u0635\u0631\u0641": 4580, "\u0627\u0644\u0628\u062d": 4581, "\u0643\u0648\u0631\u064a\u0627": 4582, "##\u064a\u0645\u064a\u0646": 4583, "\u0627\u0644\u0631\u0624": 4584, "\u0622\u0646": 4585, "\u0627\u0644\u062f\u062e\u0648\u0644": 4586, "\u0648\u0633\u062c\u0644": 4587, "\u0648\u0627\u0633\u0639\u0629": 4588, "\u064a\u0648": 4589, "\u0648\u062d\u0648\u0644": 4590, "\u0627\u0644\u0628\u062a\u0631": 4591, "\u0627\u0644\u0645\u0633\u0626\u0648\u0644": 4592, "\u0627\u0644\u062a\u0643": 4593, "\u0625\u062b\u0631": 4594, "\u0644\u0627\u0628\u062f": 4595, "##\u062d\u0631\u0643": 4596, "\u0635\u062d\u0629": 4597, "\u0645\u062f\u0629": 4598, "\u0628\u064a\u0646\u0647\u0645\u0627": 4599, "\u0627\u0644\u062c\u0646\u0633\u064a\u0629": 4600, "\u0628\u062a\u0633": 4601, "\u0627\u0644\u0623\u0633\u0631": 4602, "\u0627\u0644\u0645\u0643\u062a": 4603, "\u0648\u062a\u0637\u0648\u064a\u0631": 4604, "\u0648\u0642\u062f\u0645": 4605, "\u0627\u0644\u0639\u062f\u062f": 4606, "\u0627\u0644\u0635\u0631\u0627\u0639": 4607, "\u062a\u0634\u0645\u0644": 4608, "\u0627\u0644\u0646\u0647\u0627\u064a\u0629": 4609, "##\u0648\u0642\u0648\u0641": 4610, "\u0627\u0644\u0627\u062a\u0635\u0627\u0644": 4611, "\u0645\u062b\u0644\u0627": 4612, "\u0631\u0633\u0645\u064a\u0627": 4613, "\u0645\u064a\u0634": 4614, "##\u0648\u064a\u0633": 4615, "\u0627\u0637\u0627\u0631": 4616, "##\u0627\u062f\u0627": 4617, "\u0627\u0644\u0642\u0637\u0627\u0639\u0627\u062a": 4618, "\u0627\u0633\u062a\u0637\u0627\u0639": 4619, "\u0648\u0623\u0634\u0627\u0631\u062a": 4620, "##\u0633\u0628\u0627\u0646\u064a\u0627": 4621, "##\u064a\u0646\u0627\u0621": 4622, "\u064a\u062d\u0627\u0648\u0644": 4623, "\u0627\u0644\u0633\u0641\u0631": 4624, "##\u0628\u064a\u064a\u0646": 4625, "\u0627\u0644\u0627\u0631\u0628\u0639": 4626, "\u062f\u0639\u0648\u0629": 4627, "\u0627\u0644\u0627\u0633\u062a\u0642\u0631\u0627\u0631": 4628, "\u0645\u0633\u0644\u0633\u0644": 4629, "\u0623\u0645\u0631\u064a\u0643\u0627": 4630, "\u0641\u0626\u0629": 4631, "\u0627\u0644\u0627\u0645\u0631\u064a": 4632, "\u0645\u0643\u0629": 4633, "195": 4634, "##\u0632\u064a\u0644\u064a": 4635, "##\u062d\u062a\u0647": 4636, "\u0627\u0644\u0646\u062c\u0627\u062d": 4637, "\u0645\u0633\u0627\u062d\u0629": 4638, "##\u0644\u0645\u0627\u0646\u064a\u0629": 4639, "\u0627\u0644\u062a\u0635\u0648\u064a\u062a": 4640, "\u0627\u0644\u0646\u062f": 4641, "\u0645\u0639\u064a\u0646\u0629": 4642, "##\u0626\u0646\u0627\u0641": 4643, "\u0628\u0642\u0648\u0629": 4644, "\u0627\u0644\u0633\u0644\u0627\u062d": 4645, "##\u0643\u0646\u0648\u0644\u0648\u062c\u064a\u0627": 4646, "##\u0646\u0627\u0626\u064a": 4647, "\u0645\u0631\u0648": 4648, "##\u0648\u0627\u0626\u0644": 4649, "\u0636\u0645": 4650, "\u062c\u0647\u062a\u0647": 4651, "##\u0628\u0627\u0647": 4652, "\u0627\u0644\u0634\u0631\u0639\u064a\u0629": 4653, "##\u062c\u0645\u0639\u064a\u0629": 4654, "##\u0643\u0644\u064a": 4655, "\u0627\u0644\u0645\u062a\u0637": 4656, "##\u0645\u0627\u0644\u0643": 4657, "\u0627\u0644\u0631\u064a\u0627\u0636\u0629": 4658, "##\u0647\u0644\u064a": 4659, "##\u0627\u0646\u0627\u062a": 4660, "\u064a\u0628\u062f\u0623": 4661, "\u0627\u0644\u062d\u062f\u064a\u062f": 4662, "\u0641\u0627\u0631": 4663, "##\u0639\u062f\u0627\u0645": 4664, "\u0634\u0639\u0627\u0631": 4665, "\u064a\u0648\u0631\u0648": 4666, "\u0639\u0645\u0627\u0646": 4667, "\u0646\u062c\u062f": 4668, "##\u0636\u0627\u0629": 4669, "##\u062b\u0628\u062a": 4670, "\u0627\u0644\u062d\u0627\u0644\u0627\u062a": 4671, "\u0642\u0631\u064a\u0628\u0627": 4672, "\u0646\u062c\u0645": 4673, "##\u0647\u0644\u0629": 4674, "\u0627\u0644\u0642\u0631\u0627\u0631\u0627\u062a": 4675, "\u0627\u0644\u0623\u0633\u0639\u0627\u0631": 4676, "\u0628\u0636": 4677, "\u062a\u0624\u0643\u062f": 4678, "##\u0643\u0648\u064a\u0646": 4679, "\u0627\u0644\u0645\u0644\u0639\u0628": 4680, "##\u0637\u0628\u064a\u0642": 4681, "\u062d\u0627\u0648\u0644": 4682, "\u0644\u0644\u064a": 4683, "\u0645\u0648\u0627\u0642\u0641": 4684, "\u0646\u0627\u062c": 4685, "\u0627\u0644\u0645\u0631\u0629": 4686, "\u064a\u0636\u0645": 4687, "##\u0628\u0648": 4688, "\u0627\u0644\u0641\u0631\u062f": 4689, "\u0627\u0644\u062f\u0648\u0644\u0649": 4690, "\u0634\u0628\u0647": 4691, "\u062c\u0628": 4692, "##\u064a\u064a\u0631": 4693, "##\u062d\u0627\u0645": 4694, "\u0648\u0633\u0644\u0645": 4695, "\u0627\u0644\u0632\u0631\u0627\u0639\u064a\u0629": 4696, "\u062a\u062d\u0648\u0644": 4697, "\u0627\u0644\u0623\u0628\u064a\u0636": 4698, "##\u0641\u064a\u0636": 4699, "\u0645\u0634\u062f": 4700, "##\u064a\u0627\u062f": 4701, "\u0627\u0644\u0643\u0644\u0627\u0645": 4702, "\u064a\u0637": 4703, "\u0627\u0644\u0628\u0631\u064a\u0637\u0627\u0646\u064a": 4704, "\u0627\u0644\u0623\u0639\u0636\u0627\u0621": 4705, "\u0627\u0639\u0644\u0646": 4706, "\u0645\u0633\u0628": 4707, "##\u062c\u064a\u0629": 4708, "##\u0648\u0627\u0647": 4709, "\u0627\u0644\u0639\u062f\u0627\u0644\u0629": 4710, "\u062a\u0631\u0628": 4711, "\u063a\u062f": 4712, "\u0627\u0644\u062e\u064a\u0631": 4713, "\u0631\u0624\u064a\u0629": 4714, "##\u0648\u0644\u0627\u064a\u0629": 4715, "##\u0623\u0643\u064a\u062f": 4716, "34": 4717, "##\u0632\u064a\u0645\u0629": 4718, "##\u0639\u0645\u0644": 4719, "##\u062d\u0644\u0629": 4720, "##\u0628\u0644\u0648\u0645\u0627\u0633\u064a\u0629": 4721, "\u062a\u062f\u0631\u064a\u0628": 4722, "\u062d\u0648\u0627\u0644\u0649": 4723, "##\u0643\u0645\u0644": 4724, "\u062a\u0633\u0639\u0649": 4725, "\u0627\u0644\u062d\u0635": 4726, "\u0627\u0644\u0633\u0627\u062f\u0633": 4727, "\u0631\u0639\u0627\u064a\u0629": 4728, "\u0648\u0627\u0642\u0639": 4729, "\u0634\u0639\u0631": 4730, "\u0645\u062d\u0644": 4731, "##\u0627\u0644\u062c": 4732, "\u0627\u0644\u062a\u0623\u0645\u064a\u0646": 4733, "\u0645\u0628\u0646\u0649": 4734, "\u0634\u0627\u0647\u062f": 4735, "\u064a\u0648\u0627\u062c\u0647": 4736, "\u0627\u0644\u0632\u0645\u0627\u0644\u0643": 4737, "\u0623\u0635\u0644": 4738, "\u0648\u0644\u0647": 4739, "\u0627\u0644\u0628\u0631\u062a": 4740, "42": 4741, "##\u062a\u064a\u0634": 4742, "\u0627\u0644\u0645\u0631\u0643\u0632\u064a\u0629": 4743, "##\u0633\u064a\u0645\u0627": 4744, "\u062f\u0627\u0639\u0634": 4745, "300": 4746, "\u064a\u0639\u062a\u0642\u062f": 4747, "\u0644\u063a": 4748, "\u0644\u062f\u064a\u0647\u0645": 4749, "\u0627\u0644\u0645\u0647\u0645": 4750, "##\u0644\u0627\u0639": 4751, "\u0627\u0644\u062d\u0636\u0648\u0631": 4752, "\u0631\u0633\u0645\u064a\u0629": 4753, "\u0627\u0644\u0645\u0633\u0624\u0648\u0644\u064a\u0629": 4754, "\u0645\u062c\u062f\u062f\u0627": 4755, "##\u0631\u0648\u0641\u0629": 4756, "\u0627\u0644\u0645\u0648\u0633\u064a": 4757, "\u0627\u0644\u0634\u0627\u0628": 4758, "##\u0631\u0627\u0643\u0629": 4759, "\u0627\u0644\u0639\u0642\u0627\u0631\u064a\u0629": 4760, "\u0628\u0634\u0627\u0631": 4761, "\u0627\u0644\u062c\u0628": 4762, "\u0637\u0647\u0631\u0627\u0646": 4763, "##\u0649\u0621": 4764, "\u062a\u0647\u062f\u0641": 4765, "\u0639\u0627\u062f\u0629": 4766, "##\u0633\u0639": 4767, "\u0623\u0645\u0646\u064a\u0629": 4768, "##\u062c\u062a\u0645\u0639\u0627\u062a": 4769, "##\u0627\u0648\u0644": 4770, "\u0625\u0633\u0644\u0627\u0645": 4771, "\u0623\u0635\u062f\u0631": 4772, "\u0627\u0644\u0633\u064a\u0627\u062d\u064a\u0629": 4773, "\u0627\u0644\u0641\u0646\u0649": 4774, "\u0645\u0645\u0643\u0646": 4775, "\u0634\u0631\u0641": 4776, "\u0644\u0645\u0633": 4777, "##\u0648\u0646\u0627\u062a": 4778, "\u0628\u0627\u0644\u063a": 4779, "\u0644\u064a\u0646": 4780, "\u062a\u0628\u0642\u0649": 4781, "\u0627\u0644\u0643\u0646": 4782, "##\u0643\u0627\u0628": 4783, "75": 4784, "##\u0642\u0627\u0641\u064a\u0629": 4785, "##\u0648\u0644\u064a\u062f": 4786, "##\u0645\u0627\u0633": 4787, "\u0627\u0644\u062e\u0637\u0629": 4788, "\u064a\u062d\u0642\u0642": 4789, "##\u0635\u0631\u064a\u0629": 4790, "\u0638\u0631\u0648\u0641": 4791, "\u0633\u0627\u0647\u0645": 4792, "\u0623\u0636\u0627\u0641": 4793, "\u0627\u0644\u062f\u0633\u062a\u0648\u0631\u064a\u0629": 4794, "\u0639\u0645\u0631\u0648": 4795, "\u0627\u0644\u0645\u0631\u0634\u062d\u064a\u0646": 4796, "##\u062b\u064a": 4797, "\u0627\u0639\u0636\u0627\u0621": 4798, "\u0623\u064a\u0646": 4799, "\u0627\u0644\u062a\u064a\u0627\u0631": 4800, "\u0648\u064a\u062a\u0645": 4801, "\u0627\u0642": 4802, "\u062d\u0627\u062c": 4803, "##\u0628\u064a\u0639\u0627\u062a": 4804, "\u0645\u062c\u0627\u0644\u0627\u062a": 4805, "\u0643\u0623": 4806, "\u0645\u0637\u0644\u0639": 4807, "##\u0627\u0631\u064a\u0627": 4808, "\u0627\u0644\u0645\u0642\u0631": 4809, "##\u0628\u0644\u062f": 4810, "\u0627\u0644\u0637\u064a\u0631\u0627\u0646": 4811, "\u0627\u062a\u062e\u0630": 4812, "\u0627\u0644\u0628\u0627": 4813, "\u0627\u0644\u0645\u0648\u0627\u0642\u0639": 4814, "\u0628\u0633\u0631\u0639\u0629": 4815, "\u0627\u0644\u0623\u0646\u062f\u064a\u0629": 4816, "##\u0646\u0648\u0646": 4817, "\u0639\u0642\u0648\u062f": 4818, "\u0645\u0627\u062f\u0629": 4819, "\u0627\u0644\u0627\u062e\u0631\u0649": 4820, "\u0627\u0644\u0645\u0628\u0627\u062f\u0631\u0629": 4821, "##\u0627\u0644\u062d\u0629": 4822, "\u0627\u0644\u0645\u0630\u0643": 4823, "\u0631\u0623\u064a": 4824, "\u0643\u0627\u0645\u0644\u0629": 4825, "\u0627\u0644\u0623\u0645\u0648\u0627\u0644": 4826, "48": 4827, "\u0643\u064a\u0641\u064a\u0629": 4828, "\u0648\u0648\u0641": 4829, "##\u062d\u0637": 4830, "##\u0646\u062f\u0627\u062a": 4831, "##\u0642\u0631\u0629": 4832, "\u0627\u0644\u0645\u0634\u0627\u0643\u0644": 4833, "\u0627\u0644\u0645\u0633\u062a\u062b\u0645\u0631\u064a\u0646": 4834, "\u0623\u0637\u0641\u0627\u0644": 4835, "\u0639\u0631\u0628": 4836, "##\u0627\u0644\u064a\u0628": 4837, "\u0644\u0644\u0631\u0626\u064a\u0633": 4838, "\u0627\u0644\u0625\u0641": 4839, "##\u064a\u0644\u0649": 4840, "\u062a\u0639\u0627\u0648\u0646": 4841, "\u0648\u0627\u0644\u0632": 4842, "##\u062e\u064a\u0631": 4843, "##\u0642\u0627\u0637\u0639\u0629": 4844, "\u0627\u0644\u0642\u0648\u0627\u0646\u064a\u0646": 4845, "\u0627\u0644\u062c\u0645\u0639": 4846, "\u0627\u0644\u0645\u062a\u0647\u0645\u064a\u0646": 4847, "\u062c\u064a\u062f": 4848, "\u0623\u0639\u062f": 4849, "\u0627\u0644\u0625\u062f\u0627\u0631\u064a\u0629": 4850, "\u0627\u0644\u0625\u064a\u0631\u0627\u0646\u064a": 4851, "\u0631\u0627\u0628": 4852, "\u0644\u0644\u0641\u0631\u064a\u0642": 4853, "##on": 4854, "\u0627\u0644\u0630\u0647": 4855, "\u062e\u0644\u0627\u0644\u0647": 4856, "\u0627\u0644\u0628\u0639": 4857, "\u0627\u0644\u0645\u062a\u0646": 4858, "\u062c\u0632\u0621\u0627": 4859, "\u0627\u0644\u0623\u0643\u0628\u0631": 4860, "\u0637\u0631\u0627\u0628\u0644\u0633": 4861, "\u062b\u0642\u0627\u0641\u0629": 4862, "\u0646\u0646": 4863, "\u062f\u0648\u0644\u064a\u0629": 4864, "\u0628\u0648\u0627\u0633\u0637\u0629": 4865, "\u0627\u0644\u0646\u0638": 4866, "\u0634\u0646": 4867, "\u0633\u0645\u064a\u0631": 4868, "\u064a\u062a\u062d\u062f\u062b": 4869, "\u0644\u062a\u0634": 4870, "##\u0635\u0645": 4871, "\u0639\u0634": 4872, "\u0627\u0644\u062b\u0627\u0646\u0648\u064a\u0629": 4873, "\u0627\u0644\u0645\u0648\u062c\u0648\u062f\u0629": 4874, "\u0627\u0644\u0647\u064a": 4875, "\u0627\u0644\u062a\u0646\u0641\u064a\u0630\u064a\u0629": 4876, "##\u0648\u062f\u064a": 4877, "\u0645\u0645\u062b": 4878, "\u0645\u0642\u062f": 4879, "\u0645\u062a\u0623": 4880, "\u0627\u0644\u0639\u0645\u0648\u0645\u064a\u0629": 4881, "\u0623\u0637\u0644\u0642": 4882, "##\u0641\u0627\u0621\u0629": 4883, "\u0627\u0644\u0645\u0646\u0632\u0644": 4884, "\u0648\u062a\u0633\u062a": 4885, "\u062d\u0627\u062f\u062b": 4886, "\u0627\u062a\u0647": 4887, "\u062a\u0638\u0647\u0631": 4888, "\u062f\u0633\u062a": 4889, "##\u0642\u0627\u0648\u0645\u0629": 4890, "\u0627\u0644\u0627\u0646\u062a\u0642": 4891, "##\u062e\u0627\u0644": 4892, "##\u0647\u0629": 4893, "##\u0647\u062f\u0627\u0621": 4894, "2003": 4895, "\u0644\u0623\u0648\u0644": 4896, "\u0639\u0645\u0644\u0647": 4897, "\u0628\u0627\u0644\u0635": 4898, "\u0644\u062c\u0645\u064a\u0639": 4899, "\u0648\u0627\u0628": 4900, "\u062d\u0631\u064a\u0629": 4901, "\u0627\u0644\u0634\u0623\u0646": 4902, "\u0627\u0644\u062e\u0644\u064a\u062c\u064a\u0629": 4903, "\u064a\u0644\u0639\u0628": 4904, "##\u0623\u0645\u064a\u0646": 4905, "\u0627\u062a\u0641\u0627\u0642\u064a\u0629": 4906, "\u0648\u062f\u0639\u0645": 4907, "\u062c\u062f\u064a\u062f\u0627": 4908, "\u0627\u0644\u0648\u0643\u0627\u0644\u0629": 4909, "\u0631\u0627\u0641": 4910, "\u0623\u0631\u062f": 4911, "\u0645\u062a\u0648\u0633\u0637": 4912, "\u062a\u0648\u0642\u0641": 4913, "\u0623\u063a\u0633\u0637\u0633": 4914, "\u0627\u0644\u062c\u0648": 4915, "\u0627\u0644\u0642\u0627\u0626\u0645": 4916, "\u0648\u0627\u0636\u062d": 4917, "##\u0624\u0627\u062f": 4918, "\u0627\u0644\u0634\u0647\u064a\u062f": 4919, "\u0645\u0633\u0627\u0628\u0642\u0629": 4920, "##\u062a\u064a\u062d": 4921, "\u062e\u0644\u064a\u0644": 4922, "\u0644\u0644\u0627\u062a\u062d\u0627\u062f": 4923, "##\u0648\u0627\u0646\u0628": 4924, "\u0627\u0644\u0645\u062a\u0648\u0633\u0637": 4925, "##\u0642\u0644\u064a\u0646": 4926, "\u0627\u0644\u0645\u0639\u0627\u0631\u0636": 4927, "\u0648\u0642\u0627\u0645": 4928, "\u0648\u0627\u0644\u0627\u0642\u062a\u0635\u0627\u062f": 4929, "\u0627\u0644\u062f\u0639": 4930, "\u0641\u0625": 4931, "\u0642\u0636": 4932, "##\u062e\u064a\u0644": 4933, "\u0627\u0644\u062a\u062d\u0642\u064a\u0642\u0627\u062a": 4934, "\u0644\u062a\u0642\u062f\u064a\u0645": 4935, "\u0646\u0647\u0627\u0626": 4936, "\u0643\u0644\u0647\u0627": 4937, "\u064a\u0633\u0645\u062d": 4938, "\u062a\u062a\u0639\u0644\u0642": 4939, "##\u0632\u0632": 4940, "\u0642\u062f\u0645\u062a": 4941, "\u0627\u0644\u0627\u0639\u0645\u0627\u0644": 4942, "\u0648\u0627\u062e\u062a": 4943, "37": 4944, "\u0627\u0644\u0639\u062a\u064a": 4945, "\u0628\u0631\u0633": 4946, "##\u062f\u0631\u0633": 4947, "\u0627\u0644\u0645\u0648\u062a": 4948, "\u0634\u0627\u0631\u0639": 4949, "\u0637\u0627\u0626\u0631\u0629": 4950, "##\u0627\u0626\u062d\u0629": 4951, "##\u062a\u0627\u0646": 4952, "##\u0648\u0627\u0626\u064a\u0629": 4953, "\u0627\u0644\u062a\u0645\u0648\u064a\u0644": 4954, "\u062a\u0639\u0644\u064a\u0642": 4955, "##\u0631\u0648\u064a": 4956, "\u0633\u0644\u0627\u0645\u0629": 4957, "\u0627\u0644\u062f\u0643\u062a": 4958, "\u0631\u0635\u064a\u062f": 4959, "##\u0643\u0627\u0641\u062d\u0629": 4960, "##\u0644\u0627\u0642\u0627\u062a": 4961, "\u0627\u0644\u0637\u0628\u064a\u0639\u064a": 4962, "##\u0635\u064a\u0628": 4963, "##\u0631\u0627\u0639\u0629": 4964, "##\u0633\u0627\u0646\u064a": 4965, "\u0627\u0644\u0645\u0642\u062f\u0645\u0629": 4966, "\u0644\u0639\u0627\u0645": 4967, "##\u0627\u0626\u0631\u064a": 4968, "\u0644\u0634\u0631\u0643\u0629": 4969, "\u0648\u062a\u0631\u0643": 4970, "\u064a\u0641\u062a": 4971, "\u0628\u0627\u0646\u062a": 4972, "##\u0642\u0635\u0649": 4973, "\u0627\u0644\u0623\u0648\u0636\u0627\u0639": 4974, "\u062a\u064a": 4975, "##\u0627\u0645\u0628": 4976, "##\u0638\u0649": 4977, "##\u0643\u0627\u0646\u064a": 4978, "\u0627\u0644\u0632\u0648\u0627\u062c": 4979, "##\u0648\u0627\u0626\u0631": 4980, "\u0627\u0636\u0627\u0641": 4981, "\u0627\u0644\u062f\u0627\u0626\u0631\u0629": 4982, "38": 4983, "\u0648\u0646\u0642\u0644\u062a": 4984, "\u0647\u0648\u0644": 4985, "\u0637\u0641": 4986, "\u062a\u0623\u0645\u064a\u0646": 4987, "\u0627\u0644\u0633\u0624\u0627\u0644": 4988, "\u062a\u0631\u0649": 4989, "\u0627\u0644\u0623\u0644\u0645\u0627\u0646\u064a": 4990, "\u0638\u0647\u0648\u0631": 4991, "\u062a\u0633\u0628\u0628": 4992, "\u0628\u0636\u0631\u0648\u0631\u0629": 4993, "\u0627\u0644\u0623\u0637\u0631\u0627\u0641": 4994, "\u0627\u0644\u062a\u0648\u0627\u0644\u064a": 4995, "\u064a\u0638\u0647\u0631": 4996, "\u0644\u0631\u0626\u064a\u0633": 4997, "\u0627\u0644\u0645\u0645\u0643\u0646": 4998, "\u0645\u0633\u0626\u0648\u0644": 4999, "\u0627\u0644\u0628\u0644\u062f\u0627\u0646": 5000, "##\u0639\u062f\u0629": 5001, "\u062a\u0634\u064a\u0631": 5002, "\u0633\u062a\u062a": 5003, "##\u0648\u0641\u064a": 5004, "##\u0628\u0627\u0643\u0627\u062a": 5005, "\u0627\u0644\u0646\u0641\u0633": 5006, "##\u0644\u0642\u0649": 5007, "\u0627\u0644\u062a\u0648\u0635\u0644": 5008, "\u0630\u0647": 5009, "\u062e\u0637\u0631": 5010, "\u0628\u0645\u0634\u0627\u0631\u0643\u0629": 5011, "\u062c\u0631": 5012, "##\u0631\u062c\u0627\u062a": 5013, "\u0627\u0646\u0647\u0645": 5014, "\u0641\u0634\u0644": 5015, "\u0623\u0642\u064a\u0645": 5016, "\u0633\u0627\u0646": 5017, "\u0627\u0644\u0645\u0643\u0631\u0645\u0629": 5018, "\u0627\u0644\u0631\u0626\u0627\u0633\u064a\u0629": 5019, "\u0627\u0644\u0645\u0648\u0638\u0641\u064a\u0646": 5020, "\u0645\u0642\u062f\u0645": 5021, "\u0627\u0644\u062a\u062f\u062e\u0644": 5022, "##\u062e\u0631\u0627\u062c": 5023, "\u0648\u064a\u0623": 5024, "\u062a\u0639\u064a\u0634": 5025, "\u0627\u0644\u0644\u0642\u0628": 5026, "##\u0641\u0627\u062a": 5027, "\u0645\u064a\u0631": 5028, "\u0627\u0644\u062a\u062d\u0627\u0644\u0641": 5029, "\u0645\u0646\u0633": 5030, "\u0627\u0644\u0646\u0627\u062e\u0628": 5031, "##\u0634\u0644\u0648\u0646\u0629": 5032, "\u0648\u0627\u0648\u0636\u062d": 5033, "\u0644\u0644\u062b": 5034, "\u0648\u062a\u0631": 5035, "\u0645\u0646\u0632": 5036, "##in": 5037, "##\u0648\u0631\u064a\u0646": 5038, "\u0628\u0634\u0631": 5039, "\u0648\u0637\u0646\u064a\u0629": 5040, "##\u0646\u0627\u062f\u064a": 5041, "\u0644\u0623\u064a": 5042, "##\u0646\u0627\u0633": 5043, "##\u0648\u0627\u0626\u062f": 5044, "\u064a\u0633\u0639\u0649": 5045, "\u0627\u0644\u062d\u0627\u062c\u0629": 5046, "\u0645\u0648\u0638\u0641": 5047, "\u0627\u0644\u0627\u0648\u0631\u0648\u0628\u064a": 5048, "##\u0647\u0627\u062a": 5049, "\u0638\u0627\u0647\u0631\u0629": 5050, "##\u0639\u0644\u0648\u0645": 5051, "##\u0631\u0627\u0644": 5052, "\u0648\u0628\u0646": 5053, "\u0627\u0644\u062a\u0631\u0627\u062b": 5054, "\u0627\u0644\u0623\u0631": 5055, "##\u0646\u0627\u0632\u0644": 5056, "\u0627\u0644\u0643\u0631": 5057, "\u062d\u0635\u0644\u062a": 5058, "\u0639\u064a\u0633\u0649": 5059, "\u0648\u062e\u0635\u0648\u0635": 5060, "\u0648\u0631\u0641\u0639": 5061, "\u0631\u0641\u064a\u0642": 5062, "\u0627\u0644\u0627\u0639\u062a\u062f\u0627\u0621": 5063, "\u0645\u062f\u0627\u0631": 5064, "\u0627\u0644\u062d\u0641\u0627\u0638": 5065, "\u064a\u0628\u0642\u0649": 5066, "\u0627\u0644\u0642\u0627\u0636\u064a": 5067, "##\u0648\u0645\u064a": 5068, "\u0627\u0644\u062e\u0636": 5069, "\u0644\u0644\u063a\u0627\u064a\u0629": 5070, "\u0627\u0644\u0634\u0639\u0628\u064a": 5071, "\u0628\u0639\u0636\u0647\u0645": 5072, "\u0645\u0648\u0627\u062f": 5073, "\u062a\u0646\u0645\u064a\u0629": 5074, "\u0627\u0644\u062e\u064a\u0631\u064a\u0629": 5075, "\u0627\u0644\u062a\u0627\u0631\u064a\u062e\u064a\u0629": 5076, "##\u0630\u0627\u0639\u0629": 5077, "\u0625\u0634": 5078, "\u0627\u0633\u0645\u0647": 5079, "\u0627\u0644\u0633\u062c\u0646": 5080, "\u064a\u0637\u0627\u0644\u0628": 5081, "##\u064a\u0646\u0627\u062a": 5082, "\u0648\u0628\u0645": 5083, "\u0648\u0644\u0630\u0644\u0643": 5084, "\u0648\u0623\u0643\u062f\u062a": 5085, "\u0627\u0644\u0646\u062a\u064a\u062c\u0629": 5086, "##\u0627\u0631\u064a\u0648": 5087, "\u0627\u0644\u0645\u0645\u062a": 5088, "\u0627\u0644\u0625\u0646\u062c\u0644\u064a": 5089, "##\u0646\u0627\u0642\u0634\u0629": 5090, "\u0642\u0646": 5091, "\u0635\u062d\u064a\u062d": 5092, "##\u0638\u0647\u0631\u062a": 5093, "\u0633\u0644\u0627\u062d": 5094, "##\u062b\u0627\u0644": 5095, "##\u0631\u0627\u0648\u062d": 5096, "\u0627\u0644\u0645\u0633\u0644": 5097, "\u0639\u0627\u0645\u0644": 5098, "\u0627\u0644\u0635\u0639\u064a\u062f": 5099, "\u0637\u0631\u0641": 5100, "\u0628\u0627\u0633\u062a\u062e\u062f\u0627\u0645": 5101, "##\u0635\u0627\u062a": 5102, "##\u0635\u0631\u0629": 5103, "\u0627\u0646\u062a\u0647\u062a": 5104, "\u0627\u0644\u0639\u0633\u0643\u0631": 5105, "##\u0628\u062f\u0627\u0639": 5106, "##\u0642\u062f\u064a\u0631": 5107, "\u0648\u0642\u0631": 5108, "\u0645\u0634\u0627\u0631": 5109, "\u0627\u062a\u062c\u0627\u0647": 5110, "\u0627\u0644\u0633\u0627\u062f\u0633\u0629": 5111, "\u0627\u0644\u0645\u0631\u0627\u0643\u0632": 5112, "\u0627\u062a\u0635\u0627\u0644": 5113, "\u0628\u0641\u0636\u0644": 5114, "\u0645\u0639\u0647\u062f": 5115, "\u064a\u0646\u062a\u0638\u0631": 5116, "##\u0635\u0641\u0627\u062a": 5117, "\u0627\u0641\u0636\u0644": 5118, "\u0648\u0627\u0644\u0627\u062c\u062a\u0645\u0627\u0639\u064a\u0629": 5119, "\u0645\u0642\u0628": 5120, "\u062f\u0641\u0627\u0639": 5121, "##\u0637\u062d": 5122, "##\u062f\u064a\u0646": 5123, "##\u0637\u0628\u0642": 5124, "\u0627\u0646\u062e\u0641\u0627\u0636": 5125, "\u0641\u0631\u0627\u0646\u0633": 5126, "\u0627\u0644\u0642\u0630": 5127, "\u0634\u062f\u064a\u062f": 5128, "\u062a\u0648\u0627\u0635\u0644": 5129, "\u062a\u0639\u062a": 5130, "##\u0631\u0627\u0641\u064a": 5131, "\u0627\u0644\u0631\u062f": 5132, "\u0644\u0644\u0645\u0631": 5133, "\u0627\u0644\u062e\u0633": 5134, "\u0644\u0644\u0628\u0646": 5135, "##\u0630\u0627\u062a": 5136, "\u064a\u062e\u062a": 5137, "##\u0648\u064a\u0647": 5138, "\u062d\u0638": 5139, "\u0627\u0644\u0634\u0648\u0631\u0649": 5140, "\u0627\u0644\u064a\u0627\u0628\u0627\u0646": 5141, "\u0627\u0644\u0631\u0634": 5142, "\u0642\u062f\u0631\u0629": 5143, "\u0627\u0644\u0637\u0644\u0628\u0629": 5144, "\u0648\u0627\u062d\u062f\u0627": 5145, "\u0648\u062a\u0642\u062f\u064a\u0645": 5146, "\u064a\u0646\u0628\u063a\u064a": 5147, "\u062c\u0627\u0647": 5148, "\u0625\u0628": 5149, "\u062a\u062c\u062f": 5150, "\u0627\u0644\u0637\u0628\u064a\u0639\u064a\u0629": 5151, "\u0639\u0633": 5152, "\u0627\u0644\u0648\u062c": 5153, "\u0634\u0631\u064a": 5154, "##\u064a\u062f\u0631": 5155, "\u0627\u0644\u0623\u062d\u0632\u0627\u0628": 5156, "\u0627\u0644\u0645\u0633\u0644\u0633\u0644": 5157, "\u062a\u0633\u0644\u064a\u0645": 5158, "\u064a\u0642\u062a": 5159, "\u0635\u0628\u0627": 5160, "\u0648\u0642\u0648\u0639": 5161, "\u0627\u0644\u0645\u0628\u0627\u0631\u0643": 5162, "\u0625\u0635\u0627\u0628\u0629": 5163, "\u0641\u0647\u0644": 5164, "\u0646\u0631\u064a\u062f": 5165, "\u062a\u0635\u0648\u064a\u0631": 5166, "\u0648\u0645\u0624": 5167, "##\u0647\u0644\u0627\u0643": 5168, "\u0627\u0644\u0645\u062a\u0638\u0627\u0647\u0631\u064a\u0646": 5169, "\u0627\u0644\u0632\u0648\u062c": 5170, "\u0623\u0633\u0645\u0627\u0621": 5171, "\u062d\u064a\u0627\u062a\u0647": 5172, "##\u062d\u062f\u064a\u062b": 5173, "\u0627\u0644\u0645\u0633\u062c\u062f": 5174, "\u0644\u0644\u062d\u0635\u0648\u0644": 5175, "\u0627\u0644\u0639\u0631\u0628\u0649": 5176, "##\u0636\u0631\u0627\u0631": 5177, "\u0644\u0644\u0627\u0646": 5178, "\u0623\u0633\u0631\u0629": 5179, "##\u0646\u0627\u0633\u0628": 5180, "##\u0637\u0646\u0629": 5181, "\u062e\u0637\u0637": 5182, "\u0645\u062c\u0644\u0629": 5183, "\u0627\u0644\u062b\u0627\u0646\u0649": 5184, "##\u0646\u0627\u062f\u064a\u0642": 5185, "##\u0638\u0627\u0647\u0631\u0629": 5186, "\u0627\u0644\u064a\u0633": 5187, "\u0645\u0633\u062a\u0648\u064a\u0627\u062a": 5188, "\u0627\u0644\u0625\u0635\u0644\u0627\u062d": 5189, "\u0627\u0644\u062c\u0647\u0629": 5190, "\u0627\u0644\u0627\u0633\u062a\u062b\u0645\u0627\u0631\u0627\u062a": 5191, "##\u0631\u062c\u0639": 5192, "##\u062d\u062f\u0627\u062a": 5193, "\u0646\u0641\u0630": 5194, "\u0639\u0644\u0627\u0645": 5195, "\u0627\u0644\u0643\u0634\u0641": 5196, "\u0627\u0644\u062a\u0642\u0646\u064a\u0629": 5197, "\u0627\u0644\u0636\u0641\u0629": 5198, "##\u0627\u0631\u064a\u0646": 5199, "\u0646\u062c\u062d": 5200, "##\u062f\u062f\u062a": 5201, "\u0648\u0623\u062d": 5202, "##\u0630\u064a\u0646": 5203, "\u0623\u0645\u0648\u0627\u0644": 5204, "\u0633\u064a\u0644": 5205, "\u0627\u0644\u062e\u0644\u064a\u062c\u064a": 5206, "\u0627\u0644\u0644\u0627\u062c\u0626\u064a\u0646": 5207, "##\u063a\u062a": 5208, "\u0628\u0645\u062f": 5209, "\u064a\u0639\u0627\u0646\u064a": 5210, "\u0627\u0644\u0642\u0648\u0645\u064a": 5211, "\u0643\u0631\u064a": 5212, "\u0627\u0644\u0639\u0644\u0645\u0627\u0621": 5213, "##\u0633\u0641": 5214, "\u0643\u0644\u0647": 5215, "##\u0632\u0646\u0629": 5216, "##\u0648\u0639\u064a": 5217, "\u0627\u0644\u0645\u0633\u0627\u0628\u0642\u0629": 5218, "\u0627\u0644\u0627\u0644\u0643\u062a\u0631": 5219, "\u0627\u0644\u0648\u0633": 5220, "\u0627\u0644\u0634\u0648\u0627\u0631\u0639": 5221, "\u0635\u062d\u0641\u064a": 5222, "\u0639\u0627\u0626\u0644\u0629": 5223, "\u0637\u0627\u0631\u0642": 5224, "\u062e\u0637\u0627\u0628": 5225, "\u0633\u064a\u0646\u0627\u0621": 5226, "##\u062f\u0645\u064a\u0631": 5227, "\u0628\u062c\u0627\u0645\u0639\u0629": 5228, "\u062a\u0637\u0648\u0631": 5229, "\u0631\u064a": 5230, "\u0641\u0642\u0627\u0644": 5231, "\u0632\u0627\u0644": 5232, "##\u0635\u062f\u0642": 5233, "\u0627\u0644\u0623\u0647\u0644\u0649": 5234, "\u0627\u0644\u0639\u0646\u0632\u064a": 5235, "##\u0647\u0648\u0644\u0629": 5236, "\u0635\u062f\u0648\u0631": 5237, "\u0641\u062d": 5238, "\u0644\u0644\u0635\u062d": 5239, "\u0644\u0628\u0639\u0636": 5240, "\u0627\u062d\u062f\u0649": 5241, "\u0642\u0627\u062f\u0629": 5242, "\u0648\u0642\u0628\u0644": 5243, "##\u0631\u0643\u0627\u0646": 5244, "\u0627\u0644\u0643\u0644\u064a\u0629": 5245, "\u0636\u0645\u0627\u0646": 5246, "##\u0630\u064a\u0628": 5247, "\u0645\u0627\u062a": 5248, "\u0646\u0637\u0627\u0642": 5249, "\u062a\u0633\u062a\u062e\u062f\u0645": 5250, "##\u064a\u0627\u062a\u0647": 5251, "\u0627\u0633\u062a\u062b\u0645": 5252, "##\u062d\u062a\u0647\u0627": 5253, "##\u062d\u0644\u0627\u062a": 5254, "##\u064a\u0631\u0648": 5255, "\u0627\u0644\u0636\u063a\u0637": 5256, "\u0627\u0644\u0645\u0627\u0621": 5257, "\u0628\u0627\u0631\u0627\u0643": 5258, "\u062c\u0645\u0627\u0647\u064a\u0631": 5259, "##\u0634\u064a\u0646": 5260, "\u0648\u062a\u0641": 5261, "\u0627\u0644\u0633\u064a\u0627\u0642": 5262, "65": 5263, "\u0628\u0631\u0627": 5264, "\u0627\u0644\u0639\u062f\u0648": 5265, "\u0627\u0644\u062d\u0627\u0643\u0645": 5266, "##\u0646\u0627\u0637\u0642": 5267, "\u0627\u0644\u0623\u0633\u0644\u062d\u0629": 5268, "\u0627\u0639\u0627\u062f\u0629": 5269, "\u0625\u0645\u0643\u0627\u0646\u064a\u0629": 5270, "\u062e\u0628\u0631": 5271, "\u0636\u0648\u0621": 5272, "\u062b\u0627\u0644\u062b": 5273, "\u0645\u0646\u0627\u0633\u0628\u0629": 5274, "\u0627\u0644\u062e\u0631\u0648\u062c": 5275, "\u0645\u0645\u0627\u0631\u0633\u0629": 5276, "##\u0647\u062f\u064a": 5277, "\u0643\u0634\u0641\u062a": 5278, "\u0627\u0644\u0633\u0643\u0646\u064a\u0629": 5279, "\u0627\u0645\u0631\u0623\u0629": 5280, "\u0627\u0644\u062f\u0645\u0627\u0645": 5281, "\u0641\u0624\u0627\u062f": 5282, "\u0641\u0631\u062f": 5283, "\u0636\u064a\u0641": 5284, "##\u0628\u0644\u0648\u0645\u0627\u0633\u064a": 5285, "\u0627\u0644\u0639\u0645\u064a\u062f": 5286, "##\u0627\u0646\u0627\u0629": 5287, "\u0628\u0623\u064a": 5288, "\u064a\u062f\u0641\u0639": 5289, "\u0627\u0644\u0642\u0633\u0645": 5290, "\u0627\u0644\u0627\u0646\u062a\u0631\u0646\u062a": 5291, "\u0648\u0627\u0644\u0639\u0634\u0631\u064a\u0646": 5292, "\u0645\u0648\u0638": 5293, "\u0631\u062d\u0644\u0629": 5294, "\u0625\u0635\u062f\u0627\u0631": 5295, "\u062f\u0648\u0631\u0627": 5296, "\u0642\u0635\u0629": 5297, "\u062e\u0644\u0642": 5298, "\u0627\u0644\u0645\u0648\u0627\u0631\u062f": 5299, "\u0637\u0648\u0644": 5300, "\u062a\u0628\u064a\u0646": 5301, "##\u0644\u0627\u0642\u0629": 5302, "\u0639\u0644\u0627\u062c": 5303, "\u0631\u0642": 5304, "\u0627\u0644\u0645\u0631\u0648\u0631": 5305, "\u0648\u0627\u0644\u0645\u0634": 5306, "\u0627\u0644\u0627\u0645\u0627\u0631\u0627\u062a": 5307, "\u0630\u0648\u064a": 5308, "\u0639\u0648\u062f": 5309, "\u0645\u062a\u0639\u062f\u062f\u0629": 5310, "\u0627\u0633\u062a\u0646": 5311, "##an": 5312, "\u0627\u0644\u0646\u0647\u0636\u0629": 5313, "\u062a\u0643\u0631": 5314, "\u0627\u0644\u062c\u0633\u0645": 5315, "\u0642\u0648\u0644": 5316, "\u0627\u0644\u0642\u062f\u0631\u0629": 5317, "##\u062f\u064a\u0642\u0629": 5318, "\u064a\u062f\u062e\u0644": 5319, "\u0645\u0646\u0627\u0642\u0634\u0629": 5320, "\u0627\u0644\u0635\u0627\u062f\u0631": 5321, "##\u0636\u0631\u0628": 5322, "##\u0648\u062d\u064a\u062f": 5323, "\u062a\u0642\u0627\u0631\u064a\u0631": 5324, "\u0627\u0644\u062a\u0648\u0646\u0633\u064a": 5325, "##\u062f\u0648\u0646": 5326, "##\u0631\u062c\u0645\u0629": 5327, "\u0627\u0644\u0639\u0642\u0627\u0631\u064a": 5328, "\u0627\u0644\u0627\u0645\u0645": 5329, "\u0627\u0645\u0646": 5330, "\u062a\u0645\u0648\u064a\u0644": 5331, "\u0633\u0642\u0637": 5332, "\u0645\u0626\u0627\u062a": 5333, "\u0628\u0627\u062a\u062c\u0627\u0647": 5334, "\u0648\u062e\u0635\u0648\u0635\u0627": 5335, "##\u0632\u0648": 5336, "\u0627\u0644\u0637\u0631\u0641\u064a\u0646": 5337, "\u0645\u0648\u0633\u0643\u0648": 5338, "\u0627\u0644\u0627\u0646\u0641": 5339, "\u0627\u0644\u0631\u0642\u0627\u0628\u0629": 5340, "\u0623\u0633\u0631": 5341, "\u0627\u0644\u0623\u0631\u062f\u0646": 5342, "\u062a\u0648\u0627\u062c\u062f": 5343, "\u0627\u0644\u0625\u0633\u0643\u0646\u062f\u0631\u064a\u0629": 5344, "\u0627\u0644\u0645\u062e\u062f\u0631\u0627\u062a": 5345, "\u062c\u064a": 5346, "##\u062e\u0645\u0629": 5347, "##\u0644\u064a\u0648\u0646": 5348, "\u0627\u0644\u0627\u0644\u0645": 5349, "\u0627\u0644\u062a\u0627\u0628\u0639": 5350, "##\u062d\u0648\u062b": 5351, "\u0645\u0642\u062a": 5352, "\u062a\u0635\u062f\u0631": 5353, "\u0627\u0644\u0639\u0634\u0631\u064a\u0646": 5354, "44": 5355, "\u0627\u0644\u0639\u0627": 5356, "\u0623\u062b\u0631": 5357, "\u0648\u0628\u0627": 5358, "\u062a\u062d\u0633\u064a\u0646": 5359, "\u0627\u0644\u0628\u0627\u0628": 5360, "\u0627\u0644\u063a\u0631\u0641\u0629": 5361, "\u0627\u0644\u064a\u0647\u0627": 5362, "\u0634\u0631\u0648\u0637": 5363, "\u0627\u0644\u062a\u062c\u0631\u0628\u0629": 5364, "\u0627\u064a\u0627\u0645": 5365, "\u0641\u0627\u0639": 5366, "\u0645\u062f\u0627\u0631\u0633": 5367, "##\u0627\u0636\u0631\u0629": 5368, "\u0627\u0644\u0627\u0631\u0628\u0639\u0627\u0621": 5369, "\u064a\u0642\u0639": 5370, "##\u0646\u0627\u0626\u0628": 5371, "##\u0627\u0634\u0629": 5372, "\u0627\u0644\u0627\u0631\u062f": 5373, "\u0627\u0644\u0627\u0635": 5374, "\u0634\u0647\u0627\u062f\u0629": 5375, "\u0627\u0644\u0635\u0646\u0627\u0639\u0629": 5376, "\u064a\u0628\u062d\u062b": 5377, "\u0627\u0644\u0639\u064a\u062f": 5378, "\u0627\u0644\u0627\u062c": 5379, "\u0645\u0634\u064a\u0631\u0629": 5380, "\u0627\u0644\u0636\u0648\u0621": 5381, "\u062e\u0627\u0631\u062c\u064a\u0629": 5382, "##\u062d\u0648\u064a\u0644": 5383, "\u0627\u0644\u0639\u0642\u0644": 5384, "\u0633\u0641\u064a\u0631": 5385, "##\u0644\u0645\u0627\u062a": 5386, "\u0648\u0644\u0643\u0646\u0647\u0627": 5387, "\u0628\u062a\u0627\u0631\u064a\u062e": 5388, "\u0627\u063a\u062a\u064a\u0627\u0644": 5389, "\u0645\u0646\u0634": 5390, "##\u062f\u0631\u062c\u0629": 5391, "\u0627\u0644\u0643\u0648\u0645": 5392, "##\u0647\u0631\u0628\u0627\u0621": 5393, "\u0627\u0644\u0637\u0627\u0644\u0628": 5394, "\u0648\u0627\u0644\u0645\u0648\u0627": 5395, "\u0628\u0627\u0644\u0627\u0633\u062a": 5396, "\u062a\u0646\u0638\u0645": 5397, "\u0648\u0646\u0642\u0644": 5398, "##\u0644\u064a\u0633": 5399, "##\u062d\u0649": 5400, "\u0644\u062d\u0642\u0648\u0642": 5401, "\u0631\u062c": 5402, "\u064a\u0636\u0639": 5403, "\u0627\u0644\u0627\u062d\u062f": 5404, "##\u062d\u0627\u0642": 5405, "\u0641\u0631\u064a": 5406, "\u0641\u0635\u0644": 5407, "\u0648\u0646\u062a": 5408, "##\u062e\u0628\u0629": 5409, "\u0622\u062b\u0627\u0631": 5410, "\u0641\u062c": 5411, "\u062f\u0648\u0644\u0627\u0631\u0627": 5412, "##\u0648\u0632\u0639": 5413, "\u0644\u062a\u0637\u0648\u064a\u0631": 5414, "\u0627\u0644\u0645\u0633\u0627\u0639\u062f\u0627\u062a": 5415, "\u0627\u0644\u062d\u0633\u064a\u0646": 5416, "##\u0631\u064a\u0627\u0636\u0629": 5417, "##\u0648\u0636\u0649": 5418, "\u062a\u0648\u0641\u0631": 5419, "\u0648\u0645\u0631": 5420, "##\u0628\u0627\u0639": 5421, "##\u062e\u0628\u0627\u062a": 5422, "##\u0648\u0627\u0646\u0627\u062a": 5423, "##\u0633\u0631\u0627\u0626\u064a\u0644\u0649": 5424, "##\u0627\u0631\u0647\u0627": 5425, "\u064a\u0642\u0648\u062f": 5426, "\u0627\u0644\u0628\u0631\u0627\u0632\u064a\u0644\u064a": 5427, "\u0647\u0627\u062a": 5428, "\u0633\u0623": 5429, "##\u0632\u0627\u0621": 5430, "\u0627\u0644\u0636\u0631": 5431, "\u0645\u062f\u0646": 5432, "\u0648\u0645\u0634": 5433, "\u0646\u0627\u064a\u0641": 5434, "\u0645\u0627\u064a": 5435, "##\u0635\u0649": 5436, "\u0627\u0644\u0631\u0639\u0627\u064a\u0629": 5437, "\u0627\u0644\u0627\u062a\u062c\u0627\u0647": 5438, "\u0627\u0644\u0628\u0648\u0631": 5439, "\u0648\u0631\u0641\u0636": 5440, "##\u0639\u0631\u0641": 5441, "##\u0642\u0627\u0647\u0631\u0629": 5442, "\u062d\u0642\u064a\u0642\u064a\u0629": 5443, "\u0627\u0631\u0636": 5444, "\u062a\u0648\u0635": 5445, "\u0627\u0644\u0627\u062a\u0647\u0627\u0645": 5446, "##\u0628\u0631\u0646\u0627\u0645\u062c": 5447, "##\u064a\u0644\u0648\u0644": 5448, "##\u062f\u064a\u0627\u0644": 5449, "\u0627\u0644\u0627\u0633\u062a\u0641\u0627\u062f\u0629": 5450, "\u0646\u0627\u0626": 5451, "##\u0642\u0631\u0623": 5452, "\u0627\u0644\u062c\u0627\u0626\u0632\u0629": 5453, "\u0627\u0644\u0646\u0642\u0627\u0628\u0629": 5454, "\u0628\u0639\u0636\u0647\u0627": 5455, "\u0643\u064a\u0644\u0648\u0645": 5456, "\u0648\u0622\u062e\u0631": 5457, "\u0627\u0644\u062c\u0631\u064a\u0645\u0629": 5458, "\u062c\u0627\u0628\u0631": 5459, "\u0627\u0644\u0628\u064a\u0627\u0646\u0627\u062a": 5460, "\u0641\u0643\u0631": 5461, "\u0644\u064a\u0641": 5462, "##\u0627\u0648\u0641": 5463, "\u0644\u0644\u0645\u0633": 5464, "##\u0637\u064a\u0641": 5465, "\u0646\u0647\u0627\u0626\u064a": 5466, "##\u0635\u062f\u064a\u0631": 5467, "\u0645\u0631\u0627\u062d\u0644": 5468, "\u0645\u0639\u0627\u0644\u062c\u0629": 5469, "\u0648\u062c\u0647\u0629": 5470, "\u0627\u0644\u0645\u0633\u062a\u0647\u0644\u0643": 5471, "\u0648\u0627\u0644\u0627\u062a": 5472, "\u0642\u0644\u064a\u0644\u0629": 5473, "\u0627\u0644\u0630\u0627\u062a": 5474, "\u0645\u0634\u062a\u0631\u0643": 5475, "\u0627\u0644\u0633\u0648\u064a\u062f": 5476, "##\u062e\u0635\u0629": 5477, "\u0627\u0644\u0633\u064a\u062f\u0629": 5478, "\u0627\u0644\u0634\u0627\u0631\u0642\u0629": 5479, "\u0628\u0631\u0634\u0644\u0648\u0646\u0629": 5480, "\u0625\u0631": 5481, "##\u062a\u0627\u0628\u0639\u0629": 5482, "\u0627\u0644\u062d\u0643\u0648\u0645\u064a": 5483, "\u0627\u0644\u0645\u062d\u062f": 5484, "\u0627\u0644\u0637\u0631\u064a\u0642\u0629": 5485, "\u0635\u0631\u062d": 5486, "\u0627\u0644\u062d\u0642\u064a\u0642\u064a\u0629": 5487, "\u0627\u0644\u0623\u0647\u062f\u0627\u0641": 5488, "\u062e\u0644\u0627": 5489, "\u0645\u062c\u0647": 5490, "\u062a\u0633\u062a\u0637\u064a\u0639": 5491, "\u0623\u0637": 5492, "\u0627\u0644\u062d\u0642\u064a\u0642\u064a": 5493, "\u0627\u0644\u0645\u064a\u062f": 5494, "\u0627\u0644\u062a\u0644\u0641\u0632\u064a\u0648\u0646": 5495, "\u0627\u0644\u0645\u0639\u0647\u062f": 5496, "##\u0624\u0644": 5497, "##\u0634\u0631\u0642": 5498, "\u0644\u0644\u0645\u0646\u062a": 5499, "\u0627\u0644\u0645\u062b\u0627\u0644": 5500, "\u062d\u0627\u0645": 5501, "\u0648\u0627\u0631\u062a": 5502, "##\u063a\u0648": 5503, "\u0623\u064a\u0629": 5504, "\u0648\u0627\u0644\u062a\u0642": 5505, "\u062c\u0645\u0647\u0648\u0631\u064a\u0629": 5506, "\u0645\u0627\u0644\u064a": 5507, "##\u0643\u062a\u0627\u0628": 5508, "\u0645\u0646\u0638": 5509, "##\u0639\u0647": 5510, "\u0627\u0644\u0627\u0633\u062a\u0631\u0627\u062a\u064a\u062c\u064a\u0629": 5511, "\u0627\u0644\u062d\u062f\u062b": 5512, "##\u0647\u0648\u0631\u064a": 5513, "\u0634\u0627": 5514, "##\u0645\u0627\u0626": 5515, "\u0627\u0644\u0627\u0645\u062a": 5516, "\u0636\u0639\u0641": 5517, "\u0644\u0627\u0639\u0628\u064a": 5518, "\u062a\u062a\u0636\u0645\u0646": 5519, "\u064a\u0635\u0628\u062d": 5520, "##\u0639\u0646": 5521, "\u0645\u0634\u0627\u0631\u0643": 5522, "\u0627\u0644\u0645\u0623": 5523, "##\u0634\u0627\u0645": 5524, "\u0645\u0648\u0642": 5525, "\u0622\u0644\u064a\u0629": 5526, "\u062a\u0639\u0627\u0645\u0644": 5527, "\u0627\u0644\u0631\u0642\u0645": 5528, "\u0646\u062c\u0648\u0645": 5529, "\u0645\u0627\u0644": 5530, "\u0646\u064a\u0633": 5531, "\u0627\u0644\u0627\u0633\u0644\u0627\u0645\u064a": 5532, "\u0645\u0633\u0644\u0645": 5533, "\u0641\u0648\u0631": 5534, "\u0627\u0644\u0646\u064a\u0644": 5535, "\u064a\u0634\u0639\u0631": 5536, "\u0628\u0645\u0631": 5537, "\u0627\u0644\u0637\u0631\u0641": 5538, "\u0646\u0648\u0627\u0628": 5539, "##\u064a\u0645\u064a": 5540, "\u0627\u0644\u0644\u0639\u0628": 5541, "##\u0627\u062c\u0631": 5542, "\u0627\u0644\u062d\u0633": 5543, "\u0648\u0627\u0644\u062a\u062d": 5544, "\u0627\u0644\u0627\u0646\u062a\u0647\u0627\u0621": 5545, "\u062a\u0645\u0644\u0643": 5546, "\u0627\u0644\u0625\u0635\u0627\u0628\u0629": 5547, "##\u062e\u0628\u0627\u0631\u0627\u062a": 5548, "\u0627\u0633\u062a\u0631\u0627\u062a\u064a\u062c\u064a\u0629": 5549, "\u0627\u0644\u0627\u0631\u062a": 5550, "\u062a\u0623\u0643\u064a\u062f": 5551, "\u0645\u0633\u0627\u0639\u062f\u0629": 5552, "\u0628\u064a\u0627\u0646\u0627\u062a": 5553, "\u064a\u062a\u0648\u0642\u0639": 5554, "\u0645\u0639\u062a\u0628\u0631\u0627": 5555, "\u0627\u0644\u0623\u062f\u0627\u0621": 5556, "\u0627\u0644\u0634\u062f\u064a\u062f": 5557, "\u0627\u0644\u0641\u0631\u0635": 5558, "\u0628\u062f\u0648\u0631": 5559, "\u0635\u0644\u0649": 5560, "\u0648\u0627\u0644\u062a\u0646\u0645\u064a\u0629": 5561, "\u0627\u0644\u0627\u0644\u062a\u0632\u0627\u0645": 5562, "150": 5563, "##\u0633\u0627\u0637\u0629": 5564, "\u0627\u0644\u0643\u062a\u0628": 5565, "\u062c\u0647\u062f": 5566, "\u0627\u0644\u064a\u0648\u0645\u064a\u0629": 5567, "\u0644\u064a\u0644": 5568, "\u0645\u0639\u0631\u0641\u0629": 5569, "##\u0647\u0627\u062f\u0627\u062a": 5570, "##\u062d\u0637\u0627\u0646\u064a": 5571, "##\u0639\u0627\u0646": 5572, "\u064a\u0639\u0644\u0645": 5573, "\u0627\u0644\u0627\u064a\u0631\u0627\u0646\u064a": 5574, "\u0645\u0633\u062a\u0634\u0627\u0631": 5575, "\u0627\u0644\u0642\u0636\u0627\u0626\u064a\u0629": 5576, "\u0637\u0631\u0642": 5577, "\u0627\u0644\u0628\u0627\u0644\u063a": 5578, "\u0627\u0633\u062a\u0645\u0631": 5579, "##\u0631\u0627\u0626\u0628": 5580, "\u0627\u0644\u0645\u0631\u0636\u0649": 5581, "\u0633\u0628\u0639\u0629": 5582, "##\u0626\u062a\u0644\u0627\u0641": 5583, "##\u063a\u0627\u0631": 5584, "##\u062a\u064a\u0627\u062a": 5585, "\u0643\u0641": 5586, "\u0628\u062a\u0642\u062f\u064a\u0645": 5587, "##\u062d\u0633\u0646": 5588, "\u0627\u0644\u0637\u0627\u0626\u0641": 5589, "##\u062f\u0627\u0626\u064a\u0629": 5590, "##\u0644\u064a\u0644\u0627": 5591, "##\u062e\u0631\u0629": 5592, "\u0627\u0644\u062c\u0632\u0621": 5593, "##\u0635\u064a": 5594, "##\u0637\u0644\u0627\u0628": 5595, "\u0646\u0642\u0627\u0628\u0629": 5596, "\u0627\u0644\u0633\u0627\u0628\u0639\u0629": 5597, "##\u062d\u062a\u0627\u062c": 5598, "\u0623\u0648\u0644\u0649": 5599, "\u0625\u0636\u0627\u0641": 5600, "##\u062a\u0645\u0627\u0645": 5601, "\u0627\u0644\u0645\u0646\u0648\u0631\u0629": 5602, "\u0627\u0644\u062a\u0627\u0644\u064a": 5603, "\u0645\u0648\u062c\u0648\u062f": 5604, "\u062c\u0631\u062a": 5605, "55": 5606, "\u0627\u0633\u062a\u062e\u062f\u0645": 5607, "\u0627\u0644\u062d\u0627\u062c": 5608, "\u0648\u0639\u0631\u0636": 5609, "##\u0648\u0643\u064a": 5610, "\u0648\u0623\u0648\u0636\u062d\u062a": 5611, "\u0627\u0644\u062a\u062d\u062a": 5612, "\u064a\u0634\u0647\u062f": 5613, "\u0646\u0642\u0635": 5614, "\u0643\u0648\u0644": 5615, "\u0643\u0644\u0627\u0645": 5616, "\u0627\u0644\u0639\u0642\u0648\u0628\u0627\u062a": 5617, "\u0627\u0644\u0631\u0627\u062d\u0644": 5618, "\u0627\u0644\u0645\u0637\u0644\u0648\u0628\u0629": 5619, "\u0627\u062d\u062a\u062c\u0627": 5620, "\u0627\u0642\u062a\u0635\u0627\u062f\u064a\u0629": 5621, "2002": 5622, "\u0642\u0627\u062f\u0631": 5623, "##\u0648\u062f\u0627": 5624, "\u0645\u0628\u0627\u062d\u062b": 5625, "\u062e\u0631\u062c": 5626, "\u0628\u0648\u062c\u0648\u062f": 5627, "##\u0644\u0633": 5628, "##\u0633\u062a\u0627\u0646\u064a": 5629, "\u0643\u0628\u0631\u0649": 5630, "\u0627\u0644\u0642\u062d\u0637\u0627\u0646\u064a": 5631, "\u062a\u0641\u0639\u064a\u0644": 5632, "\u0631\u063a\u0628\u0629": 5633, "##\u0628\u0648\u0637": 5634, "##\u0633\u0648\u0645": 5635, "\u062a\u0632\u064a\u062f": 5636, "\u0633\u0627\u0628\u0642\u0629": 5637, "##\u0644\u0648\u0646": 5638, "##\u0648\u0630": 5639, "\u0644\u062d\u0644": 5640, "\u0627\u062d\u062a\u0631\u0627\u0645": 5641, "\u0627\u0644\u062a\u063a": 5642, "\u0625\u062c\u0645\u0627\u0644\u064a": 5643, "\u0645\u0647\u0627\u062c\u0645": 5644, "\u0633\u0648\u0621": 5645, "\u0627\u0646\u0637\u0644\u0627": 5646, "##\u0647\u0644\u0627": 5647, "\u0627\u0644\u062d\u0631\u0628\u064a": 5648, "\u0644\u0627\u0641\u062a": 5649, "##\u0648\u062a\u0647": 5650, "\u0627\u0644\u062f\u064a\u0645\u0648\u0642\u0631\u0627\u0637\u064a\u0629": 5651, "\u0641\u0633": 5652, "\u0627\u0644\u0642\u0646\u0627\u0629": 5653, "\u0627\u0644\u0637\u0648\u0627\u0631\u0626": 5654, "\u0627\u0644\u0645\u062d\u062a\u0644\u0629": 5655, "\u0648\u0633\u0648\u0641": 5656, "\u0644\u062d\u0638\u0629": 5657, "\u062b\u0627\u0646\u064a": 5658, "##\u0642\u0644\u0627\u0628": 5659, "\u0623\u0639\u0631\u0628": 5660, "\u0627\u0644\u0634\u0645\u0631\u064a": 5661, "\u064a\u062a\u0639\u0631\u0636": 5662, "##20": 5663, "\u0644\u062a\u0645": 5664, "\u0648\u0627\u0644\u0645\u0624\u0633\u0633\u0627\u062a": 5665, "##\u0645\u0643\u0627\u0646": 5666, "\u0627\u0644\u0627\u062e\u064a\u0631": 5667, "\u0639\u0627\u0644\u0645\u064a\u0629": 5668, "\u0627\u0644\u063a\u0631\u0628\u064a": 5669, "\u0645\u0646\u0627\u0641\u0633\u0627\u062a": 5670, "\u0645\u064a\u062f\u0627\u0646": 5671, "\u0631\u0624\u0633\u0627\u0621": 5672, "##\u0648\u064a\u0644\u0627": 5673, "\u062a\u0628\u0627\u062f\u0644": 5674, "\u062a\u0633\u0644\u0645": 5675, "##\u0648\u0628\u0627": 5676, "\u0645\u0628\u0627\u062f\u0631\u0629": 5677, "##\u0628\u0631\u062a": 5678, "\u0645\u0648\u0627\u0641\u0642\u0629": 5679, "\u0662\u0660": 5680, "\u0633\u064a\u0633": 5681, "\u062a\u0623\u062c\u064a\u0644": 5682, "\u0627\u062b\u0646\u064a\u0646": 5683, "\u0644\u0642\u064a": 5684, "##\u0636\u0631\u0627\u0628": 5685, "\u0625\u0644\u063a\u0627\u0621": 5686, "\u0627\u0644\u0645\u0639\u0631\u0648\u0641": 5687, "\u0648\u0623\u064a\u0636\u0627": 5688, "##\u062d\u0638": 5689, "##\u0639\u062f\u0644": 5690, "\u0627\u0644\u0642\u064a\u0645\u0629": 5691, "\u0627\u0644\u0639\u062a\u064a\u0628\u064a": 5692, "\u062d\u0644\u0648\u0644": 5693, "\u0648\u0645\u0648\u0627": 5694, "##\u062f\u0647": 5695, "\u0648\u0625\u0644\u0649": 5696, "\u062c\u0646\u0627": 5697, "\u062a\u0639\u0627\u0644\u0649": 5698, "\u062a\u0639\u0644\u0645": 5699, "\u0648\u0627\u0644\u0633\u0644": 5700, "46": 5701, "41": 5702, "##\u0642\u0633\u0627\u0645": 5703, "\u0648\u0627\u0644\u0645\u0631": 5704, "\u0644\u0644\u0634\u0628\u0627\u0628": 5705, "##\u0628\u0644\u0627\u062f": 5706, "\u062b\u0645\u0629": 5707, "##\u0648\u0627\u062d": 5708, "\u0636\u063a\u0637": 5709, "##\u0631\u0627\u0628\u0629": 5710, "\u0628\u0627\u0644\u0642\u0631\u0628": 5711, "\u0631\u0628\u0639": 5712, "\u0627\u0644\u062a\u062d\u062a\u064a\u0629": 5713, "\u0641\u0627\u0644\u0645": 5714, "\u0633\u0627\u062d\u0629": 5715, "\u0645\u0634\u062a\u0631\u0643\u0629": 5716, "##\u0627\u0626\u0639\u0629": 5717, "\u0623\u063a\u0644\u0628": 5718, "\u0630\u0627": 5719, "##\u062c\u0631\u064a\u0646": 5720, "\u0628\u0645\u0648\u062c\u0628": 5721, "43": 5722, "\u0627\u0644\u062a\u0646\u0633\u064a\u0642": 5723, "\u0627\u0644\u062f\u064a": 5724, "\u0627\u0644\u062e\u0637\u0648\u0629": 5725, "##\u0634\u0631\u064a": 5726, "##\u064a\u064a\u062f": 5727, "\u0627\u0646\u0637\u0644\u0627\u0642": 5728, "\u0645\u0646\u0627\u0632": 5729, "\u0627\u0644\u062a\u0639\u0628\u064a\u0631": 5730, "\u0639\u0645\u0627\u0644": 5731, "##or": 5732, "\u0627\u0644\u0646\u062f\u0648\u0629": 5733, "\u0627\u0644\u0628\u0631\u0644\u0645\u0627\u0646\u064a\u0629": 5734, "\u062c\u0628\u0644": 5735, "\u0644\u0633\u0646\u0629": 5736, "\u062f\u0644\u064a\u0644": 5737, "\u0627\u0644\u0641\u0639\u0644": 5738, "##\u062f\u0627\u0628": 5739, "\u0627\u0633\u062a\u062f": 5740, "\u062c\u064a\u0634": 5741, "\u0648\u0627\u0644\u0639\u0627\u0644\u0645": 5742, "\u0645\u064a\u0634\u0627\u0644": 5743, "\u0627\u0644\u0639\u0635\u0631": 5744, "##\u062b\u0627\u0628\u0629": 5745, "##\u0648\u0646\u062f": 5746, "\u062a\u0645\u0648\u0632": 5747, "\u0648\u0623\u062d\u0645\u062f": 5748, "\u062a\u0642\u0644\u064a": 5749, "\u0627\u0644\u062a\u0631\u0643\u064a\u0632": 5750, "##\u0634\u0627\u062a": 5751, "\u0628\u0625\u0646": 5752, "39": 5753, "\u0627\u0644\u0634\u062e\u0635\u064a\u0627\u062a": 5754, "\u0627\u0644\u0623\u0637\u0628\u0627\u0621": 5755, "\u0627\u0644\u062a\u0623\u0633\u064a\u0633": 5756, "\u0644\u0644\u0627\u0633\u062a\u062b\u0645\u0627\u0631": 5757, "##\u0630\u0627\u0643": 5758, "\u0645\u0631\u0643": 5759, "\u0648\u0646\u0635\u0641": 5760, "\u0627\u0644\u0646\u0648\u0631": 5761, "\u0645\u062d\u0627\u0648\u0644\u0627\u062a": 5762, "\u0644\u0644\u0639\u0627\u0645": 5763, "##\u0643\u0627\u062f\u064a\u0645\u064a\u0629": 5764, "\u062c\u062f\u0648\u0644": 5765, "##\u062e\u0644\u0642": 5766, "\u0635\u062d\u064a": 5767, "\u0628\u0641\u0648\u0632": 5768, "##\u0631\u0627\u0632\u064a\u0644": 5769, "\u0627\u0644\u0641\u0626\u0629": 5770, "##\u0642\u0644\u064a\u0645\u064a": 5771, "\u0627\u0644\u0645\u062e\u062a\u0635\u0629": 5772, "\u0648\u0627\u0644\u0623\u0633": 5773, "##\u0631\u0627\u063a": 5774, "##\u0634\u0627\u0631\u0627\u062a": 5775, "\u0644\u0634\u0624\u0648\u0646": 5776, "\u0648\u0627\u062f": 5777, "##\u0627\u0641\u0644\u0629": 5778, "\u0631\u0635\u062f": 5779, "\u0645\u0628\u0631": 5780, "\u064a\u0639\u062a\u0645\u062f": 5781, "\u0648\u062a\u062d\u062f\u062b": 5782, "\u062e\u0631\u064a": 5783, "##\u0641\u064a\u0631": 5784, "\u0627\u0644\u0645\u0637\u064a\u0631\u064a": 5785, "\u0627\u0639\u062a\u0642\u0627\u0644": 5786, "\u0627\u0644\u0633\u064a\u0631": 5787, "##\u062e\u062a\u064a\u0627\u0631": 5788, "\u0627\u0644\u0628\u0644\u0627": 5789, "##\u062d\u0631\u064a\u0629": 5790, "\u0633\u0627\u0645": 5791, "\u0632\u0627\u0644\u062a": 5792, "\u0631\u0643": 5793, "\u0645\u0639\u0631\u0643\u0629": 5794, "\u0627\u062a\u0635\u0627\u0644\u0627\u062a": 5795, "##\u062b\u0648\u0631": 5796, "\u0642\u064a\u0627": 5797, "##\u0646\u0627\u0647\u0627": 5798, "\u0647\u0645\u0627": 5799, "\u0627\u0644\u062e\u0628\u0631\u0627\u0621": 5800, "\u0644\u062c\u0627\u0646": 5801, "##en": 5802, "\u0627\u0644\u0625\u0639\u0644\u0627\u0645\u064a\u0629": 5803, "##\u0627\u0631\u0626": 5804, "\u0641\u0639\u0644\u0627": 5805, "##\u0631\u0628\u0627": 5806, "\u0627\u0644\u0642\u062f\u064a\u0645": 5807, "\u0627\u0644\u062d\u0648": 5808, "\u0623\u0639\u062f\u0627\u062f": 5809, "##\u0639\u0644\u0648\u0645\u0627\u062a": 5810, "\u0639\u0635": 5811, "\u0645\u0643\u0648\u0646": 5812, "\u0637\u0641\u0644": 5813, "\u0637\u0628\u064a\u0639\u0629": 5814, "\u062e\u0637\u0623": 5815, "\u0623\u0633\u062a": 5816, "\u0625\u0633\u0645\u0627\u0639\u064a\u0644": 5817, "##\u0627\u0631\u062a\u0647\u0627": 5818, "##\u0632\u0648\u062c": 5819, "\u062e\u062a\u0627\u0645": 5820, "\u0627\u0644\u0628\u0644\u062f\u064a": 5821, "\u0644\u0644\u0627\u0646\u062a\u062e\u0627\u0628\u0627\u062a": 5822, "400": 5823, "##\u0643\u0631\u0645": 5824, "\u0627\u0644\u0642\u0631\u064a\u0629": 5825, "\u062a\u062c\u0631\u064a": 5826, "\u0627\u0644\u0645\u062d\u0627\u0641\u0638\u0627\u062a": 5827, "##\u0633\u062a\u0647\u0627": 5828, "\u0632\u0639\u064a\u0645": 5829, "\u0627\u0646\u062a\u062e\u0627\u0628": 5830, "\u0623\u0646\u0641\u0633\u0647\u0645": 5831, "\u0623\u0633\u0627": 5832, "\u0623\u0628\u0637\u0627\u0644": 5833, "\u0644\u0644\u062d\u0643\u0648\u0645\u0629": 5834, "##\u0636\u0639\u0641": 5835, "\u062c\u0627": 5836, "##\u0646\u064a\u0639": 5837, "\u0630\u0627\u062a\u0647\u0627": 5838, "\u062d\u0632\u064a\u0631\u0627\u0646": 5839, "\u0635\u064a\u062f\u0627": 5840, "\u0627\u0644\u0645\u0644\u0643\u064a\u0629": 5841, "\u0627\u0644\u0646\u0635\u0641": 5842, "2015": 5843, "\u0648\u0631\u0648": 5844, "\u064a\u0633\u0627\u0639\u062f": 5845, "\u062a\u062f\u0627\u0648\u0644": 5846, "\u062e\u0631": 5847, "\u0639\u0631\u0628\u064a": 5848, "\u0639\u0627\u0626": 5849, "##\u0639\u0627\u0629": 5850, "##\u0627\u062f\u0631\u0627\u062a": 5851, "\u0648\u064a\u062c\u0628": 5852, "##\u062c\u0627\u0647\u0644": 5853, "\u0627\u0644\u0623\u0632\u0647\u0631": 5854, "\u0627\u0644\u0635\u0648\u0631": 5855, "##\u0647\u0646\u0629": 5856, "\u0634\u0642\u064a\u0642": 5857, "\u0627\u0644\u062c\u0628\u0647\u0629": 5858, "\u0627\u0644\u0637\u0639\u0627\u0645": 5859, "\u0644\u062a\u0646\u0641\u064a\u0630": 5860, "\u0644\u0645\u0633\u062a": 5861, "\u0627\u0644\u0645\u0648\u0627\u0641\u0642\u0629": 5862, "\u062d\u0645\u0648\u062f": 5863, "##\u0624\u0648\u0644\u0629": 5864, "\u0648\u0627\u0644\u064a": 5865, "\u0644\u0644\u062f\u0648\u0644\u0629": 5866, "\u0627\u0644\u0639\u0645\u0627\u0644\u0629": 5867, "\u0648\u062a\u0635": 5868, "\u0633\u064a\u0627\u0642": 5869, "##\u0628\u0633": 5870, "\u0648\u0623\u0639\u0644\u0646": 5871, "\u064a\u062a\u0637\u0644\u0628": 5872, "\u0627\u0644\u0639\u0627\u0634": 5873, "\u0641\u0646\u064a\u0629": 5874, "##\u0637\u0631\u064a\u0629": 5875, "\u0628\u0645\u062b\u0627\u0628\u0629": 5876, "\u0627\u0644\u0645\u0631\u062a\u0628\u0629": 5877, "\u0644\u064a\u0643\u0648\u0646": 5878, "\u0627\u0644\u0645\u062f\u0649": 5879, "\u0627\u0644\u062d\u0645\u0644": 5880, "##\u0648\u0638": 5881, "\u064a\u0633\u0645\u0649": 5882, "\u062a\u0639\u062a\u0645\u062f": 5883, "\u0627\u0644\u0646\u0627\u062f\u0649": 5884, "\u0644\u0644\u0623\u0645\u0645": 5885, "\u0627\u0644\u0641\u0627": 5886, "##\u0642\u0627\u0628": 5887, "##\u0643\u0648\u0631": 5888, "##\u0645\u0627\u0643\u0646": 5889, "\u0627\u0644\u0645\u062c\u0645\u0648\u0639": 5890, "##\u0636\u064a\u0631": 5891, "##\u062b\u0627\u0631\u0629": 5892, "##\u064a\u0627\u062a\u0647\u0627": 5893, "\u0628\u0627\u0643\u0633\u062a\u0627\u0646": 5894, "\u064a\u0642\u0641": 5895, "\u0627\u0644\u0639\u0633\u0643\u0631\u0649": 5896, "\u0644\u0648\u0643\u0627\u0644\u0629": 5897, "\u0627\u0644\u0645\u062e\u0631\u062c": 5898, "\u0627\u0644\u0645\u0646\u062a\u062c\u0627\u062a": 5899,
[...]
